{"<s>":0,"<pad>":1,"</s>":2,"<unk>":3,"<mask>":4,"!":5,"\"":6,"#":7,"$":8,"%":9,"&":10,"'":11,"(":12,")":13,"*":14,"+":15,",":16,"-":17,".":18,"/":19,"0":20,"1":21,"2":22,"3":23,"4":24,"5":25,"6":26,"7":27,"8":28,"9":29,":":30,";":31,"<":32,"=":33,">":34,"?":35,"@":36,"A":37,"B":38,"C":39,"D":40,"E":41,"F":42,"G":43,"H":44,"I":45,"J":46,"K":47,"L":48,"M":49,"N":50,"O":51,"P":52,"Q":53,"R":54,"S":55,"T":56,"U":57,"V":58,"W":59,"X":60,"Y":61,"Z":62,"[":63,"\\":64,"]":65,"^":66,"_":67,"`":68,"a":69,"b":70,"c":71,"d":72,"e":73,"f":74,"g":75,"h":76,"i":77,"j":78,"k":79,"l":80,"m":81,"n":82,"o":83,"p":84,"q":85,"r":86,"s":87,"t":88,"u":89,"v":90,"w":91,"x":92,"y":93,"z":94,"{":95,"|":96,"}":97,"~":98,"¡":99,"¢":100,"£":101,"¤":102,"¥":103,"¦":104,"§":105,"¨":106,"©":107,"ª":108,"«":109,"¬":110,"®":111,"¯":112,"°":113,"±":114,"²":115,"³":116,"´":117,"µ":118,"¶":119,"·":120,"¸":121,"¹":122,"º":123,"»":124,"¼":125,"½":126,"¾":127,"¿":128,"À":129,"Á":130,"Â":131,"Ã":132,"Ä":133,"Å":134,"Æ":135,"Ç":136,"È":137,"É":138,"Ê":139,"Ë":140,"Ì":141,"Í":142,"Î":143,"Ï":144,"Ð":145,"Ñ":146,"Ò":147,"Ó":148,"Ô":149,"Õ":150,"Ö":151,"×":152,"Ø":153,"Ù":154,"Ú":155,"Û":156,"Ü":157,"Ý":158,"Þ":159,"ß":160,"à":161,"á":162,"â":163,"ã":164,"ä":165,"å":166,"æ":167,"ç":168,"è":169,"é":170,"ê":171,"ë":172,"ì":173,"í":174,"î":175,"ï":176,"ð":177,"ñ":178,"ò":179,"ó":180,"ô":181,"õ":182,"ö":183,"÷":184,"ø":185,"ù":186,"ú":187,"û":188,"ü":189,"ý":190,"þ":191,"ÿ":192,"Ā":193,"ā":194,"Ă":195,"ă":196,"Ą":197,"ą":198,"Ć":199,"ć":200,"Ĉ":201,"ĉ":202,"Ċ":203,"ċ":204,"Č":205,"č":206,"Ď":207,"ď":208,"Đ":209,"đ":210,"Ē":211,"ē":212,"Ĕ":213,"ĕ":214,"Ė":215,"ė":216,"Ę":217,"ę":218,"Ě":219,"ě":220,"Ĝ":221,"ĝ":222,"Ğ":223,"ğ":224,"Ġ":225,"ġ":226,"Ģ":227,"ģ":228,"Ĥ":229,"ĥ":230,"Ħ":231,"ħ":232,"Ĩ":233,"ĩ":234,"Ī":235,"ī":236,"Ĭ":237,"ĭ":238,"Į":239,"į":240,"İ":241,"ı":242,"Ĳ":243,"ĳ":244,"Ĵ":245,"ĵ":246,"Ķ":247,"ķ":248,"ĸ":249,"Ĺ":250,"ĺ":251,"Ļ":252,"ļ":253,"Ľ":254,"ľ":255,"Ŀ":256,"ŀ":257,"Ł":258,"ł":259,"Ń":260,"Ġt":261,"he":262,"Ġa":263,"in":264,"er":265,"on":266,"Ġthe":267,"re":268,"Ġo":269,"an":270,"ed":271,"is":272,"at":273,"en":274,"Ġs":275,"or":276,"es":277,"it":278,"Ġw":279,"ar":280,"al":281,"Ġof":282,"nd":283,"Ġc":284,"Ġf":285,"Ġin":286,"Ġb":287,"Ġp":288,"ic":289,"as":290,"ing":291,"Ġand":292,"ro":293,"le":294,"ion":295,"Ġm":296,"Ġto":297,"Ġd":298,"ĠS":299,"ou":300,"il":301,"Ġh":302,"ĠC":303,"ĠT":304,"ĠA":305,"Ġ1":306,"ent":307,"om":308,"el":309,"Ġ(":310,"st":311,"am":312,"ĠM":313,"Ġn":314,"ter":315,"ol":316,"Ġl":317,"=\"":318,"Ġre":319,"ac":320,"ĠB":321,"id":322,"ad":323,"ĠP":324,"Ġis":325,"Ġth":326,"et":327,"ec":328,"ĠH":329,"ur":330,"ly":331,"oc":332,"us":333,"iv":334,"ĠI":335,"Ġe":336,"ig":337,"im":338,"ation":339,"Ġwas":340,"ot":341,"ir":342,"ĠR":343,"Ġfor":344,"Ġon":345,"ow":346,"ĠD":347,"ut":348,"Ġg":349,"ĠL":350,"ay":351,"ĠĠ":352,"Ġ19":353,"ĠF":354,"ĠThe":355,"em":356,"ver":357,"ch":358,"ĠG":359,"00":360,"ĠW":361,"Ġas":362,"her":363,"un":364,"ith":365,"ul":366,"Ġ2":367,"ĠN":368,"Ġpro":369,"and":370,"ist":371,"Ġst":372,"ce":373,"ĠE":374,"ers":375,"ag":376,"Ġbe":377,"Ġal":378,"Ġwith":379,"ct":380,"Ġby":381,"th":382,"os":383,"ess":384,"ĠJ":385,"'s":386,"um":387,"Ġwh":388,"ra":389,"Ġan":390,"op":391,"rom":392,"Ġat":393,"ri":394,"Ġhe":395,"od":396,"Ġcon":397,"Ġthat":398,"est":399,"doc":400,"ĠO":401,"av":402,"ill":403,"Ġ\"":404,"Ġ-":405,"ain":406,"ity":407,"Ġfrom":408,"res":409,"if":410,"Ġit":411,"ĠK":412,"ab":413,"Ġor":414,"ew":415,"ts":416,"ies":417,"Ġv":418,"up":419,"Ġcom":420,"ĠU":421,"ex":422,"ian":423,"igh":424,"The":425,"ak":426,"ate":427,"Ġare":428,"ber":429,"ap":430,");":431,"all":432,"ard":433,"Ġhis":434,"art":435,"ud":436,"ia":437,"ind":438,"ich":439,"Ġr":440,"ld":441,"ĠSt":442,"19":443,"se":444,"ge":445,"ore":446,"Ġde":447,"qu":448,"ear":449,"cess":450,"nt":451,"ip":452,"ub":453,"ort":454,"Ġ200":455,"ial":456,"ive":457,"ov":458,"Ġex":459,"ated":460,"og":461,"ks":462,"end":463,"ere":464,"ell":465,"ame":466,"ĠV":467,"ant":468,"Ġch":469,"ĠCh":470,"gh":471,"ĠIn":472,"our":473,"ong":474,"Ġpl":475,"ary":476,"ine":477,"Ġk":478,"so":479,"und":480,"Ġid":481,"ĠĊ":482,"ast":483,"ep":484,"ment":485,"ost":486,"Ġwere":487,"Ġtit":488,"Ġnon":489,"ord":490,"ure":491,"AR":492,"Ġprocess":493,"ust":494,"Ġtitle":495,"ish":496,"ical":497,"Ġsh":498,"Ġy":499,"ther":500,"Ġwhich":501,"tered":502,"tern":503,"fil":504,"ran":505,"uc":506,"ect":507,"Ġle":508,"ire":509,"IC":510,"Ġse":511,"ie":512,"EN":513,"Ġalso":514,"ome":515,"LE":516,"DO":517,"Ġsp":518,"ART":519,"index":520,"Ġprocessed":521,"Ġdb":522,"filtered":523,"\">":524,"Ġnonfiltered":525,"Ġdbindex":526,"</":527,"ICLE":528,"DOF":529,"ARTICLE":530,"ENDOF":531,"ENDOFARTICLE":532,"ack":533,"age":534,"ous":535,"mer":536,"Ġhas":537,"ight":538,"ff":539,"Ġnot":540,"pp":541,"Ġus":542,"ry":543,"Ġ;":544,"ave":545,"ĠHe":546,"ue":547,"ions":548,"ĠĠĠĠ":549,"are":550,"Ġun":551,"iz":552,"Ġinc":553,"Ġ3":554,"ass":555,"own":556,").":557,"),":558,"Ġcomp":559,"Ġ18":560,"ĠUn":561,"Ġwhe":562,"fer":563,"Ġ.":564,"ok":565,"ric":566,"Ġhad":567,"ite":568,"ign":569,"Ġar":570,"Ġ199":571,"irst":572,"man":573,"per":574,"ĠTh":575,"ount":576,"ally":577,"rit":578,"ĠY":579,"land":580,"ens":581,"ory":582,"ork":583,"ond":584,"Ġint":585,"ide":586,"ĠIt":587,"ang":588,"out":589,"Ġcont":590,"ice":591,"Ġcl":592,"ime":593,"ke":594,"Ġbut":595,"Ġwho":596,"act":597,"erv":598,"pl":599,"Ġtheir":600,"ph":601,"ib":602,"Ġone":603,"ater":604,"Ġthis":605,"wn":606,"ence":607,"ations":608,"ach":609,"Ġhave":610,"ng":611,"Ġab":612,"fter":613,"ace":614,"Ġman":615,"ĠAl":616,"Ġfirst":617,"wo":618,"enc":619,"Ġits":620,"Ġro":621,"over":622,"Ġall":623,"old":624,"orn":625,"ition":626,"Ġad":627,"Ġ4":628,"Ġres":629,"ould":630,"ool":631,"Ġyear":632,"ee":633,"ound":634,"ru":635,"Ġother":636,"ult":637,"ember":638,"Ġj":639,"ark":640,"pt":641,"lect":642,"orm":643,"ree":644,"Ġapp":645,"Ġpart":646,"hed":647,"ates":648,"ugh":649,"uch":650,"In":651,"Ġbec":652,"Ġher":653,"hn":654,"one":655,"Ġac":656,"amp":657,"ational":658,"18":659,"ile":660,"eb":661,"aw":662,"lud":663,"Ġplay":664,"ress":665,"les":666,"ob":667,"port":668,"ely":669,"Ġlin":670,"ne":671,"ons":672,"ited":673,"ade":674,"ubl":675,"ents":676,"Ġper":677,"ĠAr":678,"oy":679,"able":680,"Ġcan":681,"Ġbeen":682,"ough":683,"oll":684,"Ġrec":685,"chool":686,"Ġout":687,"iss":688,"ĠNew":689,"ild":690,"Ġup":691,"eg":692,"ail":693,"ors":694,"ug":695,"Ġinclud":696,"Ġtwo":697,"Ġim":698,"vel":699,"ath":700,"Ġthey":701,"Ġover":702,"ternal":703,"io":704,"Ġ|":705,"ĠCom":706,"Ġ198":707,"uring":708,"Ġ5":709,"ivers":710,"oin":711,"Ġsc":712,"ood":713,"ose":714,"Ġag":715,"ans":716,"Ġ6":717,"Ġdis":718,"Ġen":719,"Ġcomm":720,"meric":721,"ĠMar":722,"ever":723,"ance":724,"red":725,"Ġte":726,"Ġinto":727,"Ġev":728,"Ġ||":729,"Ġund":730,"ake":731,"Ġhim":732,"ont":733,"ied":734,"ings":735,"Ġact":736,"ased":737,"urn":738,"xternal":739,"Ġpr":740,"orld":741,"10":742,"ft":743,"Ġafter":744,"Ġkn":745,"ss":746,"hip":747,"Ġoff":748,"ase":749,"Ġmore":750,"ics":751,"12":752,"Ġtr":753,"pe":754,"als":755,"we":756,"ĠAmeric":757,"Ġdes":758,"ick":759,"ters":760,"way":761,"Ġnew":762,"Ġunder":763,"te":764,"Ġatt":765,"200":766,"ict":767,"ious":768,"ren":769,"ouse":770,"Ġtime":771,"Ġmost":772,"ton":773,"ward":774,"ĠSh":775,"Ġver":776,"Ġwhen":777,"reat":778,"Ġlinks":779,"Ġ197":780,"13":781,"Ġloc":782,"Ġpop":783,"outh":784,"ular":785,"rough":786,"Ġyears":787,"ah":788,"Ġgro":789,"Ġonly":790,"olog":791,"ram":792,"Ġshe":793,"ction":794,"ĠSp":795,"ener":796,"ev":797,"form":798,"Ġthere":799,"orth":800,"amil":801,"50":802,"17":803,"oth":804,"gan":805,"Ġpre":806,"Ġsome":807,"Ġthem":808,"ted":809,"Ġcons":810,"ll":811,"eat":812,"aus":813,"du":814,"anc":815,"Ġused":816,"Ġform":817,"ik":818,"ral":819,"Ġso":820,"External":821,"rans":822,"ince":823,"14":824,"Ġserv":825,"Ġsy":826,"Ġwork":827,"Ġind":828,"16":829,"ĠJo":830,"Ġwould":831,"inal":832,"az":833,"ĠThis":834,"ey":835,"ten":836,"hen":837,"ix":838,"Ġbet":839,"ins":840,"Ġme":841,"iel":842,"Ġqu":843,"ook":844,"ower":845,"ĠZ":846,"tle":847,"ual":848,"ock":849,"15":850,"iversity":851,"Ġ7":852,"Ġmany":853,"rib":854,"ĠPro":855,"ĠSc":856,"ann":857,"Ġ196":858,"Ġsuch":859,"ames":860,"ike":861,"20":862,"Ġreg":863,"ublic":864,"raph":865,"ences":866,"199":867,"oun":868,"aj":869,"Ġsup":870,"ities":871,"ife":872,"Ġpe":873,"Ġcent":874,"Ġwhere":875,"duc":876,"Ġsec":877,"Ġ9":878,"Ġabout":879,"arl":880,"Ġrel":881,"air":882,"30":883,"Ġmov":884,"ative":885,"ilm":886,"Ġsub":887,"Ġthan":888,"ĠAn":889,"ision":890,"Ġfl":891,"ĠCl":892,"ĠCol":893,"ĠUnited":894,"ier":895,"ished":896,"any":897,"ale":898,"Ġ8":899,"ars":900,"ĠAmerican":901,"der":902,"ween":903,"Ġcol":904,"ley":905,"Ġknown":906,"ĠEng":907,"Ġinter":908,"Ġthrough":909,"Ġpol":910,"inn":911,"Ġchar":912,"ism":913,"iet":914,"hes":915,"Ġnum":916,"ific":917,"ash":918,"Ġbu":919,"ement":920,"Ġ0":921,"resent":922,"round":923,"overn":924,"Ġdec":925,"usic":926,"Ġrem":927,"Ġstud":928,"fore":929,"Ġcall":930,"oss":931,"Ġmade":932,"Ġret":933,"ĠLe":934,"ve":935,"Ġfound":936,"ĠInd":937,"emb":938,"Ġduring":939,"Ġdo":940,"ollow":941,"40":942,"owever":943,"ext":944,"ron":945,"ople":946,"its":947,"iver":948,"Ġthen":949,"Ġagain":950,"Ġbetween":951,"enn":952,"ĠIs":953,"Ġno":954,"stem":955,"Ġ2006":956,"eries":957,"Ġwill":958,"ually":959,"Ġass":960,"ĠBl":961,"ern":962,"ĠFor":963,"ĠUniversity":964,"iam":965,"Ġlar":966,"cc":967,"elf":968,"Ġbl":969,"ĠAs":970,"ograph":971,"ĠĠĠĠĠĠĠĠ":972,"Ġam":973,"ris":974,"ulation":975,"..":976,"Ġwell":977,"com":978,"Ġfamil":979,"ert":980,"ales":981,"Ġname":982,"Ġent":983,"Ġbeing":984,"istory":985,"ury":986,"other":987,"ober":988,"Ġra":989,"Ġtra":990,"Ġelect":991,"Ġart":992,"ĠQ":993,"36":994,"Ġ10":995,"ounty":996,"Ġprov":997,"ield":998,"Ġend":999,"ures":1000,"ĠJohn":1001,"Ġ17":1002,"ating":1003,"oot":1004,"ident":1005,"ty":1006,"25":1007,"son":1008,"Ġdef":1009,"erm":1010,"Ġph":1011,"Ġdist":1012,"Ġage":1013,"ines":1014,"Ġinv":1015,"Ġtrans":1016,"ina":1017,"por":1018,"Ġmed":1019,"26":1020,"ays":1021,"ĠSchool":1022,"Ġrele":1023,"Ġlater":1024,"28":1025,"inc":1026,"Ġspec":1027,"Ġschool":1028,"velop":1029,"29":1030,"27":1031,"Ġmod":1032,"ason":1033,"Ġbecame":1034,"ĠStates":1035,"45":1036,"ists":1037,"39":1038,"Ġ&":1039,"47":1040,"Ġfilm":1041,"37":1042,"38":1043,"Ġfollow":1044,"ather":1045,"ĠPh":1046,"Ġset":1047,"irect":1048,"48":1049,"ĠWh":1050,"ĠWar":1051,"ution":1052,"Ġany":1053,"Ġco":1054,"iew":1055,"46":1056,"erman":1057,"urre":1058,"icial":1059,"35":1060,"arly":1061,"ferences":1062,"ĠComm":1063,"erson":1064,"ĠFran":1065,"Ġthree":1066,"Ġtown":1067,"49":1068,"Ġed":1069,"ys":1070,"ĠCon":1071,"000":1072,"Ġmay":1073,"rad":1074,"ull":1075,"uss":1076,"ĠCan":1077,"Ġown":1078,"pen":1079,"Ġshow":1080,"ise":1081,"Ġlead":1082,"bum":1083,"ĠShe":1084,"Ġorig":1085,"Ġpeople":1086,"ax":1087,"arri":1088,".\"":1089,"Ġcap":1090,"ĠDe":1091,"Ġ'":1092,"Ġdif":1093,"ause":1094,"ject":1095,"ank":1096,"Ġcity":1097,"imes":1098,"rist":1099,"ful":1100,"ting":1101,"iving":1102,"eth":1103,"Ġsm":1104,"ered":1105,"Ġinst":1106,"Ġgroup":1107,"Ġteam":1108,"Ġmain":1109,"ĠAt":1110,"ĠBrit":1111,"oo":1112,"ĠRe":1113,"Ġ2005":1114,"Ġsystem":1115,"ived":1116,"Ġincluding":1117,"Ġhigh":1118,"ives":1119,"ĠWorld":1120,"ĠPr":1121,"ept":1122,"Ġhouse":1123,"Ġ16":1124,"rid":1125,"els":1126,"au":1127,"ĠAd":1128,"\",":1129,"Ġarea":1130,"Ġyou":1131,"Ġsing":1132,"ute":1133,"Ġgener":1134,"ces":1135,"Ġcalled":1136,"Ġuse":1137,"ĠOr":1138,"Re":1139,"Ġback":1140,"Ġrecord":1141,"ional":1142,"Ġboth":1143,"Ġcre":1144,"Ġsever":1145,"ĠPl":1146,"Ġever":1147,"Ġpopulation":1148,"uro":1149,"arn":1150,"Ġem":1151,"ology":1152,"Ġseries":1153,"amed":1154,"Ġbefore":1155,"ai":1156,"Ġwe":1157,"Ġexp":1158,"Ġbro":1159,"led":1160,"198":1161,"Ġbel":1162,"Ġsecond":1163,"Ġwrit":1164,"ove":1165,"Ġvar":1166,"ible":1167,"my":1168,"56":1169,"Ġnumber":1170,"Ġadd":1171,"urch":1172,"min":1173,"58":1174,"Ġsur":1175,"ets":1176,"overnment":1177,"uth":1178,"Ġdevelop":1179,"ient":1180,"57":1181,"til":1182,"59":1183,"ize":1184,"gram":1185,"ajor":1186,"\".":1187,"Ġoper":1188,"ox":1189,"lish":1190,"Ġrep":1191,"Ġbar":1192,"eed":1193,"Ġob":1194,"Ġthese":1195,"ring":1196,"Ġ$":1197,"Ġgo":1198,"isc":1199,"urrent":1200,"Ġalbum":1201,"Ġacc":1202,"let":1203,"ĠCounty":1204,"une":1205,"Ġmusic":1206,"ĠAust":1207,"Ġlong":1208,"Ġsim":1209,"Ġext":1210,"ues":1211,"Ch":1212,"ired":1213,"ĠYork":1214,"the":1215,"Ġmin":1216,"Ġgame":1217,"St":1218,"Ġcharac":1219,"ĠĠĊ":1220,"rict":1221,"cept":1222,"Ġuntil":1223,"Th":1224,"Ġfeat":1225,"ized":1226,"ically":1227,"Ġsuc":1228,"Ġwhile":1229,"ium":1230,"ĠKing":1231,"Ġgu":1232,"ĠOn":1233,"by":1234,"Ġsong":1235,"ball":1236,"ode":1237,"Ġold":1238,"vent":1239,"ple":1240,"ger":1241,"ĠII":1242,"ared":1243,"ane":1244,"11":1245,"Ġseveral":1246,"Ġsame":1247,"ĠCent":1248,"ĠGe":1249,"Ġfamily":1250,"ret":1251,"Ġcount":1252,"fl":1253,"Ġworld":1254,"ĠUS":1255,"ĠGerman":1256,"Ġmon":1257,"ved":1258,"ages":1259,"Ġ2000":1260,"arm":1261,"ural":1262,"aid":1263,"sp":1264,"Ġfour":1265,"Ġdisc":1266,"Ġest":1267,"Ġband":1268,"ility":1269,"Ġsign":1270,"Ġagainst":1271,"ounc":1272,"ĠGu":1273,"ird":1274,"rand":1275,"ene":1276,"Ġrun":1277,"ains":1278,"aking":1279,"60":1280,"ĠPe":1281,"Ġsmall":1282,"--":1283,"Ġair":1284,"Ġvers":1285,"sh":1286,"ven":1287,"ĠNational":1288,"ained":1289,"ĠBe":1290,"pr":1291,"echn":1292,"ĠEd":1293,"ĠSouth":1294,"ĠMan":1295,"Ġdesign":1296,"yl":1297,"ĠThey":1298,"ĠBro":1299,"Ġnow":1300,"22":1301,"Ġpar":1302,"70":1303,"ĠCanad":1304,"\";":1305,"ange":1306,"oint":1307,"Ġdr":1308,"ternational":1309,"Ġ20":1310,"ission":1311,"ital":1312,"Ġvery":1313,"Ġdirect":1314,"ĠHis":1315,"ĠMay":1316,"Ġcontin":1317,"though":1318,"Ġprodu":1319,"Ġconst":1320,"lege":1321,"for":1322,"ross":1323,"hold":1324,"ott":1325,"Ġ2004":1326,"ister":1327,"44":1328,"embers":1329,"Ġnear":1330,"cl":1331,"ĠNorth":1332,"ĠCity":1333,"ĠBritish":1334,"oci":1335,"Ġeff":1336,"ham":1337,"Ġstate":1338,"yn":1339,"ices":1340,"oman":1341,"ography":1342,"Ġchild":1343,"ony":1344,"Ġearly":1345,"ble":1346,"Ġoften":1347,"osed":1348,"Ġfin":1349,"33":1350,"ster":1351,"lev":1352,"apan":1353,"Ġlocated":1354,"Ġ15":1355,"ience":1356,"ĠEx":1357,"ĠWill":1358,"Ġland":1359,"rat":1360,"ĠAll":1361,"See":1362,"80":1363,"ĠSoc":1364,"Ġsince":1365,"Ġterm":1366,"Ġprogram":1367,"Ġappear":1368,"Ġpolit":1369,"resident":1370,"Ġeach":1371,"ĠCar":1372,"ured":1373,"uary":1374,"Ġcurrent":1375,"Ġsl":1376,"ĠJan":1377,"ians":1378,"duced":1379,"Ġdep":1380,"ĠDec":1381,"ĠFl":1382,"Ġpower":1383,"Ġpublic":1384,"ck":1385,"Ġdiffer":1386,"ĠHigh":1387,"rop":1388,"ĠCal":1389,"af":1390,"uck":1391,"ague":1392,"ments":1393,"ĠX":1394,"Ġimp":1395,"ants":1396,"79":1397,"ĠAir":1398,"Ġdid":1399,"Ġcould":1400,"urope":1401,"get":1402,"Ġevery":1403,"ects":1404,"ĠChrist":1405,"Ġclass":1406,"He":1407,"ugust":1408,"Ġthose":1409,"Ġlife":1410,"ille":1411,"References":1412,"Ġorgan":1413,"ruct":1414,"yp":1415,"oard":1416,"Ġmil":1417,"mp":1418,"Ġmajor":1419,"ided":1420,"Ġpartic":1421,"ner":1422,"Ġmat":1423,"69":1424,"Ġcommun":1425,"reen":1426,"Ġstart":1427,"Ġ12":1428,"att":1429,"ior":1430,"Ġif":1431,"ĠNov":1432,"eptember":1433,"eng":1434,"ĠĠĠ":1435,"Ġreleased":1436,"Ġreturn":1437,"Ġgovernment":1438,"ĠHar":1439,"Ġopen":1440,"32":1441,"Ġocc":1442,"68":1443,"Ġsuccess":1444,"Ġlike":1445,"ially":1446,"42":1447,"hem":1448,"78":1449,"ently":1450,"ĠHowever":1451,"ĠAustral":1452,"ĠRep":1453,"ink":1454,"angu":1455,"Ġresp":1456,"ĠAss":1457,"aster":1458,"born":1459,"Ġformer":1460,"Ġcontro":1461,"ĠAm":1462,"row":1463,"ĠAnd":1464,"Ġbecause":1465,"Ġline":1466,"Ġaround":1467,"55":1468,"ling":1469,"Ġbuild":1470,"ebs":1471,"Ġhousehold":1472,"ctober":1473,"ung":1474,"fess":1475,"ilt":1476,"ĠJu":1477,"Ġplace":1478,"Ġeven":1479,"ĠAb":1480,"aim":1481,"Ġconsid":1482,"Ġfem":1483,"ĠBar":1484,"akes":1485,"ese":1486,"Ġhead":1487,"Ġpass":1488,"augh":1489,"ĠPol":1490,"Ġlist":1491,"orks":1492,"arch":1493,"Ġplayed":1494,"Ġmembers":1495,"ĠJapan":1496,"que":1497,"Ġnamed":1498,"Ġkm":1499,"ata":1500,"ech":1501,"Ġcare":1502,"Ġstill":1503,"Ġtext":1504,"Ġcar":1505,"ĠMin":1506,"tt":1507,"ality":1508,"aving":1509,"rew":1510,"ĠEurope":1511,"ĠMc":1512,"ĠEnglish":1513,"Ġlarge":1514,"Ġpubl":1515,"acks":1516,"ĠCo":1517,"ĠThere":1518,"iety":1519,"ĠAf":1520,"'t":1521,"ody":1522,"Ġpresent":1523,"gy":1524,"ator":1525,"43":1526,"ature":1527,"ĠTr":1528,"wards":1529,"90":1530,"ords":1531,"ights":1532,"aul":1533,"idd":1534,"ued":1535,"aces":1536,"Ġlit":1537,"ĠState":1538,"uk":1539,"gest":1540,"istor":1541,"|-":1542,"lex":1543,"ebsite":1544,"ately":1545,"ino":1546,"ats":1547,"ĠDr":1548,"Al":1549,"ides":1550,"Ġrece":1551,"ection":1552,"ald":1553,"Ġleg":1554,"Ġperson":1555,"ĠGeor":1556,"ĠAugust":1557,"ĠWest":1558,"Ġmet":1559,"Ġep":1560,"ily":1561,"amb":1562,"Ġeng":1563,"Ġdown":1564,"Ġmuch":1565,"Ġhome":1566,"Ġref":1567,"Ġhel":1568,"Ġbased":1569,"ĠSeptember":1570,"Ġsee":1571,"uff":1572,"Ġthough":1573,"Ġlast":1574,"Ġmake":1575,"Ġseason":1576,"Ġjust":1577,"rem":1578,"side":1579,"alk":1580,"attle":1581,"Ġcharacter":1582,"Ġdesc":1583,"sc":1584,"osition":1585,"pril":1586,"76":1587,"ford":1588,"iven":1589,"Ġfollowing":1590,"ĠPart":1591,"ended":1592,"day":1593,"ows":1594,"Ġbegan":1595,"Ġ2003":1596,"ged":1597,"Ġconc":1598,"Ġleft":1599,"ised":1600,"ĠMarch":1601,"Ġorder":1602,"ĠEl":1603,"aced":1604,"ĠComp":1605,"ves":1606,"Ġalong":1607,"rench":1608,"ĠSe":1609,"ival":1610,"riend":1611,"read":1612,"Ġpopular":1613,"oon":1614,"formation":1615,"Ġinclude":1616,"ĠJanuary":1617,"ĠAfter":1618,"Ġdifferent":1619,"ĠSw":1620,"Ġhand":1621,"ĠOctober":1622,"oad":1623,"Ġcentury":1624,"Ġstand":1625,"Ġpo":1626,"Ġbas":1627,"ae":1628,"uman":1629,"uthor":1630,"Ġstation":1631,"Ġav":1632,"iness":1633,"onom":1634,"Ġsupport":1635,"Ġlaw":1636,"Ġ2001":1637,"ootball":1638,"ondon":1639,"Ġsk":1640,"ĠSy":1641,"ĠPark":1642,"ĠPar":1643,"ract":1644,"line":1645,"Ġmember":1646,"Ġsom":1647,"ww":1648,".,":1649,"Ġcour":1650,"Ġdeath":1651,"Ġvill":1652,"23":1653,"Ġtrad":1654,"ler":1655,"Ġrest":1656,"Ġwon":1657,"Ġbus":1658,"che":1659,"med":1660,"ief":1661,"Ġ,":1662,"Ġstr":1663,"Ġfact":1664,"Ġday":1665,"to":1666,"ĠDecember":1667,"77":1668,"ped":1669,"Ġwhat":1670,"right":1671,"ney":1672,"ĠTe":1673,"ĠWilliam":1674,"Ġposs":1675,"lin":1676,"ness":1677,"Ġsoc":1678,"self":1679,"estern":1680,"21":1681,"24":1682,"iod":1683,"arried":1684,"Ġplayer":1685,"ĠCollege":1686,"Ġrequ":1687,"89":1688,"ization":1689,"Ġsite":1690,"adio":1691,"Ġwar":1692,"itions":1693,"Ġkill":1694,"oph":1695,"raft":1696,"ards":1697,"iber":1698,"ording":1699,"Ġopp":1700,"Ġbook":1701,"ries":1702,"Ġrefer":1703,"ĠDav":1704,"ĠEn":1705,"Ġes":1706,"urg":1707,"ĠHer":1708,"ĠRiver":1709,"ĠRec":1710,"omen":1711,"Ġ11":1712,"reet":1713,"ĠNovember":1714,"Ġ2002":1715,"Ġcr":1716,"ĠJune":1717,"66":1718,"ington":1719,"Ġcompany":1720,"Ġtook":1721,"Ġ25":1722,"ĠJuly":1723,"ively":1724,"Ġ13":1725,"use":1726,"Ġanother":1727,"Ġval":1728,"icle":1729,"Ġcommon":1730,"ps":1731,"Ġann":1732,"ĠApril":1733,"ĠHouse":1734,"Ġofficial":1735,")\"":1736,"Ġlangu":1737,"Ġlocal":1738,"Ġshort":1739,"Ġdem":1740,"Ġgreat":1741,"ana":1742,"Ġhistory":1743,"ĠOff":1744,"Ġmark":1745,"ebru":1746,"co":1747,"ĠLondon":1748,"ebruary":1749,"Ġ14":1750,"Ġequ":1751,"ĠYou":1752,"stit":1753,"Ġoriginal":1754,"Ġcor":1755,"ency":1756,"ara":1757,"Ġ100":1758,"umb":1759,"Ġsingle":1760,"eder":1761,"itary":1762,"ĠCor":1763,"ms":1764,"ĠReg":1765,"ĠSec":1766,"ĠFrench":1767,"Ġcamp":1768,"omin":1769,"Ġevent":1770,"ius":1771,"ridge":1772,"Ġliving":1773,"ĠAng":1774,"omb":1775,"ĠMe":1776,"ĠSup":1777,"Ġchildren":1778,"Ġhowever":1779,"34":1780,"Ġwater":1781,"vers":1782,"ected":1783,"Ġadv":1784,"levision":1785,"Ġbest":1786,"orts":1787,"Ġbeg":1788,"88":1789,"Ġdue":1790,"ush":1791,"ified":1792,"Ġway":1793,"ĠIsland":1794,"ration":1795,"Ġestab":1796,"Ġbuilt":1797,"ample":1798,"itt":1799,"ĠAfric":1800,"31":1801,"Ġwithin":1802,"alth":1803,"Ġresult":1804,"ĠAct":1805,"75":1806,"ored":1807,"ampions":1808,"Ġ30":1809,"Ġtop":1810,"Ġborn":1811,"irc":1812,"Ġtechn":1813,"Ġaver":1814,"Ġturn":1815,"ense":1816,"Ġexpl":1817,"ĠPhil":1818,"Ġson":1819,"view":1820,"ones":1821,"urs":1822,"Ġversion":1823,"It":1824,"SB":1825,"tain":1826,"Ġimport":1827,"rain":1828,"Ġprot":1829,"Ġcover":1830,"eneral":1831,"ering":1832,"Ġfew":1833,"ĠMed":1834,"Ġ24":1835,"Ġnorth":1836,"Ġheld":1837,"olution":1838,"ooks":1839,"ĠRes":1840,"Ġappro":1841,"Ġbecome":1842,"As":1843,"Ġmag":1844,"ĠEngland":1845,"na":1846,"ĠGl":1847,"epend":1848,"ĠLa":1849,"Ġepis":1850,"Ġpublished":1851,"Ġdiv":1852,"eal":1853,"int":1854,"ilar":1855,"On":1856,"Ġfre":1857,"Ġjoin":1858,"ael":1859,"app":1860,"unic":1861,"Ġexper":1862,"Ġincome":1863,"ories":1864,"54":1865,"Ġincre":1866,"ote":1867,"ĠRuss":1868,"Ġdied":1869,"Ġaverage":1870,"ably":1871,"Ġorigin":1872,"ument":1873,"Ġship":1874,"Ġtri":1875,"ĠChar":1876,"itar":1877,"Ġnational":1878,"ison":1879,"yle":1880,"ole":1881,"An":1882,"Ġla":1883,"51":1884,"52":1885,"ĠSan":1886,"ĠFebruary":1887,"less":1888,"ches":1889,"rest":1890,"avy":1891,"ĠDist":1892,"ery":1893,"Ġcareer":1894,"Ġamong":1895,"vious":1896,"work":1897,"Ġiss":1898,"Ġperiod":1899,"ases":1900,"67":1901,"Ġauthor":1902,"Ġsouth":1903,"Ġ190":1904,"ensus":1905,"ĠMich":1906,"ges":1907,"ouncil":1908,"Ġne":1909,"Ġwebsite":1910,"Ġserved":1911,"ops":1912,"ots":1913,"41":1914,"53":1915,"ĠOne":1916,"Ġfe":1917,"Ġpat":1918,"inning":1919,"ĠQu":1920,"Ġ1999":1921,"arth":1922,"ead":1923,"Ġgiven":1924,"Ġdoes":1925,"ĠBr":1926,"ship":1927,"Ġfr":1928,"Ġrepl":1929,"Ġvis":1930,"hern":1931,"Ġdest":1932,"itional":1933,"Ġstat":1934,"ĠPer":1935,"Ġtake":1936,"irl":1937,"Ġvarious":1938,"SBN":1939,"Ġperform":1940,"Ġcame":1941,"Ġallow":1942,"ape":1943,"iforn":1944,"alf":1945,"amous":1946,"Ġlevel":1947,"Ġprom":1948,"ask":1949,"acy":1950,"Ġcountry":1951,"ivid":1952,"Ġsit":1953,"Ġclaim":1954,"ĠEm":1955,"Ġ#":1956,"Ġec":1957,"ĠSm":1958,"illion":1959,"Ġtrain":1960,"ream":1961,"Ġcompet":1962,"ĠInternational":1963,"dom":1964,"Ġreal":1965,"Ġexample":1966,"99":1967,"Ġet":1968,"aged":1969,"ifornia":1970,"Ġfather":1971,"Ġpost":1972,"Ġusing":1973,"ica":1974,"Ġel":1975,"ĠCanada":1976,"Ġyoung":1977,"ĠChurch":1978,"Ġchang":1979,"ander":1980,"ced":1981,"urb":1982,"ze":1983,"alt":1984,"ĠSch":1985,"reg":1986,"Ġlate":1987,"Ġcult":1988,"BC":1989,"osp":1990,"emy":1991,"Ġservice":1992,"here":1993,"Ġbre":1994,"Ġsaid":1995,"ourn":1996,"Ġinvol":1997,"Ġsix":1998,"Ġsw":1999,"ville":2000,"Ġcomple":2001,"This":2002,"aken":2003,"orthern":2004,"ray":2005,"Ġrepresent":2006,"field":2007,"ĠWhen":2008,"aint":2009,"71":2010,"Ġside":2011,"ĠAmerica":2012,"Ġport":2013,"ĠEast":2014,"ĠHol":2015,"Ġmedian":2016,"ef":2017,"Ġsimilar":2018,"Ġcreated":2019,"61":2020,"hel":2021,"off":2022,"ĠPresident":2023,"ĠLeague":2024,"Ġhimself":2025,"uel":2026,"ĠItal":2027,"ways":2028,"Ġstudents":2029,"ĠNo":2030,"ĠParty":2031,"Ġvillage":2032,"ention":2033,"Ġspecial":2034,"rick":2035,"Ġnever":2036,"Ġneed":2037,"Ġgames":2038,"Ġfind":2039,"uter":2040,"ĠCalifornia":2041,"iding":2042,"ruction":2043,"Ġshould":2044,"Ġtot":2045,"Ġattem":2046,"Ġcrit":2047,"Ġ:":2048,"Ġsold":2049,"eek":2050,"uted":2051,"ivil":2052,"ĠAc":2053,"Ġtimes":2054,"atic":2055,"Ġprofess":2056,"ampionship":2057,"urther":2058,"ĠMy":2059,"Ġinfl":2060,"Ġfive":2061,"Ġusually":2062,"Ġfun":2063,"ĠAg":2064,"Ġget":2065,"Ġfriend":2066,"Ġpolitical":2067,"Ġattack":2068,"Ġled":2069,"lection":2070,"ean":2071,"86":2072,"Ġtw":2073,"roy":2074,"obert":2075,"Ġmy":2076,"ift":2077,"ĠJames":2078,"Ġconsidered":2079,"Ġgeneral":2080,"Ġ1990":2081,"Ġpoint":2082,"Ġwithout":2083,"ky":2084,"Ġwritten":2085,"Ġdet":2086,"oyal":2087,"gether":2088,"Ġtogether":2089,"Ġstory":2090,"ĠMon":2091,"Ġtelevision":2092,"Ġfield":2093,"Ar":2094,"ĠExternal":2095,"key":2096,"wh":2097,"ither":2098,"of":2099,"ĠVal":2100,"ĠISBN":2101,"Ġcomb":2102,"Ġconf":2103,"bert":2104,",\"":2105,"ĠGeorge":2106,"Ġwent":2107,"ĠThese":2108,"Ġnov":2109,"Ġright":2110,"Ġdel":2111,"ideo":2112,"aff":2113,"Ġstar":2114,"ĠRich":2115,"Jo":2116,"bor":2117,"Ġread":2118,"Ġmarried":2119,"ope":2120,"lic":2121,"kn":2122,"ett":2123,"Ġsol":2124,"Ġclub":2125,"Ġindivid":2126,"ĠQue":2127,"Ġmen":2128,"Ġmust":2129,"Ġcontrol":2130,"Ġeduc":2131,"most":2132,"Ġgl":2133,"Ġfinal":2134,"ĠArt":2135,"ĠGro":2136,"ĠPal":2137,"ociation":2138,"Ġparticular":2139,"Ġrole":2140,"Ġfac":2141,"atch":2142,"Ġincluded":2143,"artment":2144,"thern":2145,"ploy":2146,"ĠMor":2147,"Ġdeb":2148,"Ġvol":2149,"Ġhaving":2150,"Ġfore":2151,"ertain":2152,"ummer":2153,"Ġ1998":2154,"itor":2155,"Ġreceived":2156,"Ġpres":2157,"ĠMag":2158,"Ġinterest":2159,"ript":2160,"Ġimportant":2161,"ĠDem":2162,"Ġthird":2163,"Ġless":2164,"ched":2165,"Ġdoc":2166,"Ġgood":2167,"ĠRepublic":2168,"IN":2169,"Ġworks":2170,"Ġinformation":2171,"Ġsize":2172,"Ġcurrently":2173,"outhern":2174,"Ġbusiness":2175,"Ġtyp":2176,"iddle":2177,"ĠDistrict":2178,"duct":2179,"ĠBlack":2180,"Ġnext":2181,"Ġfootball":2182,"ĠDavid":2183,"65":2184,"ama":2185,"ĠBer":2186,"There":2187,"Ġpract":2188,"ma":2189,"ĠTown":2190,"Ġalthough":2191,"Ġintro":2192,"ĠAustralia":2193,"Ġactiv":2194,"aper":2195,"Ġseen":2196,"ĠRev":2197,"Ġview":2198,"ĠRed":2199,"Ġmoved":2200,"ĠGeneral":2201,"ĠNor":2202,"omas":2203,"Ġdescrib":2204,"87":2205,"Ġprim":2206,"ĠIndian":2207,"ĠRoman":2208,"ki":2209,"ĠPaul":2210,"iction":2211,"Ġlab":2212,"ĠFrance":2213,"Ġengine":2214,"Ġlanguage":2215,"ĠBy":2216,"wood":2217,"Ġcommunity":2218,"ning":2219,"Ġprop":2220,"ills":2221,"ĠWhite":2222,"Ġtotal":2223,"ype":2224,"Ġfull":2225,"Ġhuman":2226,"astern":2227,"Ġbelie":2228,"ipp":2229,"mit":2230,"lished":2231,"Ġbody":2232,"Ġlink":2233,"ailable":2234,"reek":2235,"Ġ=":2236,"otes":2237,"ĠTo":2238,"ells":2239,"Ġbuilding":2240,"ĠHistory":2241,"ĠDes":2242,"era":2243,"Ġsent":2244,"ware":2245,"ĠLou":2246,"Ġmonth":2247,"Ġ21":2248,"96":2249,"Ġothers":2250,"ĠStreet":2251,"iron":2252,"ym":2253,"de":2254,"ances":2255,"Ġgrad":2256,"ĠPort":2257,"Ġhistor":2258,"Ġ1997":2259,"ique":2260,"Ġparty":2261,"Ġbeh":2262,"Ġfamous":2263,"Ġtem":2264,"ĠWe":2265,"Ġlim":2266,"ha":2267,"ĠBel":2268,"Ġ1996":2269,"98":2270,"ico":2271,"ĠDep":2272,"cast":2273,"Ġcaus":2274,"Ġstarted":2275,".;":2276,"raw":2277,"err":2278,"ming":2279,"rab":2280,"Ġhig":2281,"Ġproduced":2282,"Ġdevelopment":2283,"ĠGod":2284,"Ġdev":2285,"Ġexist":2286,"Ġappe":2287,"ago":2288,"ule":2289,"iment":2290,"Ġepisode":2291,"Ġmilitary":2292,"Ġ1980":2293,"Ġinflu":2294,"lear":2295,"uit":2296,"anish":2297,"ĠPat":2298,"Ġhold":2299,"pec":2300,"ological":2301,"ari":2302,"Ġfemales":2303,"ĠAnt":2304,"Ġarch":2305,"ined":2306,"ĠIndia":2307,"72":2308,".)":2309,"Ġant":2310,"aut":2311,"Ġhost":2312,"Ġmodern":2313,"etwork":2314,"List":2315,"aur":2316,"Ġconn":2317,"etimes":2318,"gin":2319,"Ġmer":2320,"Ġprevious":2321,"74":2322,"ogn":2323,"ania":2324,"Ġ65":2325,"eh":2326,"Ġindust":2327,"uf":2328,"Ġgr":2329,"64":2330,"olic":2331,"utes":2332,"iol":2333,"73":2334,"Ġins":2335,"aps":2336,"Ġavailable":2337,"Ġposition":2338,"Ġinf":2339,"ĠHall":2340,"ours":2341,"Tr":2342,"Ġonce":2343,"Ġreport":2344,"Ġeffect":2345,"ĠGr":2346,"ĠSl":2347,"ĠWith":2348,"ĠUnion":2349,"Ġhelp":2350,"ination":2351,"ĠBut":2352,"Ġhous":2353,"ĠTV":2354,"rey":2355,"forman":2356,"used":2357,"Ġele":2358,"ĠRoad":2359,"go":2360,"Ġ22":2361,"ference":2362,"ĠArmy":2363,"Ġfounded":2364,"Ġappeared":2365,"Ġestablished":2366,"ĠDiv":2367,"rug":2368,"band":2369,"ĠJapanese":2370,"Wh":2371,"ĠCouncil":2372,"Ġrail":2373,"62":2374,"istic":2375,"Ġbrother":2376,"ĠMil":2377,"ĠMo":2378,"ples":2379,"unicip":2380,"Sh":2381,"cy":2382,"ccording":2383,"Ġ28":2384,"ĠSim":2385,"Ġrock":2386,"ources":2387,"Ġstrong":2388,"ocrat":2389,"Ġcase":2390,"oney":2391,"Ġolder":2392,"Ġaut":2393,"ĠStud":2394,"Un":2395,"Ġbroad":2396,"ĠCap":2397,"Ġplan":2398,"Ġproduct":2399,"ĠCour":2400,"Ġenc":2401,"Ġ23":2402,"oice":2403,"itz":2404,"Ġdistrict":2405,"Ġ--":2406,"ĠKn":2407,"...":2408,"ĠMont":2409,"Ġcirc":2410,"rated":2411,"ems":2412,"Ġtest":2413,"eph":2414,"ĠĠĠĠĠĠĠĠĠĠĠĠĠĠĠĠ":2415,"ached":2416,"63":2417,"ĠMart":2418,"Ġhouseholds":2419,"Ġaff":2420,"Ġregion":2421,"ĠEuropean":2422,"play":2423,"oul":2424,"eep":2425,"Ġproble":2426,"sequ":2427,"ita":2428,"ĠCanadian":2429,"Ġlight":2430,"ĠLat":2431,"ij":2432,"Ġlive":2433,"95":2434,"Ġeconom":2435,"Ġrev":2436,"Ġz":2437,"arliam":2438,"Ġspe":2439,"ource":2440,"ĠCup":2441,"sy":2442,"ashington":2443,"Ġinit":2444,"Ġident":2445,"After":2446,"ka":2447,"ĠGreat":2448,"ĠVir":2449,"ĠMac":2450,"97":2451,"ournal":2452,"85":2453,"ĠUK":2454,"Ġmult":2455,"Ġhow":2456,"ending":2457,"earch":2458,"//":2459,"lands":2460,"useum":2461,"Ġ26":2462,"Ġrul":2463,"iography":2464,"Ġ1995":2465,"Ġbecom":2466,"Ġtro":2467,"minist":2468,"ston":2469,"ethod":2470,"Ġknow":2471,"rian":2472,"Ġformed":2473,"arliament":2474,"ĠPress":2475,"Ġsound":2476,"ĠRail":2477,"Ġmillion":2478,"ĠSen":2479,"ĠHen":2480,"ground":2481,"Ġdays":2482,"cent":2483,"alls":2484,"ibr":2485,"Ġproper":2486,"For":2487,"ĠMal":2488,"ĠDon":2489,"Ġgen":2490,"ĠAssociation":2491,"Ġpri":2492,"Ġproduction":2493,"Ġfree":2494,"ĠLaw":2495,"Ġareas":2496,"ĠJew":2497,"Ġattempt":2498,"ament":2499,"itch":2500,"epar":2501,"ĠFirst":2502,"Ġwin":2503,"Ġmaking":2504,"Ġrese":2505,"aining":2506,"ĠServ":2507,"Ġ1970":2508,"Ġgrow":2509,"Ġrace":2510,"Ġreturned":2511,"Ġfire":2512,"ĠCont":2513,"ĠRobert":2514,"Ġmanag":2515,"ĠChristian":2516,"oor":2517,"Ġradio":2518,"Ġfamilies":2519,"ude":2520,"Ġ/":2521,"Ġoffer":2522,"Ge":2523,"ĠGermany":2524,"Ġanim":2525,"cher":2526,"Ġdeveloped":2527,"ume":2528,"Ġdi":2529,"unk":2530,"aterial":2531,"aughter":2532,"190":2533,"ids":2534,"ĠMusic":2535,"ements":2536,"Ġlet":2537,"://":2538,"ĠSome":2539,"udd":2540,"Ġpoin":2541,"ttp":2542,"Ġphys":2543,"ailed":2544,"Ġput":2545,"Ġliter":2546,"Ġtaken":2547,"Ġmar":2548,"ĠTrans":2549,"Ġsuccessful":2550,"Ġindepend":2551,"ĠJos":2552,"berg":2553,"ĠSam":2554,"eter":2555,"iation":2556,"aker":2557,"azine":2558,"Ġdeg":2559,"Ġ)":2560,"ensive":2561,"mi":2562,"ĠCenter":2563,"ĠAngel":2564,"Ġcontinued":2565,"Ġarr":2566,"Ġhalf":2567,"ĠCompany":2568,"burg":2569,"be":2570,"men":2571,"Ġ27":2572,"idence":2573,"ĠStar":2574,"Ġ1994":2575,"mar":2576,"ĠMr":2577,"lected":2578,"Pl":2579,"Ġcond":2580,"leg":2581,"ceed":2582,"known":2583,"olf":2584,"atural":2585,"Ġroad":2586,"incip":2587,"ĠMiss":2588,"ĠRoyal":2589,"Ġaddition":2590,"Ġaward":2591,"II":2592,"Ġsepar":2593,"ĠInter":2594,"iec":2595,"gress":2596,"ĠDuring":2597,"Ġmot":2598,"Ġsurv":2599,"Ġspecies":2600,"Ġche":2601,"ĠChe":2602,"Ġarticle":2603,"ĠWashington":2604,"Ġproject":2605,"Ġeither":2606,"ying":2607,"craft":2608,"ux":2609,"ya":2610,"Ġaway":2611,"Ġrelig":2612,"me":2613,"agon":2614,"ida":2615,"TV":2616,"Ġelection":2617,"ula":2618,"John":2619,"Ġlost":2620,"och":2621,"jects":2622,"Ġentire":2623,"ĠNe":2624,"ĠCharles":2625,"mon":2626,"93":2627,"aign":2628,"ĠInstit":2629,"elling":2630,"92":2631,"pro":2632,"Ġrelations":2633,"Ġnovel":2634,"ĠMary":2635,"Ġrelease":2636,"Ġwid":2637,"ĠMount":2638,"ification":2639,"ensity":2640,"Ġmean":2641,"Ġsqu":2642,"ĠMet":2643,"Ġupon":2644,"ply":2645,"Ġcou":2646,"Ġdestroy":2647,"Ġevents":2648,"Ġder":2649,"iqu":2650,"ĠClub":2651,"Ġsocial":2652,"ĠMinister":2653,"ĠBay":2654,"Ġfight":2655,"Ġdiscover":2656,"Ġfurther":2657,"Ġrather":2658,"ising":2659,"tor":2660,"ĠCD":2661,"ĠMichael":2662,"sel":2663,"ishing":2664,"Ġground":2665,"ought":2666,"Ġproduc":2667,"Ġbelow":2668,"ilities":2669,"81":2670,"Pro":2671,"Ġmovie":2672,"iting":2673,"Ġelected":2674,"ump":2675,"erous":2676,"Ġpriv":2677,"Com":2678,"Ġhit":2679,"nder":2680,"Ġwest":2681,"Ġoriginally":2682,"odes":2683,"Ġforces":2684,"Ġ50":2685,"Ġhom":2686,"New":2687,"ĠIr":2688,"Ġkilled":2689,"Ġstyle":2690,"):":2691,"ores":2692,"align":2693,"erry":2694,"Ġable":2695,"ictor":2696,"Ġcensus":2697,"Ġlargest":2698,"ĠGreen":2699,"Ġworked":2700,"Ġsometimes":2701,"pite":2702,"ĠCong":2703,"yd":2704,"Ġide":2705,"mb":2706,"reland":2707,"Ġbattle":2708,"unn":2709,"Ġfar":2710,"94":2711,"ĠAustralian":2712,"Ġstruct":2713,"Ġlow":2714,"ential":2715,"Ġ1992":2716,"Ġ1993":2717,"Ġvideo":2718,"Ġitself":2719,"atter":2720,"Cl":2721,"ĠSee":2722,"uke":2723,"ellow":2724,"Ġfeatures":2725,"ults":2726,"Ġeast":2727,"ĠKingdom":2728,"inese":2729,"Ġred":2730,"ecut":2731,"rote":2732,"iers":2733,"Ġmid":2734,"Ġmarket":2735,"like":2736,"raz":2737,"Ġwife":2738,"ĠChampionship":2739,"Ġeventually":2740,"Ġplaying":2741,"Ġser":2742,"Ġmother":2743,"Ġmaterial":2744,"ĠSer":2745,"Ġstri":2746,"anding":2747,"ĠGold":2748,"ĠRecords":2749,"Ġpress":2750,"Ġ(\"":2751,"Ġperforman":2752,"ĠLouis":2753,"Ġsongs":2754,"Ġ29":2755,"ĠVol":2756,"Ġinternational":2757,"Ġworking":2758,"Ġmeet":2759,"Ġjoined":2760,"ĠBo":2761,"History":2762,"ĠCath":2763,"Ġalmost":2764,"Ġvoc":2765,"road":2766,"Ġhard":2767,"uz":2768,"rel":2769,"ĠTex":2770,"ĠIm":2771,"ele":2772,"Ġpast":2773,"ĠMark":2774,"ĠRock":2775,"ĠThomas":2776,"ĠFranc":2777,"uture":2778,"ĠAward":2779,"Ġtill":2780,"Ġmeans":2781,"82":2782,"ĠAfrican":2783,"Ġabove":2784,"west":2785,"anted":2786,"Ġsug":2787,"ĠAlex":2788,"84":2789,"83":2790,"SA":2791,"val":2792,"Ġwomen":2793,"Ġ40":2794,"Ġren":2795,"ĠDay":2796,"imately":2797,"ĠSociety":2798,"ĠLake":2799,"lymp":2800,"Ġpossible":2801,"chie":2802,"rd":2803,"head":2804,"ĠFrank":2805,"----":2806,"Ġgroups":2807,"pecially":2808,"ĠApp":2809,"ability":2810,"ĠSing":2811,"duction":2812,"ĠTur":2813,"Ġpur":2814,"oted":2815,"cle":2816,"Ġtrack":2817,"Ġguitar":2818,"Ġincludes":2819,"elt":2820,"ĠPeter":2821,"ĠCons":2822,"irth":2823,"ĠSal":2824,"aves":2825,"Ġ2007":2826,"ĠChina":2827,"ators":2828,"ĠWestern":2829,"Ġinvest":2830,"Ġrecogn":2831,"board":2832,"Ġblack":2833,"icles":2834,"Ġmus":2835,"Ġemploy":2836,"fic":2837,"ĠWil":2838,"Ġcapt":2839,"rap":2840,"Ġking":2841,"itive":2842,"cer":2843,"Ġrac":2844,"Ġfemale":2845,"Ġunits":2846,"Ġcharacters":2847,"hi":2848,"Ġsuff":2849,"Ġmodel":2850,"eck":2851,"han":2852,"ĠDivision":2853,"Ġcreat":2854,"ĠRob":2855,"Ġthroughout":2856,"isl":2857,"Sc":2858,"Ġfrequ":2859,"Ġsignific":2860,"ires":2861,"oms":2862,"Ġbo":2863,"ĠTor":2864,"Ġgenerally":2865,"Ġ1991":2866,"Ġplayers":2867,"face":2868,"Ġservices":2869,"km":2870,"ĠAcad":2871,"aren":2872,"ĠRichard":2873,"ears":2874,"Ġround":2875,"ĠGrand":2876,"www":2877,"ĠFrom":2878,"2001":2879,"ien":2880,"rig":2881,"ĠMad":2882,"abor":2883,"onn":2884,"Ġhon":2885,"Ġdensity":2886,"annel":2887,"Ġbooks":2888,"merc":2889,"Ġacross":2890,"Ġter":2891,"2005":2892,"Ġweek":2893,"ĠGo":2894,"aries":2895,"Ġ1960":2896,"Ġword":2897,"Ġchurch":2898,"ership":2899,"Ġlittle":2900,"ĠDan":2901,"unt":2902,"Ġcoll":2903,"rown":2904,"Sp":2905,"Ġsitu":2906,"Ġphot":2907,"ĠScott":2908,"ĠList":2909,"Ġaccess":2910,"ĠHill":2911,"ĠPri":2912,"Ġwrote":2913,"ĠLit":2914,"ĠIreland":2915,"ĠMat":2916,"ota":2917,"ano":2918,"ĠOlymp":2919,"ĠTom":2920,"Ġkey":2921,"Ġcast":2922,"ederal":2923,"Ġcertain":2924,"ĠFin":2925,"Ġspace":2926,"Ġresearch":2927,"ĠCamp":2928,"Ġfront":2929,"Ġrecorded":2930,"ends":2931,"ĠCourt":2932,"viron":2933,"Ġschools":2934,"uals":2935,"iff":2936,"Ġmass":2937,"ites":2938,"Ġparticip":2939,"tr":2940,"ĠOther":2941,"oys":2942,"ala":2943,"Ġearl":2944,"Ġpresident":2945,"Ġten":2946,"Ġpain":2947,"Ġcome":2948,"Ġshows":2949,"Ġcost":2950,"Ġclose":2951,"Ġsoon":2952,"Ġlearn":2953,"Ġcross":2954,"Ġstates":2955,"asing":2956,"ician":2957,"Ġlook":2958,"ĠMer":2959,"overnor":2960,"Ġtre":2961,"owers":2962,"Ġmount":2963,"Ġoffice":2964,"ein":2965,"ada":2966,"Ġsystems":2967,"ĠEv":2968,"At":2969,"ĠVirgin":2970,"ĠGroup":2971,"rol":2972,"ena":2973,"ĠSmith":2974,"iles":2975,"Ġshift":2976,"Ġleast":2977,"ĠCentral":2978,"Ġlaun":2979,"Ġarg":2980,"Ġaud":2981,"Ġespecially":2982,"asc":2983,"ĠTexas":2984,"Ġtransl":2985,"2006":2986,"Ġforce":2987,"ĠOf":2988,"Ġpoints":2989,"Ġopened":2990,"Ġmethod":2991,"ands":2992,"ĠHenry":2993,"Bl":2994,"ĠLeg":2995,"enced":2996,"ĠMex":2997,"ario":2998,"acher":2999,"pts":3000,"arily":3001,"Ġtour":3002,"ports":3003,"pan":3004,"Ġtoo":3005,"Ġsay":3006,"bour":3007,"Ġrange":3008,"ĠBen":3009,"ĠSo":3010,"ĠEarth":3011,"ades":3012,"Ġtype":3013,"Ġregular":3014,"ĠPlay":3015,"Ġcountries":3016,"time":3017,"Ġmi":3018,"ĠInc":3019,"ength":3020,"Ġdam":3021,"ria":3022,"ĠArch":3023,"onst":3024,"rav":3025,"hib":3026,"Ġdesigned":3027,"ointed":3028,"arent":3029,"Ġfeatured":3030,"ĠChinese":3031,"ĠIts":3032,"igned":3033,"Ġmales":3034,"Ġraces":3035,"ittee":3036,"Ġfig":3037,"ĠLord":3038,"Ġparts":3039,"ĠLove":3040,"ĠInstitute":3041,"hood":3042,"Ġgradu":3043,"rought":3044,"ĠMus":3045,"Ġmiles":3046,"aching":3047,"Ġ31":3048,"icy":3049,"Ġwhose":3050,"Ġconstit":3051,"Ġdaughter":3052,"aval":3053,"atory":3054,"Ġquest":3055,"airs":3056,"Ġassoci":3057,"onts":3058,"Ġrespons":3059,"Ġoffic":3060,"oid":3061,"Ġmunicip":3062,"ounced":3063,"rael":3064,"arian":3065,"Ġcounty":3066,"Ġpage":3067,"Ġvict":3068,"ona":3069,"Ġwhite":3070,"ĠCast":3071,"uns":3072,"istan":3073,"Ġnight":3074,"ĠPenn":3075,"Ġcivil":3076,"asion":3077,"ĠBattle":3078,"ĠOfficial":3079,"ĠDemocrat":3080,"Ġleader":3081,"part":3082,"INE":3083,"Ġfav":3084,"eff":3085,"ĠChic":3086,"gen":3087,"apt":3088,"Ġchange":3089,"Ġesc":3090,"anta":3091,"ĠEmp":3092,"Ġuses":3093,"ibrary":3094,"Ġmiss":3095,"Ġalways":3096,"ĠWhile":3097,"orro":3098,"91":3099,"ateg":3100,"anks":3101,"now":3102,"Ġimpro":3103,"Ġfollowed":3104,"Ġfall":3105,"atives":3106,"ĠBur":3107,"olk":3108,"Ġfund":3109,"ĠMel":3110,"Ġfonts":3111,"ĠSuper":3112,"Ġmem":3113,"Ġcontrib":3114,"mercial":3115,"ura":3116,"Ġcampaign":3117,"ĠCommun":3118,"Ġstandard":3119,"Ġcapital":3120,"ĠCarol":3121,"Ġanal":3122,"usband":3123,"Ġtreat":3124,"Ġill":3125,"ĠCr":3126,"2004":3127,"edy":3128,"back":3129,"Ġmonths":3130,"Ġinstead":3131,"lor":3132,":(":3133,"Ġsuggest":3134,"Ġleading":3135,"Ġcop":3136,"serv":3137,"AT":3138,"Ġsuper":3139,"Ġanc":3140,"ĠPac":3141,"ylv":3142,"Ġsignificant":3143,"medi":3144,"well":3145,"ĠBill":3146,"ranch":3147,"not":3148,"Ġexcept":3149,"Ad":3150,"Ġinvolved":3151,"Ġclos":3152,"ĠSpanish":3153,"Ġregard":3154,"ishop":3155,"vironment":3156,"Ġthus":3157,"urity":3158,"ecess":3159,"peror":3160,"Ġlik":3161,"Ġeducation":3162,"ero":3163,"imate":3164,"lam":3165,"sych":3166,"yr":3167,"Ġfontsize":3168,"ĠSqu":3169,"ĠLiber":3170,"Ġviol":3171,"Ġaccept":3172,"ĠUSA":3173,"ĠIf":3174,"itect":3175,"Ġisland":3176,"Ġcur":3177,"Ġweap":3178,"ergy":3179,"Ġconsist":3180,"Ġperformed":3181,"Ġ1989":3182,"Ġ1988":3183,"ao":3184,"org":3185,"Ġdeter":3186,"ĠNews":3187,"ving":3188,"ĠCatholic":3189,"ĠBas":3190,"asons":3191,"Ġtoday":3192,"ĠAfrica":3193,"oe":3194,"ĠScot":3195,"ufact":3196,"ĠCount":3197,"oviet":3198,"rup":3199,"Ġprofessional":3200,"Ġfoc":3201,"ĠFore":3202,"rial":3203,"ider":3204,"ĠSocorro":3205,"ĠLINE":3206,"ĠCongress":3207,"Ġeight":3208,"Ġcommand":3209,"ĠAtl":3210,"Ġkeep":3211,"ĠDepartment":3212,"ĠLINEAR":3213,"06":3214,"Ġcut":3215,"Ġbrought":3216,"Ġprob":3217,"Ġtravel":3218,"Ġaircraft":3219,"Ġappears":3220,"umn":3221,"ams":3222,"ĠProv":3223,"irit":3224,"ini":3225,"Ġhusband":3226,"ĠBest":3227,"Ġtraining":3228,"Ġsaw":3229,"col":3230,"Ġpers":3231,"Ġtheory":3232,"ĠVictor":3233,"ĠOld":3234,"Ġdata":3235,"Ġoutside":3236,"Ġprincip":3237,"Ġstre":3238,"ĠDirect":3239,"ĠFlor":3240,"ĠLife":3241,"order":3242,"2000":3243,"ios":3244,"Ġcomputer":3245,"ĠRussian":3246,"Ġdirector":3247,"ĠIII":3248,"Ġcentral":3249,"ĠGre":3250,"\")":3251,"Ġmovement":3252,"Ġconv":3253,"asy":3254,"utions":3255,"Ġgirl":3256,"Ġdou":3257,"ĠItalian":3258,"Ġactor":3259,"Ġpos":3260,"atal":3261,"ĠAlthough":3262,"atre":3263,"Ġgave":3264,"bl":3265,"orse":3266,"Ġaccom":3267,"Ġboard":3268,"ĠSk":3269,"etic":3270,"Ġ1987":3271,"Ġnorm":3272,"Ġassist":3273,"Ġachie":3274,"ye":3275,"XS":3276,"antic":3277,"ĠSwed":3278,"ras":3279,"oke":3280,"ĠJust":3281,"estival":3282,"CA":3283,"ĠTechn":3284,"Ġi":3285,"Ġstop":3286,"ĠForce":3287,"ĠParliament":3288,"ospital":3289,"za":3290,"Ġspread":3291,"Ph":3292,"reed":3293,"Ġvalue":3294,"ĠChicago":3295,"ĠParis":3296,"Ġsoft":3297,"Mar":3298,"selves":3299,"Ġcal":3300,"Ġpot":3301,"Ġremained":3302,"Ġthemselves":3303,"illa":3304,"Ġbig":3305,"ĠDel":3306,"ĠSir":3307,"ĠZeal":3308,"Ġfunction":3309,"ilver":3310,"oper":3311,"Ġnames":3312,"2003":3313,"Ġquick":3314,"ĠMod":3315,"Ġaction":3316,"ĠBu":3317,"Ġoccur":3318,"\"|":3319,"Ġnetwork":3320,"ĠBrown":3321,"Ġintroduced":3322,"ĠRo":3323,"den":3324,"Off":3325,"Ġchanged":3326,"ias":3327,"ecutive":3328,"ola":3329,"Ġtraditional":3330,"ĠPublic":3331,"icated":3332,"Ġball":3333,":(-":3334,"ĠStev":3335,"Ġprovide":3336,"ĠJack":3337,"Ġsex":3338,"lim":3339,"ĠLos":3340,"Ġreplaced":3341,"Ġtrib":3342,"eleb":3343,"par":3344,"ĠAcademy":3345,"Ġcenter":3346,"Dem":3347,"iro":3348,"vert":3349,"ĠNot":3350,"Ġfuture":3351,"ĠZealand":3352,"Ġcourt":3353,"ĠAirport":3354,"gl":3355,"usion":3356,"Ġactually":3357,"Ġmix":3358,"Ġself":3359,"ĠKore":3360,"ficult":3361,"ĠMuseum":3362,"ado":3363,"ĠOh":3364,"Ġmach":3365,"rison":3366,"Ġtakes":3367,"Ġcompan":3368,"Ġphil":3369,"Ġexc":3370,"Ġdecided":3371,"ĠMost":3372,"icro":3373,"Ġbreak":3374,"ĠInt":3375,"Ġapprox":3376,"Ġriver":3377,"Ġarmy":3378,"Ġexpress":3379,"inner":3380,"Ġreb":3381,"irt":3382,"bers":3383,"elled":3384,"Ġmeas":3385,"Ġappointed":3386,"ĠJim":3387,"Ġadminist":3388,"ector":3389,"ĠWood":3390,"ĠSoviet":3391,"ĠMany":3392,"Ġarm":3393,"Ġ1986":3394,"Ġscience":3395,"Ġreve":3396,"ĠClass":3397,"ĠIsrael":3398,"ĠHow":3399,"All":3400,"ette":3401,"ĠSecond":3402,"Ġteams":3403,"ĠMass":3404,"ums":3405,"Ġconduct":3406,"Ġrelationship":3407,"Ġstudy":3408,"ĠTre":3409,"bit":3410,"Ġwriter":3411,"anced":3412,"rief":3413,"Ġbeginning":3414,"utch":3415,"oses":3416,"reme":3417,"ension":3418,"Ġ45":3419,"ducation":3420,"rying":3421,"roll":3422,"Ġconstruction":3423,"ises":3424,"hest":3425,"Ġsinger":3426,"Ġdifficult":3427,"ĠSystem":3428,"Ġconsider":3429,"inct":3430,"ortun":3431,"Ġcand":3432,"Ġlove":3433,"see":3434,"Ġbehind":3435,"Ġacqu":3436,"Ġruns":3437,"Ġmatch":3438,"2002":3439,"ingu":3440,"ĠVirginia":3441,"igan":3442,"istry":3443,"ĠOut":3444,"Ġpred":3445,"pris":3446,"win":3447,"Ġbase":3448,"oute":3449,"Ġstage":3450,"Ġprivate":3451,"uments":3452,"Ġhum":3453,"Ġyour":3454,"ols":3455,"ĠPre":3456,"iant":3457,"ĠMur":3458,"ĠPrince":3459,"Ġdeal":3460,"ĠColumb":3461,"Ġmakes":3462,"mond":3463,"Ġrecent":3464,"ylvania":3465,"SS":3466,"action":3467,"inary":3468,"Ġpersonal":3469,"05":3470,"Ġhere":3471,"Ġrad":3472,"isher":3473,"Ġindividuals":3474,"eated":3475,"Ġcred":3476,"Ġfilms":3477,"Ġden":3478,"ĠGovernment":3479,"Ġlower":3480,"Ġimm":3481,"osoph":3482,"ĠAnn":3483,"Ġ1984":3484,"idents":3485,"Ġneigh":3486,"Ġnews":3487,"Ġdistrib":3488,"Ġperformance":3489,"hire":3490,"ental":3491,"lying":3492,"onic":3493,"ĠNavy":3494,"Ġnatural":3495,"add":3496,"Ġopt":3497,"ca":3498,"ender":3499,"Ġstudent":3500,"Ġmove":3501,"Ġfood":3502,"Ġmight":3503,"Ġunivers":3504,"ĠPacific":3505,"ĠIll":3506,"ails":3507,"Ġthought":3508,"Ġadded":3509,"Ġdescribed":3510,"enth":3511,"hab":3512,"Ġmoney":3513,"ady":3514,"Ġask":3515,"ĠGen":3516,"Ġgive":3517,"ether":3518,"Ġ1985":3519,"Ġapplic":3520,"ready":3521,"Ġpark":3522,"Ġspeed":3523,"ĠValley":3524,"Ġcourse":3525,"Ġpay":3526,"ĠNorthern":3527,"usp":3528,"awa":3529,"Ġpolice":3530,"Ġreferred":3531,"ront":3532,"Ġpoet":3533,"with":3534,"ĠCarl":3535,"Ġcontains":3536,"oma":3537,"ĠRadio":3538,"ĠGeorg":3539,"Ġcollege":3540,"Ġwind":3541,"Ġsat":3542,"Ġmanufact":3543,"Ġsubsequ":3544,"Ġorganization":3545,"Ġhigher":3546,"olit":3547,"ĠMill":3548,"07":3549,"ĠGreek":3550,"Ġ1950":3551,"eel":3552,"ounter":3553,"Ġrights":3554,"01":3555,"istics":3556,"Ġconcern":3557,"echan":3558,"Ġindustry":3559,"ĠBC":3560,"Ġcommercial":3561,"ĠService":3562,"ani":3563,"pped":3564,"Ġrespect":3565,"Ġsection":3566,"Ġwhom":3567,"02":3568,"Ġprovided":3569,"Ġdegree":3570,"urt":3571,"ĠIrish":3572,"Ġsem":3573,"ĠEmpire":3574,"ĠMartin":3575,"ĠAre":3576,"Ġcompos":3577,"Ġsubject":3578,"Ġpiec":3579,"Ġallowed":3580,"azz":3581,"Ġscient":3582,"When":3583,"Ġculture":3584,"ĠScience":3585,"ĠDou":3586,"Ġsouthern":3587,"04":3588,"ĠBob":3589,"eball":3590,"Ġmur":3591,"aled":3592,"Ġpurp":3593,"ĠUp":3594,"Ġbr":3595,"Ġindependent":3596,"Ġcoast":3597,"She":3598,"Ġsum":3599,"ĠGar":3600,"Ġx":3601,"Ġlo":3602,"ĠSaint":3603,"ibility":3604,"ĠSecret":3605,"bur":3606,"Ġplays":3607,"Ġbetter":3608,"According":3609,"Ġminor":3610,"Ġenergy":3611,"Ġcritic":3612,"ros":3613,"Ġge":3614,"Ġgot":3615,"Ġinstit":3616,"Ġalone":3617,"ĠHaw":3618,"iano":3619,"ĠFlorida":3620,"Ex":3621,"Ġgold":3622,"ĠThat":3623,"Ġbur":3624,"ĠQueen":3625,"Ġterms":3626,"aven":3627,"Ġparticularly":3628,"Ġtaking":3629,"iance":3630,"Ġoccup":3631,"Ġsch":3632,"ĠOl":3633,"fit":3634,"Ġcy":3635,"Ġappearance":3636,"ĠDef":3637,"ua":3638,"Ġnorthern":3639,"iences":3640,"sylvania":3641,"ĠTra":3642,"Ġcomplete":3643,"AS":3644,"ĠWind":3645,"ĠHistor":3646,"ĠLine":3647,"Ġnumerous":3648,"Ġrelated":3649,"ĠAngeles":3650,"Ġseven":3651,"thing":3652,"oved":3653,"Ġour":3654,"ĠBus":3655,"ĠBig":3656,"Ġmagazine":3657,"aught":3658,"ĠSun":3659,"ĠEr":3660,"ify":3661,"ĠSat":3662,"Ġabs":3663,"ĠDen":3664,"ĠElect":3665,"Ġ1982":3666,"een":3667,"03":3668,"ĠJud":3669,"ĠTwo":3670,"Ġrecently":3671,"Ġcomplex":3672,"Ġ1983":3673,"ĠArab":3674,"Ġreported":3675,"Ġ64":3676,"Ġcust":3677,"Le":3678,"Ġcle":3679,"ersey":3680,"ĠDis":3681,"ledge":3682,"ĠJoseph":3683,"Ġrequired":3684,"imb":3685,"orial":3686,"Ġinstr":3687,"uge":3688,"isco":3689,"Ġop":3690,"Ġrank":3691,"ĠLong":3692,"Ġcompleted":3693,"100":3694,"ĠFort":3695,"Ġforms":3696,"Ġindividual":3697,"ken":3698,"Ġalready":3699,"la":3700,"ging":3701,"Ġactive":3702,"ened":3703,"Ġsource":3704,"alled":3705,"adium":3706,"very":3707,"Ġmention":3708,"mission":3709,"Ġdate":3710,"Ġnewsp":3711,"Ġsurround":3712,"Ġobject":3713,"Ġveh":3714,"ĠTime":3715,"Americ":3716,"ĠOper":3717,"ĠHam":3718,"Ġjud":3719,"ternet":3720,"ĠSpec":3721,"bury":3722,"orpor":3723,"wer":3724,"iana":3725,"Ġlog":3726,"Ġneg":3727,"Ġdisp":3728,"Ġvia":3729,"aine":3730,"Col":3731,"Ġpractice":3732,"Ġsecret":3733,"amily":3734,"mentary":3735,"based":3736,"Ġmission":3737,"Ġwords":3738,"porary":3739,"Ġlength":3740,"ping":3741,"mark":3742,"oral":3743,"ĠOrder":3744,"Ġexam":3745,"illy":3746,"erve":3747,"Ġord":3748,"Ġmusical":3749,"ĠRh":3750,"ta":3751,"Ġmeaning":3752,"Ġcollect":3753,"Ġfeature":3754,"Ġrunning":3755,"During":3756,"Ġtowards":3757,"ntario":3758,"Ġ1979":3759,"Ġenough":3760,"Ġ1981":3761,"ny":3762,"vention":3763,"isions":3764,"omp":3765,"Ġremains":3766,"aring":3767,"ĠTer":3768,"ĠFred":3769,"Ġcomplet":3770,"Ġreligious":3771,"Ġfeet":3772,"Ġadop":3773,"Ġdefeat":3774,"ils":3775,"Ġearlier":3776,"ĠBre":3777,"ĠDoc":3778,"Ġfinally":3779,"Ġlonger":3780,"rim":3781,"ella":3782,"aches":3783,"ĠMa":3784,"Ġhealth":3785,"ests":3786,"ĠPennsylvania":3787,"Ġsomeone":3788,"Ġprison":3789,"ĠItaly":3790,"ĠBlue":3791,"ĠDo":3792,"Ġceleb":3793,"Ġlocation":3794,"Ġcaused":3795,"range":3796,"Ġaltern":3797,"ĠSol":3798,"Ġissues":3799,"ĠBook":3800,"heast":3801,"ulf":3802,"Ġgoing":3803,"Ġcandid":3804,"ĠPet":3805,"Official":3806,"ĠFilm":3807,"Ġgrand":3808,"irm":3809,"ĠReferences":3810,"Ġdebut":3811,"emic":3812,"Ġmostly":3813,"Ġdiscuss":3814,"inet":3815,"ĠFound":3816,"ĠCommission":3817,"09":3818,"Ġtax":3819,"edia":3820,"uty":3821,"Ġaccording":3822,"Ġreason":3823,"leet":3824,"Ġbi":3825,"itiz":3826,"kins":3827,"ĠRoute":3828,"Ġplaced":3829,"het":3830,"Ġoperations":3831,"ĠOhio":3832,"Ġdefeated":3833,"ĠHel":3834,"Ġmedia":3835,"ĠBritain":3836,"ĠSeries":3837,"Ġsett":3838,"ĠTownship":3839,"Ġbomb":3840,"Ġinsp":3841,"Ġprograms":3842,"ockey":3843,"Ġwoman":3844,"08":3845,"Ġyet":3846,"Ġprimary":3847,"Ġplann":3848,"ĠLee":3849,"Ġdone":3850,"writ":3851,"Ġwriting":3852,"Ġ44":3853,"ĠKh":3854,"Ġequip":3855,"ĠWales":3856,"Ġlines":3857,"ĠMiddle":3858,"arter":3859,"Ġimmedi":3860,"Ġhousing":3861,"Ġtar":3862,"ĠGal":3863,"Ġforced":3864,"Ġreached":3865,"1999":3866,"omer":3867,"Ġresults":3868,"ĠNight":3869,"Ġdon":3870,"Ġshown":3871,"Ġmultip":3872,"Ġinj":3873,"Ġwestern":3874,"year":3875,"Ġarchitect":3876,"Ġsigned":3877,"Ġcities":3878,"Ġowned":3879,"Ġpurch":3880,"Ġearn":3881,"Ġterrit":3882,"Ġtransfer":3883,"ĠMen":3884,"ulated":3885,"ips":3886,"ĠOver":3887,"ĠAlso":3888,"rate":3889,"Ġstructure":3890,"ault":3891,"Ġissue":3892,"ĠStation":3893,"Ġproblems":3894,"AC":3895,"ĠUnder":3896,"ulture":3897,"Will":3898,"Ġchanges":3899,"Ġer":3900,"Ġlimited":3901,"ĠJewish":3902,"Ġturned":3903,"inter":3904,"ĠRos":3905,"Ġlarger":3906,"ĠMem":3907,"Ġcreate":3908,"gu":3909,"ĠTri":3910,"oston":3911,"ĠSub":3912,"osing":3913,"Ġleague":3914,"Am":3915,"ato":3916,"ĠEducation":3917,"Ġapproximately":3918,"ĠOntario":3919,"press":3920,"ĠSong":3921,"ĠLand":3922,"lit":3923,"Ġsequ":3924,"ellig":3925,"ĠPan":3926,"ĠYoung":3927,"Ġartist":3928,"Ġbank":3929,"Ġbirth":3930,"Other":3931,"Ġdirected":3932,"Ġ1974":3933,"bon":3934,"Ġbroadcast":3935,"ĠBoard":3936,"fect":3937,"Ġess":3938,"ĠShow":3939,"ĠLin":3940,"ureau":3941,"ĠJun":3942,"Ġscene":3943,"ĠCommittee":3944,"oh":3945,"Ġcomes":3946,"ĠCarolina":3947,"Fran":3948,"ĠFootball":3949,"ĠSocial":3950,"Ġcompanies":3951,"ĠEc":3952,"ĠSur":3953,"Ġnumbers":3954,"change":3955,"shire":3956,"ER":3957,"standing":3958,"Ġtransport":3959,"Ġcases":3960,"Ġvariety":3961,"Ġ1978":3962,"Ġnature":3963,"aka":3964,"Ġ1976":3965,"izing":3966,"Ġaf":3967,"itation":3968,"ora":3969,"Ġhttp":3970,"Ġetc":3971,"Ġbrief":3972,"1991":3973,"ĠYear":3974,"ĠMexico":3975,"oring":3976,"Ġkind":3977,"ĠLab":3978,"ething":3979,"atively":3980,"razil":3981,"Ġbelieved":3982,"ĠSouthern":3983,"BA":3984,"Ġwide":3985,"Ġran":3986,"ĠJr":3987,"wan":3988,"Ġquickly":3989,"ĠĠĠĊ":3990,"iy":3991,"Ġstations":3992,"Ġcollection":3993,"ait":3994,"Ġtrue":3995,"Ġanti":3996,"bs":3997,"anda":3998,"Ġweb":3999,"Ġestablish":4000,"file":4001,"Ġseat":4002,"Ġtechnology":4003,"Ġwhether":4004,"Ed":4005,"Ġsummer":4006,"illed":4007,"ĠTim":4008,"poration":4009,"Ġ1972":4010,"Ġcontract":4011,"One":4012,"embly":4013,"lo":4014,"ĠEdward":4015,"His":4016,"acing":4017,"chest":4018,"Ġsaf":4019,"Ġassociated":4020,"Ġannounced":4021,"Ġdocument":4022,"Ġ1975":4023,"Ġpen":4024,"Ġnecess":4025,"ocal":4026,"ription":4027,"Ġawarded":4028,"venue":4029,"Ġattract":4030,"ĠChief":4031,"ĠEngine":4032,"ĠAv":4033,"Ġshot":4034,"Ġunit":4035,"Ġtrade":4036,"ĠEle":4037,"light":4038,"Ġroute":4039,"Ġlay":4040,"Ġcentre":4041,"Ġemb":4042,"ĠGood":4043,"ĠScotland":4044,"ĠHon":4045,"Ġsports":4046,"error":4047,"Ġjournal":4048,"Ġfarm":4049,"Ġmajority":4050,"agn":4051,"Ġpromin":4052,"Ġloss":4053,"Ġinterview":4054,"war":4055,"Ġcause":4056,"ht":4057,"Ġwhole":4058,"Ġsimply":4059,"Ġbound":4060,"Ġfif":4061,"ĠLittle":4062,"umber":4063,"ĠTro":4064,"Ġsusp":4065,"ĠSince":4066,"Ġdead":4067,"AN":4068,"Ġplant":4069,"MS":4070,"Ġlived":4071,"iated":4072,"ĠTimes":4073,"ĠBoy":4074,"Ġunc":4075,"ĠTheir":4076,"ĠAp":4077,"gar":4078,"Ġ1977":4079,"ĠRel":4080,"Ġhighest":4081,"Ġtradition":4082,"ĠWay":4083,"Ġwr":4084,"Ġbox":4085,"aud":4086,"Ġroom":4087,"ĠEp":4088,"Ġbecomes":4089,"Ġability":4090,"ĠSea":4091,"Ġfriends":4092,"Ġenvironment":4093,"ĠOx":4094,"ĠTem":4095,"Ġnar":4096,"put":4097,"Ġancient":4098,"ĠCross":4099,"ĠDev":4100,"Ġcolor":4101,"arden":4102,"Ġhighly":4103,"Ġdig":4104,"undred":4105,"Ġedition":4106,"Ġ1973":4107,"ĠBank":4108,"ĠEmperor":4109,"FL":4110,"ares":4111,"Ġwood":4112,"Ġmurder":4113,"ĠJones":4114,"arents":4115,"ST":4116,"ih":4117,"Ġface":4118,"Ġdu":4119,"ĠAsian":4120,"ĠWal":4121,"itude":4122,"Ġdecl":4123,"Ġhot":4124,"ĠArts":4125,"inger":4126,"ĠProfess":4127,"stein":4128,"ĠPrime":4129,"ĠHot":4130,"Ġlives":4131,"ĠMore":4132,"ĠCle":4133,"ervative":4134,"Ġstep":4135,"Ġjob":4136,"Ġemer":4137,"Ġconcept":4138,"ĠDuke":4139,"sk":4140,"Ġconstruct":4141,"ivia":4142,"Ġpil":4143,"anded":4144,"ĠAbout":4145,"Ġremain":4146,"Ġinfluence":4147,"rice":4148,"ima":4149,"Ġmiddle":4150,"astic":4151,"ĠPeople":4152,"Ġdraw":4153,"Ġcontrovers":4154,"rich":4155,"Ġlanguages":4156,"cel":4157,"ĠSpain":4158,"ĠMcC":4159,"And":4160,"Ġrequire":4161,"ican":4162,"Ġseparate":4163,"1998":4164,"Ġthreat":4165,"ĠBureau":4166,"Ġens":4167,"Ġ60":4168,"Ġactivities":4169,"mitted":4170,"Ġobserv":4171,"mas":4172,"Ġmainly":4173,"Ġpreviously":4174,"house":4175,"Ġvocals":4176,"ĠGame":4177,"ĠMot":4178,"Ġreview":4179,"Ġended":4180,"Ġbecoming":4181,"Ġsays":4182,"gypt":4183,"ackson":4184,"Ġrailway":4185,"Don":4186,"ĠJul":4187,"ysis":4188,"Ġspecific":4189,"ĠCensus":4190,"ables":4191,"ĠĠĠĠĠ":4192,"Ġinteg":4193,"ĠCro":4194,"Ġbene":4195,"Ġcontinu":4196,"Ġnearly":4197,"Ġprobably":4198,"ĠWebsite":4199,"Ġsociety":4200,"Ġsea":4201,"abb":4202,"ĠBroad":4203,"Ġheavy":4204,"Ġ1968":4205,"ĠDemocratic":4206,"Ġbring":4207,"Ġproblem":4208,"ective":4209,"Ġprovince":4210,"Ġlisting":4211,"Ġpolitician":4212,"ĠUl":4213,"Ġnation":4214,"Ġlegal":4215,"ancial":4216,"ampion":4217,"Ind":4218,"Ġlabel":4219,"Ġbuildings":4220,"arriage":4221,"Ġstatus":4222,"ĠCivil":4223,"Ġblood":4224,"Ġgoal":4225,"itors":4226,"ulations":4227,"eld":4228,"ĠKong":4229,"ĠGirl":4230,"Ġstories":4231,"tained":4232,"Ġsurface":4233,"Ġships":4234,"Ġsoftware":4235,"Ġinvestig":4236,"Ġschol":4237,"ĠJersey":4238,"BS":4239,"Ġfocus":4240,"Ġstaff":4241,"Ġspent":4242,"plement":4243,"isation":4244,"acts":4245,"Ġindic":4246,"ĠMov":4247,"ĠSar":4248,"ĠRussia":4249,"ĠBoston":4250,"ronic":4251,"ati":4252,"uan":4253,"orough":4254,"Ġnotable":4255,"Ġfort":4256,"Ġdivision":4257,"gent":4258,"Ġbass":4259,"ĠTeam":4260,"ĠPo":4261,"ried":4262,"hol":4263,"AM":4264,"Ġcompetition":4265,"500":4266,"ections":4267,"aily":4268,"Ġ1971":4269,"Ġprovides":4270,"Ġdram":4271,"Ġfans":4272,"isk":4273,"adel":4274,"Ġcommonly":4275,"Ġartists":4276,"Ġsymb":4277,"Man":4278,"ĠRailway":4279,"hemat":4280,"ĠLuc":4281,"enty":4282,"resp":4283,"ĠPower":4284,"Ġcard":4285,"Ġ1969":4286,"Ġamount":4287,"ĠColumbia":4288,"Ġpowerful":4289,"Ġang":4290,"ĠMax":4291,"aith":4292,"quar":4293,"Ġrule":4294,"Ġpassed":4295,"asts":4296,"ously":4297,"Ġhours":4298,"oday":4299,"ĠBow":4300,"Ġsen":4301,"ĠDi":4302,"rif":4303,"Ġlack":4304,"ĠRay":4305,"etball":4306,"ĠConn":4307,"ON":4308,"Ġeconomic":4309,"Ġprevent":4310,"thur":4311,"Ġaccount":4312,"Track":4313,"American":4314,"ĠHead":4315,"Ġclosed":4316,"Ġchief":4317,"Ġwinning":4318,"Ġnoted":4319,"Ġevidence":4320,"Ġdom":4321,"Ġforeign":4322,"ira":4323,"ĠIslam":4324,"Ġfoot":4325,"Ġthings":4326,"aby":4327,"more":4328,"Ġcode":4329,"ĠGra":4330,"Ġteacher":4331,"Ġstay":4332,"ĠGall":4333,"Ġwidely":4334,"Ġdeep":4335,"Ġded":4336,"airman":4337,"Ġseem":4338,"ĠBBC":4339,"Ġgun":4340,"Ġtroops":4341,"ĠMid":4342,"VD":4343,"ĠFre":4344,"ĠWeb":4345,"ansas":4346,"Ġsucceed":4347,"ĠHighway":4348,"Ġdomin":4349,"ĠCy":4350,"ager":4351,"ĠFrancisco":4352,"orning":4353,"urban":4354,"ighter":4355,"Ġclear":4356,"1997":4357,"ĠKent":4358,"obile":4359,"Ġdiscovered":4360,"ĠLight":4361,"ĠFire":4362,"ĠPop":4363,"ĠGovernor":4364,"ker":4365,"Ġplat":4366,"king":4367,"Ġmechan":4368,"Ġrate":4369,"Ġdirectly":4370,"ĠDutch":4371,"ĠPost":4372,"ients":4373,"Ġpict":4374,"Ġpaper":4375,"ĠWater":4376,"ĠBul":4377,"ibl":4378,"De":4379,"Ġcrew":4380,"ĠStan":4381,"ĠEarl":4382,"Ġvoice":4383,"inois":4384,"Ġeas":4385,"Ġlikely":4386,"Ġidea":4387,"Ġ1945":4388,"ecause":4389,"Ġsister":4390,"hens":4391,"pre":4392,"Ġfourth":4393,"Ġpsych":4394,"ĠVer":4395,"ĠInf":4396,"can":4397,"onto":4398,"Ġ1967":4399,"ultural":4400,"ĠLatin":4401,"Ġpolicy":4402,"rang":4403,"ĠWilliams":4404,"Ġap":4405,"Ġscreen":4406,"arry":4407,"which":4408,"oir":4409,"ĠStep":4410,"bre":4411,"Ġqual":4412,"ja":4413,"ĠWild":4414,"thlet":4415,"El":4416,"Ġsettle":4417,"oud":4418,"Ġclaimed":4419,"iring":4420,"opher":4421,"imum":4422,"Ġprior":4423,"Ġproperty":4424,"Ġquestion":4425,"ĠFar":4426,"Ġautom":4427,"ĠUs":4428,"Ġcannot":4429,"Ġchem":4430,"Ġ1940":4431,"ĠOtt":4432,"Ġinn":4433,"ĠBet":4434,"ĠPortug":4435,"Ġfinished":4436,"edd":4437,"ĠDie":4438,"hester":4439,"haps":4440,"Be":4441,"Ġeditor":4442,"Ġhistorical":4443,"Ġconsists":4444,"Ġrare":4445,"ĠResearch":4446,"ĠAccording":4447,"ĠVan":4448,"Ġconfl":4449,"ounts":4450,"Ġexperience":4451,"ĠEgypt":4452,"ĠSand":4453,"Ġdro":4454,"ĠEnd":4455,"Ġdestroyed":4456,"down":4457,"stant":4458,"irection":4459,"ibly":4460,"Ġprimarily":4461,"lines":4462,"ĠCat":4463,"ĠRog":4464,"Ġactress":4465,"ĠMah":4466,"ĠCam":4467,"Ġdrug":4468,"Ġleaving":4469,"osh":4470,"ii":4471,"ancy":4472,"Ġmunicipality":4473,"yric":4474,"ĠJes":4475,"Ġcat":4476,"Char":4477,"ĠCentre":4478,"ĠCamb":4479,"rect":4480,"Ġentered":4481,"Ġattended":4482,"mir":4483,"ĠHome":4484,"ĠCharl":4485,"Ġtracks":4486,"1996":4487,"Ġheart":4488,"ĠEastern":4489,"overty":4490,"Ġproducts":4491,"ko":4492,"ictional":4493,"Ġcoach":4494,"Ġmetal":4495,"ĠMajor":4496,"Ġpoor":4497,"Ġresponsible":4498,"onse":4499,"Ġfail":4500,"ĠKenn":4501,"ties":4502,"ĠWall":4503,"abeth":4504,"Ġrap":4505,"ĠUSS":4506,"Ġdefin":4507,"ĠAlbert":4508,"Ġuniversity":4509,"Ġtownship":4510,"Ġhelped":4511,"Ġthink":4512,"ĠChild":4513,"ĠArm":4514,"raq":4515,"ĠWars":4516,"Ġreference":4517,"icks":4518,"ĠJackson":4519,"Ġsmaller":4520,"Ġpossess":4521,"Ġcolon":4522,"ĠDirector":4523,"Ġtypes":4524,"Ġacad":4525,"ĠTw":4526,"Ġplaces":4527,"burgh":4528,"Ġmanagement":4529,"kin":4530,"ĠGeorgia":4531,"ĠBridge":4532,"osophy":4533,"Ġrecording":4534,"Ġtemper":4535,"ĠLibrary":4536,"Some":4537,"ĠSom":4538,"ĠAut":4539,"ĠUnivers":4540,"http":4541,"Ġstudies":4542,"Ġenemy":4543,"Ġtold":4544,"under":4545,"ĠMichigan":4546,"eeks":4547,"Ġleaders":4548,"ĠLater":4549,"Ġelements":4550,"aging":4551,"Ġcommit":4552,"awn":4553,"ĠAlb":4554,"Ġincreasing":4555,"ĠBrazil":4556,"ĠPak":4557,"Ġparents":4558,"Ġcommunic":4559,"Ġfeel":4560,"iger":4561,"hat":4562,"Ġoperated":4563,"iled":4564,"uries":4565,"Ġadditional":4566,"Ġcell":4567,"ĠProt":4568,"ĠDet":4569,"Se":4570,"Ġoffered":4571,"Ġleave":4572,"Ġ1930":4573,"Ġinside":4574,"Ġopening":4575,"Ġlegisl":4576,"met":4577,"Ġdark":4578,"Ġversions":4579,"ava":4580,"Ġgre":4581,"Ġfailed":4582,"yes":4583,"Ġ1966":4584,"Ġappl":4585,"Ġlaunched":4586,"ographics":4587,"Ġdecision":4588,"ĠPres":4589,"iter":4590,"Geography":4591,"aters":4592,"ĠGames":4593,"ĠEll":4594,"Ġapparent":4595,"ĠMos":4596,"ĠBand":4597,"ĠBaron":4598,"state":4599,"gely":4600,"Ġlatter":4601,"uten":4602,"Ġtypically":4603,"alle":4604,"Ġnative":4605,"ĠCorn":4606,"ĠFour":4607,"izations":4608,"Ġquite":4609,"ĠEnter":4610,"rative":4611,"akers":4612,"ĠIllinois":4613,"ĠJohnson":4614,"itled":4615,"Ġmale":4616,"Ġcitiz":4617,"omet":4618,"ais":4619,"teen":4620,"ented":4621,"erc":4622,"izes":4623,"iate":4624,"ishes":4625,"Ġstreng":4626,"Ġstudied":4627,"ocks":4628,"1995":4629,"ĠRy":4630,"We":4631,"ĠJac":4632,"Ġ1964":4633,"William":4634,"Ġspirit":4635,"Ġdise":4636,"wide":4637,"ĠNative":4638,"ĠRome":4639,"ully":4640,"ĠMaster":4641,"eds":4642,"ĠCorporation":4643,"Ġnuc":4644,"emporary":4645,"Ġproduce":4646,"Ġdiss":4647,"Ġpoverty":4648,"Ġsu":4649,"||":4650,"worth":4651,"velopment":4652,"ĠFestival":4653,"1981":4654,"ĠOxford":4655,"ĠJournal":4656,"Ġcommission":4657,"Ġsomething":4658,"umed":4659,"Dr":4660,"obal":4661,"aya":4662,"Ġmess":4663,"ĠJeff":4664,"Is":4665,"Ġphysical":4666,"Ġincreased":4667,"Ġhands":4668,"ela":4669,"ĠAsia":4670,"Ġdespite":4671,"cean":4672,"IS":4673,"ĠSpecial":4674,"Ġminutes":4675,"Ġtherefore":4676,"ĠProgram":4677,"Ġcampus":4678,"Ġhundred":4679,"isters":4680,"Ġeastern":4681,"ĠTour":4682,"Ġvan":4683,"ĠDark":4684,"ĠField":4685,"ĠOpen":4686,"ĠOs":4687,"Ġknowledge":4688,"icient":4689,"onent":4690,"Ġstated":4691,"antry":4692,"Ġtells":4693,"Ġcontr":4694,"ĠJer":4695,"no":4696,"Ġasp":4697,"Ġut":4698,"Ġgoes":4699,"apers":4700,"ĠAtt":4701,"ĠAwards":4702,"NA":4703,"str":4704,"ĠOffice":4705,"etts":4706,"Ġprogress":4707,"Ġ1965":4708,"Ġ35":4709,"ĠBern":4710,"icted":4711,"ĠSummer":4712,"ees":4713,"con":4714,"Ġliber":4715,"orge":4716,"Ġlevels":4717,"ĠAlexander":4718,"ĠPers":4719,"bar":4720,"Ġtal":4721,"Ġmentioned":4722,"ĠCard":4723,"ĠCoast":4724,"eather":4725,"Ġlargely":4726,"Ġinhab":4727,"Ġnomin":4728,"ĠTop":4729,"ollowing":4730,"Ġunique":4731,"Ġcarried":4732,"Ġaddress":4733,"Ġthr":4734,"Ġoil":4735,"Ġdeliver":4736,"Ġchall":4737,"Ġtalk":4738,"aks":4739,"Ġlic":4740,"aun":4741,"Ġracial":4742,"ji":4743,"ennis":4744,"Ġ80":4745,"iest":4746,"Ġfederal":4747,"ĠMu":4748,"Ġgives":4749,"ĠJean":4750,"Ġbad":4751,"ĠVill":4752,"ules":4753,"oto":4754,"ĠRam":4755,"Ġmedical":4756,"Ġofficer":4757,"Ġnewspaper":4758,"nam":4759,"imin":4760,"ĠCreek":4761,"Ġeffects":4762,"Pr":4763,"ione":4764,"perial":4765,"oz":4766,"ricket":4767,"vement":4768,"uct":4769,"Ġpowers":4770,"ES":4771,"ĠSpe":4772,"Dav":4773,"rupt":4774,"achus":4775,"agement":4776,"US":4777,"iny":4778,"wick":4779,"Ġclaims":4780,"Ġbridge":4781,"ederation":4782,"ĠJoe":4783,"Ġplans":4784,"ĠDun":4785,"Ġarrest":4786,"Ġpeace":4787,"Ġmind":4788,"Ġserving":4789,"Ġrecords":4790,"Ġ32":4791,"onents":4792,"ĠBelg":4793,"va":4794,"Ġoperation":4795,"mann":4796,"ĠAvenue":4797,"Ġpick":4798,"ĠChap":4799,"Ġbegins":4800,"Ġdisplay":4801,"ĠIraq":4802,"ĠBeach":4803,"Ġcontinue":4804,"ĠBrother":4805,"mod":4806,"Ġrules":4807,"Ġ1944":4808,"Ġvon":4809,"Ġ+":4810,"arp":4811,"asty":4812,"Ġcounter":4813,"ĠPhilipp":4814,"Ġformat":4815,"Ġasked":4816,"rog":4817,"Ġfrequently":4818,"ĠHong":4819,"From":4820,"ĠYour":4821,"Ġlaws":4822,"ouri":4823,"Ġnearby":4824,"stitution":4825,"Ġcompletely":4826,"ĠBal":4827,"Ġhouses":4828,"Ġhero":4829,"CC":4830,"Ġepisodes":4831,"Ġ90":4832,"Ġseems":4833,"Ġblock":4834,"Ġversus":4835,"ĠRet":4836,"1990":4837,"Ġmm":4838,"Ġdistinct":4839,"Ġimmediately":4840,"ĠCommon":4841,"aped":4842,"Ġboy":4843,"iced":4844,"imal":4845,"ila":4846,"ĠAndrew":4847,"Ġprin":4848,"Ġincorpor":4849,"ression":4850,"Ġcart":4851,"Ġintended":4852,"rees":4853,"Ġserve":4854,"ffic":4855,"Ġult":4856,"Ġextrem":4857,"ety":4858,"ĠHung":4859,"ĠMike":4860,"onia":4861,"ĠKe":4862,"adelph":4863,"ĠIslands":4864,"With":4865,"ĠSecretary":4866,"Ġfell":4867,"aylor":4868,"Ġconditions":4869,"anger":4870,"Ġadj":4871,"enge":4872,"Ġrefers":4873,"Ġattacks":4874,"phy":4875,"Ġblue":4876,"Ġgas":4877,"Ġweapons":4878,"ĠToronto":4879,"Ġproducer":4880,"also":4881,"Ġcoin":4882,"Ġstudio":4883,"Ġdivided":4884,"ador":4885,"ĠMas":4886,"Ġmanager":4887,"Ġfictional":4888,"Des":4889,"Ġbasis":4890,"Ġweeks":4891,"Ġsn":4892,"nel":4893,"',":4894,"Ġwear":4895,"Ġforest":4896,"Ġallows":4897,"ĉĉ":4898,"By":4899,"Ġ...":4900,"Ġmachine":4901,"Ġthous":4902,"Ġincrease":4903,"ami":4904,"ĠVictoria":4905,"Demographics":4906,"Ġrepresented":4907,"orship":4908,"Ġwalk":4909,"You":4910,"Ġmarriage":4911,"Ġchampionship":4912,"ois":4913,"ucky":4914,"ĠPolish":4915,"ĠHun":4916,"Ġfast":4917,"aver":4918,"1994":4919,"ĠSite":4920,"net":4921,"Ġcomic":4922,"ĠAsh":4923,"Ġmanaged":4924,"ĠNetwork":4925,"Ġlif":4926,"Ġtowns":4927,"ader":4928,"Ġremaining":4929,"Ġsupported":4930,"Ġraised":4931,"izabeth":4932,"adelphia":4933,"ĠRevolution":4934,"Ġfigure":4935,"ĠUr":4936,"Ġ1920":4937,"Ġconver":4938,"ogue":4939,"Ġquality":4940,"yth":4941,"Ġprec":4942,"Ġcarri":4943,"ĠScottish":4944,"formed":4945,"ĠBudd":4946,"ĠThree":4947,"ĠBack":4948,"appen":4949,"Ġborder":4950,"Ġprominent":4951,"ilding":4952,"Ġbelieve":4953,"stone":4954,"Ġcontroll":4955,"Ġdouble":4956,"Ġsens":4957,".);":4958,"Ġbatt":4959,"ĠLew":4960,"ĠPakistan":4961,"achusetts":4962,"ounds":4963,"Ġsearch":4964,"Gu":4965,"Ġretired":4966,"ĠSund":4967,"Ġarrived":4968,"Ġdog":4969,"Ġslow":4970,"Ġhol":4971,"ographic":4972,"Ġdetermin":4973,"Ġsense":4974,"Ġmeeting":4975,"Ġpack":4976,"Ġdepart":4977,"ĠOrig":4978,"bec":4979,"ube":4980,"rence":4981,"Ġneeded":4982,"enes":4983,"ĠMinn":4984,"Ġnormal":4985,"Ġfeaturing":4986,"respond":4987,"aki":4988,"host":4989,"Ġdirection":4990,"ĠMuslim":4991,"Ġshare":4992,"Ġparties":4993,"Ġsimple":4994,"ĠStat":4995,"ĠFree":4996,"encies":4997,"Ġalbums":4998,"ror":4999,"Con":5000,"Ġtele":5001,"Ġneighbor":5002,"eman":5003,"Ġgiving":5004,"ĠSyd":5005,"Ġsomew":5006,"ctions":5007,"Ab":5008,"ĠBell":5009,"vis":5010,"ĠDisc":5011,"amber":5012,"ID":5013,"'.":5014,"ĠFair":5015,"ĠLive":5016,"ĠTheatre":5017,"Ġunknown":5018,"Ġrob":5019,"ĠMales":5020,"ĠRom":5021,"Ġstreet":5022,"Ġmaster":5023,"vin":5024,"OR":5025,"No":5026,"Ġserious":5027,"AF":5028,"Ġpun":5029,"Ġletter":5030,"Ġsquare":5031,"chestra":5032,"Ġvo":5033,"Ġcovered":5034,"ĠInformation":5035,"Ġ1963":5036,"ĠHarv":5037,"Ġannual":5038,"To":5039,"Ġmodels":5040,"ĠRod":5041,"Ġenj":5042,"amin":5043,"esh":5044,"Ġonline":5045,"yo":5046,"Ġtourn":5047,"Ġfavor":5048,"ĠInternet":5049,"1993":5050,"ĠId":5051,"ĠOb":5052,"ĠCommunity":5053,"ĠSpring":5054,"ĠWork":5055,"Ġcars":5056,"Ġpressure":5057,"ĠPen":5058,"Ġelections":5059,"ĠConf":5060,"Ġcouples":5061,"OS":5062,"ayer":5063,"Ġrepe":5064,"ĠFamily":5065,"ĠCaptain":5066,"Ġfighting":5067,"Ġdial":5068,"Ġvictory":5069,"Ġrevealed":5070,"Ġimage":5071,"iques":5072,"Ġfair":5073,"Ġsources":5074,"ĠFoundation":5075,"atab":5076,"Ġchap":5077,"Ġste":5078,"Ġgod":5079,"1971":5080,"ims":5081,"htm":5082,"Ġgreen":5083,"Ġbelong":5084,"ĠDown":5085,"Ġ);":5086,"Ġequipment":5087,"Ġgrew":5088,"Ġwanted":5089,"Ġfinancial":5090,"Rep":5091,"Ġliterature":5092,"IT":5093,"Ġ1962":5094,"Ġinstrument":5095,"otion":5096,"pton":5097,"Ġera":5098,"ĠIran":5099,"ĠKar":5100,"ĠBall":5101,"Ġexhib":5102,"Ġresponse":5103,"ĠBat":5104,"ĠKen":5105,"ĠProject":5106,"Ġgoals":5107,"ĠSpace":5108,"Qu":5109,"Ġremoved":5110,"ynam":5111,"Ġbrand":5112,"ieuten":5113,"FA":5114,"mad":5115,"imated":5116,"Ġstore":5117,"Ġcontinues":5118,"ĠIndepend":5119,"ĠMir":5120,"ĠCastle":5121,"yt":5122,"Ġcam":5123,"ĠHal":5124,"Ġtried":5125,"icine":5126,"esota":5127,"ĠBoth":5128,"athan":5129,"aga":5130,"ĠWilson":5131,"nes":5132,"ounded":5133,"ĠLes":5134,"elligence":5135,"Ġsolo":5136,"Ġgrowth":5137,"Ġattention":5138,"Ġsplit":5139,"ĠAssembly":5140,"Ġdance":5141,"Ġpresented":5142,"Ġcateg":5143,"Ġdamage":5144,"amilies":5145,"Ġgreater":5146,"CD":5147,"Ġslight":5148,"oned":5149,"posed":5150,"Bar":5151,"Ġcontest":5152,"Ġsoldiers":5153,"osa":5154,"ĠSev":5155,"ĠVen":5156,"Ġcharge":5157,"Ġfollows":5158,"Ġstarting":5159,"Ġsuit":5160,"Ġshop":5161,"ĠFer":5162,"ĠLu":5163,"Ġbird":5164,"ĠHealth":5165,"adow":5166,"Ġpurpose":5167,"Ġ500":5168,"ĠColl":5169,"ivity":5170,"ĠDeath":5171,"osen":5172,"ĠJustice":5173,"Ġoffers":5174,"rical":5175,"ĠTechnology":5176,"Ġuns":5177,"ĠMassachusetts":5178,"Ġserves":5179,"Ġhop":5180,"Ġpath":5181,"Ġheav":5182,"Ġgained":5183,"ĠĠĠĠĠĠ":5184,"ĠSil":5185,"ĠSenate":5186,"ĠSteve":5187,"Ġsecurity":5188,"andy":5189,"Ġpercent":5190,"Ġhonor":5191,"aph":5192,"ĠWomen":5193,"Ġmoving":5194,"bo":5195,"yrics":5196,"ĠOrgan":5197,"Ġsal":5198,"ĠViet":5199,"ĠKorea":5200,"enger":5201,"adron":5202,"gg":5203,"Ġrelatively":5204,"Ġflag":5205,"Eng":5206,"Ġcaptured":5207,"clus":5208,"sen":5209,"Ġcouncil":5210,"Ġcorn":5211,"hing":5212,"Ġadopted":5213,"Ġoperating":5214,"uther":5215,"ipl":5216,"ĠRem":5217,"ĠSydney":5218,"ĠHy":5219,"Ġelectric":5220,"zer":5221,"Ġpurs":5222,"ĠBra":5223,"ĠDaniel":5224,"Ġice":5225,"Ġ1943":5226,"Ġtarget":5227,"ĠIV":5228,"ĠHa":5229,"ydro":5230,"Ġgraph":5231,"inity":5232,"Ġflight":5233,"Ġsubsequently":5234,"ervation":5235,"ĠAk":5236,"Ġbands":5237,"Ġenter":5238,"Ġplanet":5239,"Ġresiding":5240,"Ġrat":5241,"Ġsched":5242,"ĠFox":5243,"Ġplatform":5244,"ĠPhiladelphia":5245,"Ġmom":5246,"Ġmultiple":5247,"Ne":5248,"ĠCorps":5249,"ĠDar":5250,"ĠOlympics":5251,"ĠRepublican":5252,"ba":5253,"ĠLike":5254,"bourne":5255,"ega":5256,"iable":5257,"1992":5258,"ĠLim":5259,"Ġinitial":5260,"Ġ70":5261,"ĠMain":5262,"iat":5263,"Ġcombat":5264,"ĠOk":5265,"inson":5266,"antly":5267,"olved":5268,"ieutenant":5269,"oes":5270,"ĠHuman":5271,"Ġinitially":5272,"olis":5273,"ĠGuard":5274,"Ġmountain":5275,"ĠLt":5276,"ĠJon":5277,"ordin":5278,"elly":5279,"Ġmakeup":5280,"ĠProfessor":5281,"ĠMountain":5282,"Ġ1942":5283,"omm":5284,"iot":5285,"rin":5286,"Ġbehav":5287,"bed":5288,"ĠTest":5289,"ĠAnother":5290,"Ġresist":5291,"ĠHispan":5292,"ĠMic":5293,"May":5294,"Ġshoot":5295,"eller":5296,"bro":5297,"real":5298,"Ġcontact":5299,"odies":5300,"Ġvote":5301,"ĠDVD":5302,"Ġbranch":5303,"ece":5304,"Ġcreation":5305,"ĠAdd":5306,"Ġcomposer":5307,"riz":5308,"Ġcomposed":5309,"acity":5310,"ĠChannel":5311,"leep":5312,"ali":5313,"Ġcapita":5314,"Ġoccasion":5315,"Ġbeat":5316,"ĠEconom":5317,"Ġscore":5318,"ĠKir":5319,"itness":5320,"Ġlegend":5321,"ĠPubl":5322,"Plot":5323,"Ġdemonst":5324,"wise":5325,"Ġbeaut":5326,"Jan":5327,"Ġkept":5328,"ixed":5329,"ĠMarsh":5330,"Not":5331,"Ġresidents":5332,"David":5333,"Ġtitles":5334,"Im":5335,"Ġprovinc":5336,"Ġstars":5337,"wa":5338,"wing":5339,"unction":5340,"Ġir":5341,"Ġcultural":5342,"Ġple":5343,"sey":5344,"Ġwant":5345,"ĠSher":5346,"Ġcontent":5347,"oration":5348,"ĠDoctor":5349,"Ġstra":5350,"ĠAst":5351,"Ġmatter":5352,"Ġindustrial":5353,"ĠSa":5354,"Ġexec":5355,"ĠMP":5356,"erto":5357,"West":5358,"ĠĠĠĠĠĠĠ":5359,"kes":5360,"RA":5361,"Ġroll":5362,"Ġaccepted":5363,"ĠBa":5364,"reement":5365,"ĠSanta":5366,"ĠCa":5367,"ĠFederal":5368,"Ġfiction":5369,"Ġhappen":5370,"Ġbackground":5371,"alm":5372,"Ġprem":5373,"Ġ1961":5374,"Ġchannel":5375,"itzer":5376,"ĠLy":5377,"grad":5378,"Ġentry":5379,"ĠBrad":5380,"ĠHind":5381,"Ġperhaps":5382,"ĠProvince":5383,"Ġearth":5384,"Ġtheme":5385,"uls":5386,"yer":5387,"Ġimplement":5388,"Ġproposed":5389,"Ġdistance":5390,"Ġcontain":5391,"Ġcho":5392,"Ġexperiment":5393,"ĠTaylor":5394,"ĠChris":5395,"ologist":5396,"ĠArea":5397,"ĠBad":5398,"ĠMinnesota":5399,"Ġdedicated":5400,"Or":5401,"IA":5402,"Ġamb":5403,"ĠReview":5404,"Ġnine":5405,"ĠArthur":5406,"restling":5407,"oting":5408,"Ġcorrespond":5409,"rant":5410,"rec":5411,"ĠSweden":5412,"aska":5413,"South":5414,"Ġconcent":5415,"Ġmotor":5416,"ĠAtlantic":5417,"SP":5418,"Ġlies":5419,"utation":5420,"Ġast":5421,"ĠHospital":5422,"ĠArgent":5423,"ingly":5424,"Ġbott":5425,"anga":5426,"Although":5427,"Ġopportun":5428,"Ġsituation":5429,"orph":5430,"Ġpotential":5431,"Ġterritory":5432,"iful":5433,"iar":5434,"ruce":5435,"ĠPolit":5436,"ĠPrize":5437,"Ġlisted":5438,"La":5439,"ga":5440,"Ġextremely":5441,"ĠWho":5442,"ĠHay":5443,"load":5444,"Ġkil":5445,"ĠElizabeth":5446,"ĠJesus":5447,"amm":5448,"Ġseasons":5449,"ĠForm":5450,"Ġaband":5451,"ĠHard":5452,"ĠHispanic":5453,"ynasty":5454,"Ġofficially":5455,"urric":5456,"ĠColor":5457,"ĠTony":5458,"rugg":5459,"ĠPoland":5460,"Ġactual":5461,"ĠConference":5462,"ĠGreg":5463,"Ġft":5464,"inder":5465,"Ġselected":5466,"ĠLady":5467,"ption":5468,"Ġ1948":5469,"EC":5470,"Ġbit":5471,"ez":5472,"ĠForest":5473,"uts":5474,"Ġrecover":5475,"Ġsituated":5476,".\";":5477,"rawn":5478,"Ġreach":5479,"Ġprep":5480,"class":5481,"ĠDevelopment":5482,"Ġ1941":5483,"Ġapproach":5484,"Ġbow":5485,"ĠBerlin":5486,"HL":5487,"ĠCirc":5488,"families":5489,"ĠJews":5490,"Ġcandidate":5491,"ĠAnth":5492,"Can":5493,"Ġpan":5494,"Notes":5495,"Ġvirt":5496,"Ġreading":5497,"inally":5498,"Ġnecessary":5499,"ĠDig":5500,"iary":5501,"Ġ1959":5502,"luding":5503,"ĠAnderson":5504,"gers":5505,"Ġ1947":5506,"Ġcustom":5507,"Dec":5508,"ĠStand":5509,"olitan":5510,"Ġsaying":5511,"North":5512,"Ġ1958":5513,"oln":5514,"Ġmis":5515,"ansion":5516,"ĠRepresent":5517,"Ġrapid":5518,"Ġtend":5519,"Ġbask":5520,"pet":5521,"ĠNow":5522,"ĠMoon":5523,"ecting":5524,"iform":5525,"former":5526,"ĠDream":5527,"Ġ1956":5528,"Ġpattern":5529,"Ġ1946":5530,"Ġupper":5531,"ulty":5532,"Ġbasic":5533,"Ġcommunities":5534,"Ġhor":5535,"General":5536,"ĠWhat":5537,"prise":5538,"Ġefforts":5539,"ening":5540,"James":5541,"ĠSimon":5542,"ĠCub":5543,"ello":5544,"Ġfounder":5545,"ĠPlan":5546,"ryst":5547,"Ġdrive":5548,"Per":5549,"Ġmemory":5550,"heim":5551,"Ġminister":5552,"gn":5553,"Ġconstructed":5554,"Ġfacilities":5555,"tra":5556,"ogy":5557,"water":5558,"Ġexpected":5559,"ĠSn":5560,"ĠTit":5561,"Ġencour":5562,"Ġ33":5563,"duce":5564,"Ġcompris":5565,"Ġactivity":5566,"Ġways":5567,"ĠWalk":5568,"Ġextended":5569,"Ġunderst":5570,"etherlands":5571,"'m":5572,"urd":5573,"Ġfirm":5574,"Ġaccident":5575,"Ġcollabor":5576,"uation":5577,"ĠGolden":5578,"Ġaffil":5579,"\").":5580,"van":5581,"where":5582,"Ġpolitics":5583,"lav":5584,"ulate":5585,"ĠSant":5586,"ĠChristmas":5587,"ashion":5588,"Ġeasily":5589,"quarters":5590,"ĠHarry":5591,"Ġtreatment":5592,"ĠOlympic":5593,"ading":5594,"ĠBusiness":5595,"Ġtable":5596,"Ġprojects":5597,"ĠDam":5598,"ĠCountry":5599,"Ġweight":5600,"ĠDer":5601,"Ġcoming":5602,"rance":5603,"pper":5604,"agan":5605,"Ġmedal":5606,"ui":5607,"Ġsurrounding":5608,"Ġleaves":5609,"nce":5610,"ograp":5611,"Ġlot":5612,"ĠHoly":5613,"ĠStephen":5614,"Ġhospital":5615,"Nov":5616,"Ġfought":5617,"Ġattempts":5618,"ĠBh":5619,"Ġhouseholder":5620,"Ġpiece":5621,"While":5622,"ĠNaz":5623,"Ġdefined":5624,"1961":5625,"ĠTok":5626,"Ġordered":5627,"aked":5628,"evin":5629,"Ġimpl":5630,"ĠLatino":5631,"Ġgrowing":5632,"Ġextra":5633,"ĠLiberal":5634,"ĠCare":5635,"Ġcitizens":5636,"Ġcombined":5637,"Ġ1957":5638,"ĠAff":5639,"1989":5640,"iki":5641,"ĠTurk":5642,"Ġsomewhat":5643,"Ġprogramming":5644,"weight":5645,"atabase":5646,"Ġholds":5647,"eline":5648,"Ġ1939":5649,"Ġsenior":5650,"ĠIndust":5651,"Ġmaintain":5652,"ĠSav":5653,"Ġarts":5654,"resh":5655,"Ġmax":5656,"ĠFord":5657,"from":5658,"ressed":5659,"Ġacquired":5660,"Ġtree":5661,"ĠCambridge":5662,"ĠTs":5663,"Ġleadership":5664,"Ġforward":5665,"ĠEst":5666,"Ġapplied":5667,"Ġarticles":5668,"ĠSports":5669,"Ġarms":5670,"ĠMagazine":5671,"Ġweapon":5672,"Ġquarter":5673,"ĠPC":5674,"usc":5675,"En":5676,"Ġpresence":5677,"Ġstrength":5678,"ugby":5679,"Ġmeasure":5680,"Ġanimals":5681,"ĠPolice":5682,"room":5683,"apore":5684,"Ġfully":5685,"Ġ1955":5686,"ĠEach":5687,"uting":5688,"Ġofficers":5689,"inem":5690,"enness":5691,"anna":5692,"Ġoverall":5693,"Ġrenamed":5694,"idden":5695,"My":5696,"Ġdepartment":5697,"ĠLind":5698,"Ġdistingu":5699,"ĠKey":5700,"Ġ36":5701,"Ġtwenty":5702,"ĠWat":5703,"erick":5704,"Ġissued":5705,"ĠCop":5706,"Ġtraffic":5707,"lywood":5708,"Ġyouth":5709,"Ġexact":5710,"ĠSwedish":5711,"Ġcer":5712,"Ġdisease":5713,"Ġvac":5714,"ancing":5715,"Ġappearances":5716,"urer":5717,"ĠQuebec":5718,"ĠCz":5719,"ĠLo":5720,"Ġanalysis":5721,"Ġunion":5722,"Ġwhy":5723,"Ġorganizations":5724,"Ġexistence":5725,"ĠLet":5726,"Ġadministration":5727,"isa":5728,"Ġmeant":5729,"Ġattend":5730,"works":5731,"Ġconflict":5732,"Ġearned":5733,"Ġclasses":5734,"Ġenjoy":5735,"Ġeffort":5736,"ĠBooks":5737,"Ġpet":5738,"Ġburn":5739,"aly":5740,"Ġuser":5741,"da":5742,"Ġallowing":5743,"Ġhorse":5744,"achel":5745,"mes":5746,"clop":5747,"Ġends":5748,"ĠStr":5749,"Ġwild":5750,"MA":5751,"ĠFinal":5752,"ĠGer":5753,"osis":5754,"irty":5755,"ĠSupreme":5756,"rie":5757,"ĠRoss":5758,"Ġbal":5759,"Mich":5760,"Ġpit":5761,"Ġcondition":5762,"inus":5763,"Ġcalc":5764,"Ġsport":5765,"umes":5766,"ĠPrin":5767,"Ġhar":5768,"Ġmill":5769,"acter":5770,"Ġentitled":5771,"eral":5772,"Ġresulting":5773,"Ġsexual":5774,"ricts":5775,"ĠStudies":5776,"Ġoldest":5777,"ĠPass":5778,"Ġcorrect":5779,"Ġdeclared":5780,"Ġregional":5781,"elle":5782,"ĠGuide":5783,"ĠLewis":5784,"ĠBatt":5785,"vest":5786,"Ġtrying":5787,"cont":5788,"Ġprofessor":5789,"ĠMarc":5790,"Ġplanned":5791,"Ġbelief":5792,"If":5793,"!\"":5794,"ordon":5795,"Ġans":5796,"ĠDavis":5797,"Ġgraduated":5798,"ĠFM":5799,"Rec":5800,"Ġscientific":5801,"iac":5802,"Ġ()":5803,"law":5804,"Ġgets":5805,"Ġinhabit":5806,"ĠBox":5807,"Ġperman":5808,"Ġfellow":5809,"ĠToday":5810,"Ġsyn":5811,"Ġsucceeded":5812,"ĠBecause":5813,"ĠBir":5814,"ĠMedal":5815,"Ġfan":5816,"lers":5817,"ĠBrig":5818,"Ġsil":5819,"Ġpp":5820,"ĠBishop":5821,"Ġportion":5822,"aling":5823,"inners":5824,"Ġ1954":5825,"isode":5826,"ining":5827,"Ġ1952":5828,"lyn":5829,"Ġauthority":5830,"....":5831,"ĠHeart":5832,"Ġethn":5833,"Ġsubs":5834,"Ġhy":5835,"ocated":5836,"oster":5837,"Robert":5838,"anguage":5839,"uh":5840,"ĠAdvent":5841,"Ġbul":5842,"Ġdoing":5843,"Ġ1949":5844,"uate":5845,"ĠBol":5846,"Ġfigures":5847,"ĠDespite":5848,"ĠBab":5849,"Ġmyth":5850,"Ġacademic":5851,"ĠUN":5852,"ĠAlf":5853,"Fl":5854,"ĠHom":5855,"Ġheight":5856,"Ġopposed":5857,"ĠRegiment":5858,"ĠAnton":5859,"Ġscored":5860,"Ġ1953":5861,"Ġheard":5862,"ĠNic":5863,"aret":5864,"ownt":5865,"antasy":5866,"enny":5867,"Ġrecognized":5868,"Ġfit":5869,"Ġwinner":5870,"ĠNations":5871,"ĠRailroad":5872,"Disc":5873,"verse":5874,"Ġcolumn":5875,"ĠConc":5876,"ĠSix":5877,"ĠPrem":5878,"Ġurban":5879,"Ġcalls":5880,"ropical":5881,"weet":5882,"itage":5883,"ĠNetherlands":5884,"Ġmethods":5885,"Ġsac":5886,"Ġnuclear":5887,"aming":5888,"glas":5889,"ĠMissouri":5890,"zo":5891,"Ġharm":5892,"lar":5893,"Ġmap":5894,"rum":5895,"Ġletters":5896,"ĠBush":5897,"onder":5898,"Ġmuseum":5899,"Ġreceive":5900,"amilton":5901,"Ġstrugg":5902,"Ġmunicipal":5903,"Ġneeds":5904,"PS":5905,"Ġescape":5906,"Ġreform":5907,"ĠTar":5908,"Ste":5909,"CO":5910,"Ġcards":5911,"Ġsymbol":5912,"Ġacting":5913,"mouth":5914,"iscons":5915,"Ġfloor":5916,"Ġflow":5917,"miss":5918,"bell":5919,"Ġillust":5920,"Ġconnected":5921,"Ġadvant":5922,"Ġresemb":5923,"ession":5924,"Ġquant":5925,"isconsin":5926,"ickn":5927,"ruit":5928,"Christ":5929,"Ġdidn":5930,"enna":5931,"ĠMicro":5932,"Ġfreed":5933,"ĠBon":5934,"Ġowner":5935,"ĠPit":5936,"illing":5937,"incoln":5938,"ĠPu":5939,"Ġhair":5940,"Ġplants":5941,"Ġmut":5942,"Ġresc":5943,"ĠNap":5944,"Ġbasketball":5945,"Ġnothing":5946,"ropolitan":5947,"life":5948,"Ġbaseball":5949,"Ġproviding":5950,"Ġcapacity":5951,"yal":5952,"estic":5953,"Ġchosen":5954,"ĠTen":5955,"1951":5956,"ĠHan":5957,"riev":5958,"Ġ34":5959,"Ġseats":5960,"Ġattempted":5961,"112":5962,"Ġyounger":5963,"esc":5964,"rome":5965,"ĠSem":5966,"National":5967,"ĠBrian":5968,"Ġdevice":5969,"Ġaudience":5970,"Ġroles":5971,"appy":5972,"Ġplot":5973,"Ġsuppl":5974,"ns":5975,"ĠHart":5976,"Ġspect":5977,"acement":5978,"Ġactions":5979,"ĠRad":5980,"Ġrefused":5981,"Trivia":5982,"1936":5983,"Rich":5984,"Ġresident":5985,"Sup":5986,"ĠCas":5987,"Ġlabor":5988,"Ġorganized":5989,"writer":5990,"ĠPhilip":5991,"lem":5992,"idae":5993,"Ġtry":5994,"Ġtim":5995,"oured":5996,"everal":5997,"Ġvisit":5998,"Ġtaught":5999,"Ġvehicle":6000,"Ġlyrics":6001,"Ġscholars":6002,"ipe":6003,"owa":6004,"Ġsites":6005,"Ġwall":6006,"Ġcritical":6007,"ĠRun":6008,"Ġtwice":6009,"'re":6010,"110":6011,"Ġ38":6012,"ropri":6013,"LA":6014,"Ġoccurred":6015,"Ġfinds":6016,"book":6017,"ĠBang":6018,"Ġextensive":6019,"Ġmagn":6020,"ĠAbb":6021,"Ġacts":6022,"ĠWolf":6023,"hematics":6024,"ĠAge":6025,"ĠPoint":6026,"Ġonto":6027,"Ġbey":6028,"zen":6029,"iling":6030,"ĠComics":6031,"ĠLeon":6032,"icer":6033,"Te":6034,"Men":6035,"Ġpal":6036,"Ġadvanced":6037,"Ġstock":6038,"ĠPier":6039,"idge":6040,"ĠKim":6041,"Ġadvert":6042,"alion":6043,"iminal":6044,"ĠChampionships":6045,"orders":6046,"ET":6047,"1980":6048,"Ġrestaur":6049,"Ġslightly":6050,"ĠBeat":6051,"color":6052,"ova":6053,"\"),":6054,"Ġring":6055,"PA":6056,"Ġ),":6057,"Ġfish":6058,"ĠMaria":6059,"Ġfeed":6060,"Ġgovern":6061,"ika":6062,"Ġcab":6063,"Ġseg":6064,"ĠBarb":6065,"Early":6066,"Ġassigned":6067,"ĠSilver":6068,"ĠTurn":6069,"Ġreferences":6070,"ĠColon":6071,"don":6072,"Ġ1951":6073,"ĠStory":6074,"ighth":6075,"Ġtournament":6076,"Ġsuffered":6077,"ĠThus":6078,"Ġopposition":6079,"Ġfunctions":6080,"ĠTal":6081,"ĠBurn":6082,"Ġagric":6083,"Ġherself":6084,"ĠBi":6085,"Ġconsum":6086,"Ġtrial":6087,"Ġbeyond":6088,"mun":6089,"outs":6090,"iations":6091,"rix":6092,"Ġregarded":6093,"Ġentirely":6094,"ĠHo":6095,"ĠMach":6096,"Ġconstitu":6097,"dale":6098,"Ġsuburb":6099,"Ġpositions":6100,"ĠOnly":6101,"George":6102,"ache":6103,"ifically":6104,"found":6105,"ĠEven":6106,"Ġspring":6107,"Ġparliament":6108,"agh":6109,"ĠRoll":6110,"1988":6111,"Ġclubs":6112,"ĠCDP":6113,"Ġreasons":6114,"alo":6115,"friend":6116,"outheast":6117,"ori":6118,"ĠRon":6119,"113":6120,"ito":6121,"ĠEric":6122,"Ġcreating":6123,"gr":6124,"ĠSound":6125,"Ġalle":6126,"Ġpurchased":6127,"oken":6128,"Ġderived":6129,"Ġsupply":6130,"Ġmusician":6131,"ĠHoward":6132,"mont":6133,"uv":6134,"ĠMun":6135,"hedral":6136,"Paul":6137,"weg":6138,"Ġcovers":6139,"Ġlat":6140,"phas":6141,"Ġsales":6142,"Ġcrime":6143,"Ġheavily":6144,"Ġhun":6145,"urches":6146,"Ġresources":6147,"Ġsides":6148,"Ġbegin":6149,"ĠTrain":6150,"Ġproved":6151,"ĠMarine":6152,"ĠSum":6153,"Ġphilosophy":6154,"aria":6155,"Ġspons":6156,"ĠFrancis":6157,"fort":6158,"dd":6159,"ilation":6160,"Ġalternative":6161,"rants":6162,"Ġrot":6163,"FF":6164,"Ġwithd":6165,"ĠPage":6166,"Ġgreatest":6167,"istered":6168,"ĠDead":6169,"iser":6170,"Ġdistribution":6171,"ĠStone":6172,"Ġ*":6173,"anning":6174,"Ġrough":6175,"Ġspot":6176,"otic":6177,"ifying":6178,"ĠWin":6179,"Ġchart":6180,"Ġdoub":6181,"Ġteaching":6182,"Ġmatches":6183,"fully":6184,"emeter":6185,"Ġmorning":6186,"Ġreligion":6187,"boy":6188,"ĠAdminist":6189,"ĠLi":6190,"Ġsets":6191,"ĠAcc":6192,"imens":6193,"Ġfuel":6194,"ĠCur":6195,"ĠHor":6196,"ĠNar":6197,"Ġnotably":6198,"onym":6199,"Ġapplication":6200,"Ġcontemporary":6201,"ĠBrook":6202,"1987":6203,"Ġnote":6204,"Ġresulted":6205,"ĠWhit":6206,"unte":6207,"Ġhyp":6208,"Ġsym":6209,"Ġones":6210,"Ġpossibly":6211,"Ġfields":6212,"ĠTy":6213,"Ġreally":6214,"Ġcomedy":6215,"ĠRen":6216,"ĠRose":6217,"ĠNob":6218,"uses":6219,"ĠWisconsin":6220,"Her":6221,"ĠEss":6222,"Ġstone":6223,"Ġnet":6224,"Ġsetting":6225,"Ġvs":6226,"Ġattacked":6227,"iders":6228,"isted":6229,"ĠSunday":6230,"lah":6231,"ĠStadium":6232,"ĠMemorial":6233,"ĠTrib":6234,"ennessee":6235,"ĠPope":6236,"oen":6237,"Ġavoid":6238,"Ġiron":6239,"Ġconstitution":6240,"Ġcarry":6241,"ĠLabour":6242,"chen":6243,"eway":6244,"Ġsettlement":6245,"ocr":6246,"Ġreports":6247,"Ġdoll":6248,"Ġconce":6249,"Ġkilling":6250,"stead":6251,"Ġeffective":6252,"Ġpartn":6253,"Ġmarked":6254,"Ġspeech":6255,"Gl":6256,"ĠDC":6257,"Ġpiano":6258,"Ġadvent":6259,"Ġbroke":6260,"ĠCab":6261,"oven":6262,"Ġengineering":6263,"Ġreject":6264,"Ġregions":6265,"Ġpieces":6266,"ĠPot":6267,"uese":6268,"Ġproceed":6269,"Since":6270,"pret":6271,"owntown":6272,"117":6273,"die":6274,"Ġchoice":6275,"ĠRober":6276,"Ġpull":6277,"Ġnotes":6278,"anth":6279,"Ġprincipal":6280,"Ġrise":6281,"ĠEth":6282,"Ġdie":6283,"odox":6284,"Ġcru":6285,"omot":6286,"ĠReal":6287,"ĠCentury":6288,"amples":6289,"Ġfaith":6290,"Ġobjects":6291,"uccess":6292,"Ġgranted":6293,"Born":6294,"Ġworkers":6295,"ads":6296,"Ġrequest":6297,"Ġtouch":6298,"stream":6299,"ĠCommand":6300,"ĠSingapore":6301,"omy":6302,"ĠStock":6303,"114":6304,"Ġagreed":6305,"Ġestimated":6306,"Ġmaterials":6307,"Ġequival":6308,"ĠFederation":6309,"track":6310,"ĠRoy":6311,"Ġvocal":6312,"Ġrival":6313,"Ġmicro":6314,"ibb":6315,"Ġguard":6316,"Ġdetails":6317,"ĠLabor":6318,"run":6319,"Ġnob":6320,"ĠHou":6321,"1931":6322,"Ġsettled":6323,"ĠServices":6324,"organ":6325,"Ġfleet":6326,"Ġsingles":6327,"ĠGil":6328,"ĠAD":6329,"ĠKansas":6330,"Ġcomment":6331,"Ġpaid":6332,"Ġreduced":6333,"cious":6334,"Ġcompared":6335,"Ġvotes":6336,"orter":6337,"Ġcoal":6338,"entially":6339,"Ġri":6340,"Ġvehicles":6341,"Ġ300":6342,"Ġstorm":6343,"Ġ37":6344,"ĠConstitution":6345,"anny":6346,"?\"":6347,"Ġfolk":6348,"ĠDesign":6349,"olec":6350,"Ġeconomy":6351,"car":6352,"Ġfelt":6353,"gor":6354,"ĠBalt":6355,"Ġachieved":6356,"ĠĠĠĠĊ":6357,"isms":6358,"Aust":6359,"116":6360,"Ġcells":6361,"Ġconcert":6362,"Data":6363,"Ġvess":6364,"1986":6365,"Ġbottom":6366,"Star":6367,"Ġdaily":6368,"Ġreact":6369,"ĠThen":6370,"anging":6371,"Ġimmig":6372,"ĠAz":6373,"Cont":6374,"Ġfifth":6375,"1921":6376,"gal":6377,"urance":6378,"Ġmovies":6379,"utt":6380,"Ġhumans":6381,"roup":6382,"kh":6383,"Ġcompar":6384,"come":6385,"Ġfle":6386,"ĠAM":6387,"Ġsupposed":6388,"Ġvolume":6389,"Ġsilver":6390,"Best":6391,"1911":6392,"ographer":6393,"Ġwrite":6394,"Ġclassical":6395,"ĠHand":6396,"Ġinhabitants":6397,"ĠPrim":6398,"Art":6399,"osm":6400,"ques":6401,"ĠMiller":6402,"icide":6403,"ĠDog":6404,"Ġgovernor":6405,"ĠManc":6406,"ĠMilitary":6407,"Ġcauses":6408,"ĠTelevision":6409,"Ġmetres":6410,"Ġmist":6411,"ĠFront":6412,"AL":6413,"ĠManagement":6414,"Ġtransferred":6415,"World":6416,"ortheast":6417,"ĠDor":6418,"uster":6419,"Ġcenturies":6420,"Ġlibrary":6421,"bra":6422,"Ġexisting":6423,"erved":6424,"Ġgra":6425,"Ġemp":6426,"olas":6427,"night":6428,"Ġformerly":6429,"ellite":6430,"Ġunable":6431,"una":6432,"Ġtall":6433,"ĠUt":6434,"Phil":6435,"ĠEngineering":6436,"Ġelev":6437,"Ġschem":6438,"Ġconducted":6439,"ulpt":6440,"ĠLev":6441,"Ġinspired":6442,"ception":6443,"Ġwing":6444,"ĠPhys":6445,"Ġstraight":6446,"othing":6447,"First":6448,"ĠWrit":6449,"ĠSky":6450,"Ġreflect":6451,"300":6452,"Ġce":6453,"Ġequal":6454,"Ġtrains":6455,"Ġlearning":6456,"uing":6457,"ante":6458,"ĠFr":6459,"Most":6460,"Ġpopularity":6461,"Ġgetting":6462,"Ġshall":6463,"jo":6464,"ĠUk":6465,"ĠHills":6466,"Ġrevolution":6467,"Ġestate":6468,"ĠCzech":6469,"Ġprofile":6470,"inals":6471,"ĠClark":6472,"ĠConservative":6473,"ĠShort":6474,"oyd":6475,"ĠQueens":6476,"Ġconnection":6477,"Ġ1918":6478,"Ġ1936":6479,"Ġusers":6480,"Ġwealth":6481,"anes":6482,"ĠAllen":6483,"western":6484,"allel":6485,"Ġapparently":6486,"Ġtechniques":6487,"Ġpair":6488,"pool":6489,"while":6490,"Ġlaunch":6491,"Ġaim":6492,"thew":6493,"Res":6494,"ĠNorway":6495,"Ġcouple":6496,"Co":6497,"ĠSab":6498,"Ġ....":6499,"Car":6500,"Ġchampion":6501,"roit":6502,"exual":6503,"ĠPict":6504,"Ġformation":6505,"ĠModern":6506,"Ġawards":6507,"Ġexamples":6508,"Ġimpact":6509,"ĠIndiana":6510,"ĠTemple":6511,"Ġlake":6512,"ĠDa":6513,"elve":6514,"Ġmoment":6515,"olt":6516,"ĠBuff":6517,"Ġexchange":6518,"Ġconvers":6519,"rell":6520,"emetery":6521,"Ġdigital":6522,"ĠKl":6523,"Sec":6524,"Many":6525,"Sm":6526,"Ġfile":6527,"Ġbrothers":6528,"ĠHamilton":6529,"ĠHistoric":6530,"ocals":6531,"Ġeyes":6532,"Ġmel":6533,"Ġclassic":6534,"Ġ1938":6535,"Ġburied":6536,"FC":6537,"ĠAh":6538,"Ġhockey":6539,"Ġprotection":6540,"ĠColorado":6541,"ĠAud":6542,"Ġideas":6543,"Ġsuggested":6544,"PC":6545,"ĠKat":6546,"Ġjoint":6547,"ser":6548,"Ġcontaining":6549,"ĠAlan":6550,"Ġskills":6551,"ĠCE":6552,"ĠSchools":6553,"Ġpilot":6554,"ĠVers":6555,"Ġexpanded":6556,"ĠKorean":6557,"akh":6558,"Ġroyal":6559,"Ġscale":6560,"ĠVillage":6561,"Ġprice":6562,"Ġnewly":6563,"Ġox":6564,"Ġstadium":6565,"Ġcopy":6566,"ban":6567,"regon":6568,"ses":6569,"aved":6570,"Ġhits":6571,"Ġhuge":6572,"ĠSu":6573,"lig":6574,"Par":6575,"Ġexclus":6576,"uzz":6577,"ĠMedia":6578,"Ġcerem":6579,"unications":6580,"Ġsynt":6581,"ĠHell":6582,"uters":6583,"Ġprotect":6584,"Michael":6585,"Ġneighborhood":6586,"ĠPear":6587,"ĠExpress":6588,"ĠLow":6589,"Ġairport":6590,"Inter":6591,"Ġhour":6592,"Ġorders":6593,"Ġattrib":6594,"__":6595,"ĠLincoln":6596,"porter":6597,"wich":6598,"ĠTrust":6599,"ĠImperial":6600,"Ġshowed":6601,"miral":6602,"Ġori":6603,"ĠBoys":6604,"mine":6605,"1985":6606,"Ġshortly":6607,"ĠJunior":6608,"Ġinvasion":6609,"ĠTransport":6610,"Ġalt":6611,"August":6612,"ĠDisney":6613,"bu":6614,"Ġapplications":6615,"Ġemphas":6616,"Ġsevent":6617,"uki":6618,"rations":6619,"115":6620,"ĠMelbourne":6621,"Ġconqu":6622,"ĠTennessee":6623,"Ġbought":6624,"ourney":6625,"Ġcompl":6626,"Ġwatch":6627,"ĠSquare":6628,"cow":6629,"ĠDragon":6630,"Ġreign":6631,"Ġ150":6632,"ĠBos":6633,"Ġdropped":6634,"Ġterror":6635,"odd":6636,"spe":6637,"Ġstores":6638,"soft":6639,"Ġglass":6640,"Ġpoll":6641,"ĠDave":6642,"Ġsignal":6643,"Ju":6644,"Ġgain":6645,"ĠNick":6646,"Ġchemical":6647,"March":6648,"Ġengines":6649,"Ġportray":6650,"Ġobtained":6651,"ĠWhe":6652,"United":6653,"Ġgeneration":6654,"1901":6655,"ĠAuthor":6656,"Ġshape":6657,"Ġtoward":6658,"ĠMarg":6659,"ĠLtd":6660,"Ġwinter":6661,"Ġthrow":6662,"ĠMaryland":6663,"Ġstandards":6664,"Ġnovels":6665,"ĠVietnam":6666,"ĠOcean":6667,"ĠEP":6668,"Ġflat":6669,"Ġstarring":6670,"Ġnickn":6671,"Ġtheore":6672,"Ġhall":6673,"ĠThough":6674,"cles":6675,"Ġlands":6676,"igious":6677,"oming":6678,"Ġintroduction":6679,"Ġindependence":6680,"Ġsemi":6681,"ĠAdam":6682,"Ġalleged":6683,"ĠAdv":6684,"Ġpros":6685,"etime":6686,"Ġsafety":6687,"ĠOak":6688,"orrow":6689,"ĠOp":6690,"lahoma":6691,"ĠAgain":6692,"ĠRaj":6693,"Ġexerc":6694,"Ġsubsequent":6695,"angel":6696,"ĠSon":6697,"Ġmotion":6698,"box":6699,"stic":6700,"Ġjur":6701,"osite":6702,"Ġpron":6703,"Ġidentity":6704,"ĠDouglas":6705,"ĠKhan":6706,"Ġarchitecture":6707,"iments":6708,"Ġhab":6709,"1984":6710,"Ġexpansion":6711,"ĠAustria":6712,"ĠEarly":6713,"ologies":6714,"ĠAmericans":6715,"Japan":6716,"endment":6717,"Ġmixed":6718,"Ġstands":6719,"ĠLast":6720,"Ġpromoted":6721,"Ġoccas":6722,"Ġformal":6723,"oli":6724,"leased":6725,"ĠNaval":6726,"ĠVice":6727,"Ġsave":6728,"Ġcausing":6729,"Ġrisk":6730,"ĠVis":6731,"ĠFe":6732,"ghan":6733,"enz":6734,"Ġvalues":6735,"Ġinternal":6736,"ĠTai":6737,"Ġaid":6738,"ĠVi":6739,"Orig":6740,"iller":6741,"ĠCre":6742,"orney":6743,"ĠFriend":6744,"hips":6745,"ĠStew":6746,"Ġanimal":6747,"ĠPrincess":6748,"inking":6749,"uties":6750,"Mr":6751,"lined":6752,"eler":6753,"thodox":6754,"ĠGreece":6755,"Ġtypical":6756,"lets":6757,"Ġcastle":6758,"Ġperformances":6759,"Ġchain":6760,"Ġload":6761,"Ġtranslation":6762,"ĠWW":6763,"Ġfashion":6764,"ĠJoh":6765,"aints":6766,"Back":6767,"ĠReb":6768,"Ġdefense":6769,"Ġitems":6770,"Ġpublication":6771,"ronze":6772,"cyclop":6773,"Ġexecutive":6774,"Ġsons":6775,"Ġtheatre":6776,"oles":6777,"Ġphr":6778,"ĠMedical":6779,"Ġvillages":6780,"set":6781,"Ġgirls":6782,"ĠElementary":6783,"who":6784,"ĠFame":6785,"Ġmulti":6786,"ĠKal":6787,"Ġending":6788,"Ġsynd":6789,"ublin":6790,"iang":6791,"ĠWell":6792,"after":6793,"Ġplane":6794,"ikh":6795,"ĠSerb":6796,"Ġfailure":6797,"aron":6798,"Ġstarts":6799,"Ġdraft":6800,"iamond":6801,"Ġunus":6802,"Ġguest":6803,"ĠFall":6804,"agu":6805,"Ġislands":6806,"Ġsecondary":6807,"ĠSecurity":6808,"Ġ1935":6809,"atur":6810,"Ġpaint":6811,"Ġtor":6812,"ĠDu":6813,"arks":6814,"unch":6815,"German":6816,"wealth":6817,"onna":6818,"isf":6819,"ige":6820,"ĠDiego":6821,"Ġjazz":6822,"1979":6823,"Ġfacility":6824,"Ġtrav":6825,"Ġ1937":6826,"ĠDur":6827,"Ġopera":6828,"ĠGordon":6829,"gressive":6830,"Ġpartner":6831,"ĠWorks":6832,"Ġimages":6833,"Ġanything":6834,"iva":6835,"Trans":6836,"ĠChildren":6837,"Ġhosted":6838,"Ġaired":6839,"Ant":6840,"oba":6841,"--------":6842,"Ġpicture":6843,"anges":6844,"Ġevolution":6845,"Ġreality":6846,"ĠSquadron":6847,"Ġagent":6848,"Ġagreement":6849,"Ġrom":6850,"Black":6851,"town":6852,"Ġwa":6853,"uled":6854,"Ġcontrast":6855,"nold":6856,"elson":6857,"including":6858,"rowd":6859,"inks":6860,"Cent":6861,"RO":6862,"ĠBrothers":6863,"ĠMoore":6864,"Ġincident":6865,"ĠWindows":6866,"ĠGard":6867,"eless":6868,"Ġnor":6869,"Ġgall":6870,"Ġ400":6871,"Ġperforming":6872,"aded":6873,"Ġdetermined":6874,"Ġcommander":6875,"Ġ42":6876,"Ġdistricts":6877,"III":6878,"Ġlooking":6879,"ĠHollywood":6880,"ĠIron":6881,"Ġidentified":6882,"Ġnarrow":6883,"owned":6884,"aro":6885,"ĠNY":6886,"Ġrh":6887,"Ġcontained":6888,"ĠBefore":6889,"Ġpoetry":6890,"ĠNich":6891,"120":6892,"agg":6893,"Ġdoor":6894,"ĠLog":6895,"Ġethnic":6896,"Ġholding":6897,"Ġvalley":6898,"Ġlimit":6899,"Ġarrested":6900,"Ġauthorities":6901,"rator":6902,"emies":6903,"Ġ1900":6904,"Ġcm":6905,"char":6906,"star":6907,"ocol":6908,"Ġcolle":6909,"Ġretire":6910,"Ġaccur":6911,"ĠBass":6912,"They":6913,"Ġuniverse":6914,"Ġopin":6915,"ĠSS":6916,"ĠMes":6917,"ĠCall":6918,"ĠPhilippines":6919,"Ġdisapp":6920,"Ġtower":6921,"otal":6922,"ista":6923,"ĠWinter":6924,"Ġtechnical":6925,"Ġclosely":6926,"Ġkingdom":6927,"ippi":6928,"ĠBuddh":6929,"Ġcas":6930,"uma":6931,"ordan":6932,"However":6933,"Ġdriver":6934,"acc":6935,"inth":6936,"acent":6937,"Har":6938,"TA":6939,"Ġstream":6940,"USA":6941,"Ġhistoric":6942,"ĠDick":6943,"ĠBuilding":6944,"Ġcombination":6945,"Min":6946,"ĠMit":6947,"Ġdegrees":6948,"Ġpup":6949,"Ġrespectively":6950,"Ġrecomm":6951,"Ġsequence":6952,"ashi":6953,"li":6954,"roke":6955,"Sw":6956,"Ġcapable":6957,"Ġeye":6958,"ĠPok":6959,"angers":6960,"Ġtrust":6961,"Ġinstance":6962,"ĠPortuguese":6963,"October":6964,"Ġparish":6965,"Ġinfluenced":6966,"risis":6967,"Mon":6968,"ĠConst":6969,"118":6970,"present":6971,"IV":6972,"rett":6973,"Ġracing":6974,"arsh":6975,"Ġadvantage":6976,"ĠMember":6977,"active":6978,"ĠHamp":6979,"Ġevil":6980,"Ġadvance":6981,"ĠHere":6982,"obe":6983,"1983":6984,"ĠLinks":6985,"ĠKentucky":6986,"ĠManchester":6987,"130":6988,"Ġdoctor":6989,"Ġabandoned":6990,"Ġacid":6991,"hr":6992,"ifications":6993,"Ġ39":6994,"Ġviews":6995,"ĠNFL":6996,"pha":6997,"ĠAli":6998,"Ġinstruct":6999,"Ġprefer":7000,"ailing":7001,"Ġ1933":7002,"Ġcorpor":7003,"Ġax":7004,"Ġrich":7005,"Ġauth":7006,"porters":7007,"iley":7008,"ĠHug":7009,"Ġelement":7010,"Ġrural":7011,"Ġprepar":7012,"ĠPatrick":7013,"ĠHu":7014,"Ġassistant":7015,"iants":7016,"ĠSciences":7017,"ĠThird":7018,"ĠZh":7019,"anton":7020,"ĠJane":7021,"ĠKr":7022,"ĠStra":7023,"igen":7024,"Ġcontrolled":7025,"TS":7026,"ĠHawai":7027,"iami":7028,"Ġvir":7029,"ĠWalter":7030,"Ġtrees":7031,"hard":7032,"orf":7033,"urrently":7034,"Ġphen":7035,"rot":7036,"ĠRoc":7037,"Ġtechnique":7038,"Ġtemperature":7039,"unc":7040,"ĠArk":7041,"andom":7042,"ĠAC":7043,"borough":7044,"ĠRound":7045,"hammad":7046,"Ġdrums":7047,"itzerland":7048,"Ġfestival":7049,"Ġotherwise":7050,"Ġdoesn":7051,"ĠKings":7052,"atern":7053,"ĠJacob":7054,"umin":7055,"Ġturns":7056,"Ġhydro":7057,"ĠMrs":7058,"ĠLas":7059,"Ġheadquarters":7060,"wegian":7061,"ici":7062,"ĠBor":7063,"uration":7064,"ĠDeb":7065,"Ġbriefly":7066,"1861":7067,"1881":7068,"Ġelectronic":7069,"400":7070,"Ġprote":7071,"ĠBart":7072,"Ġcore":7073,"ĠLyn":7074,"burn":7075,"Sim":7076,"Ġunf":7077,"inf":7078,"Charles":7079,"Ġscript":7080,"usal":7081,"Ġtries":7082,"1970":7083,"AD":7084,"tainment":7085,"ĠDomin":7086,"ĠEvery":7087,"ĠBarn":7088,"oly":7089,"chers":7090,"po":7091,"ĠBible":7092,"aire":7093,"Ġreaction":7094,"Ġpolic":7095,"Ġentertain":7096,"Ġign":7097,"ek":7098,"Ġliterary":7099,"urricane":7100,"Ġdescribe":7101,"Ġgang":7102,"rings":7103,"Ġ1919":7104,"Ġinstitutions":7105,"asure":7106,"yles":7107,"%)":7108,"250":7109,"Ġcircum":7110,"ĠAlliance":7111,"Ġvert":7112,"ĠTreat":7113,"rizona":7114,"ĠMississ":7115,"Ġdiscip":7116,"Ġcontroversial":7117,"Ġshared":7118,"wen":7119,"Ġwins":7120,"AP":7121,"Ġofficials":7122,"ĠDance":7123,"Ġbiography":7124,"ĠHit":7125,"1982":7126,"Ġyellow":7127,"January":7128,"ardo":7129,"Ġtranslated":7130,"odge":7131,"1871":7132,"acle":7133,"Ġexplos":7134,"rane":7135,"olly":7136,"Ġaw":7137,"Ġspecifically":7138,"ĠOregon":7139,"Ġchance":7140,"such":7141,"apes":7142,"Ġincorporated":7143,"ĠAffairs":7144,"phone":7145,"Ġ1929":7146,"Ġlocations":7147,"ĠStaff":7148,"BM":7149,"ĠIslamic":7150,"ĠGener":7151,"allas":7152,"Ġbat":7153,"yard":7154,"ĠSeat":7155,"Ġ1917":7156,"icit":7157,"Ġdifference":7158,"Ġoccurs":7159,"ĠOnline":7160,"lan":7161,"Ġparticipated":7162,"Ġrear":7163,"Ġduty":7164,"aimed":7165,"fits":7166,"Ġheat":7167,"ĠLawrence":7168,"ieties":7169,"Ġsuccessfully":7170,"April":7171,"dr":7172,"Ġassass":7173,"Ġtemple":7174,"Ġven":7175,"Ġrespond":7176,"ĠRain":7177,"June":7178,"des":7179,"ĠCape":7180,"ĠJam":7181,"ĠOklahoma":7182,"ĠHouston":7183,"Ġdrop":7184,"ĠTower":7185,"Ġmerged":7186,"TC":7187,"Ġĉ":7188,"App":7189,"ĠPur":7190,"Ġham":7191,"Ġ1934":7192,"RC":7193,"ĠRegion":7194,"Int":7195,"September":7196,"Ġadapt":7197,"Ġconsequ":7198,"Ġpersons":7199,"Ġimportance":7200,"EE":7201,"Ġpositive":7202,"What":7203,"Ġhighway":7204,"ocracy":7205,"ectic":7206,"Ġweak":7207,"Ġsought":7208,"ĠDetroit":7209,"Ġpages":7210,"Ġconvent":7211,"ĠBaseball":7212,"Ġequivalent":7213,"ĠEag":7214,"ĠMoscow":7215,"erg":7216,"ĠBruce":7217,"Ġvary":7218,"phony":7219,"Ġconverted":7220,"ifer":7221,"Ġleads":7222,"ivals":7223,"ĠTa":7224,"eget":7225,"Ġsteel":7226,"Ġchalleng":7227,"Thomas":7228,"olph":7229,"ĠIndependent":7230,"Red":7231,"issance":7232,"Ġmassive":7233,"ĠYears":7234,"Ġrailroad":7235,"Ġreturning":7236,"IM":7237,"atus":7238,"Ġpione":7239,"ĠOrchestra":7240,"irmed":7241,"igg":7242,"Ġmanner":7243,"ushed":7244,"ĠMcG":7245,"ĠAmong":7246,"ĠNever":7247,"ĠBilly":7248,"ĠMix":7249,"iplom":7250,"erts":7251,"Ġnegot":7252,"Ġnone":7253,"Ġsolid":7254,"Ġcontroversy":7255,"Ġcopies":7256,"rac":7257,"ĠPeters":7258,"father":7259,"Ġlosing":7260,"Ġ75":7261,"Ġsun":7262,"ĠGh":7263,"Ġtitled":7264,"ĠGarden":7265,"Ġjournalist":7266,"Ġment":7267,"ographical":7268,"ĠFurther":7269,"UK":7270,"ĠBrand":7271,"keep":7272,"agen":7273,"Ġdefend":7274,"Ġbrain":7275,"zy":7276,"abama":7277,"Ġapart":7278,"Ġworth":7279,"ĠFinn":7280,"Ġsinging":7281,"ĠMalays":7282,"ĠRoger":7283,"ĠCommander":7284,"Another":7285,"uj":7286,"ĠExecutive":7287,"Ġdecades":7288,"Ġyards":7289,"Hen":7290,"Ġproperties":7291,"ĠAnthony":7292,"Ġgar":7293,"Ġoccupied":7294,"oj":7295,"epage":7296,"July":7297,"ĠHans":7298,"Cal":7299,"ĠCommonwealth":7300,"othes":7301,"Ġmaintained":7302,"Ġedge":7303,"Ġmessage":7304,"Ġrepeated":7305,"Ġproducing":7306,"angerous":7307,"ieval":7308,"Ġdescribes":7309,"Ġreputation":7310,"intend":7311,"mary":7312,"Ġille":7313,"ĠBan":7314,"ĠWeek":7315,"ĠRoberts":7316,"Ġvent":7317,"Ġthousands":7318,"lock":7319,"udden":7320,"Bob":7321,"ĠLiter":7322,"Ġconstant":7323,"Ġcaptain":7324,"ĠWy":7325,"These":7326,"Ġinterests":7327,"Ġoffices":7328,"Ġwriters":7329,"FM":7330,"ĠEncyclop":7331,"ĠOnce":7332,"aug":7333,"Ġbroken":7334,"Ġkid":7335,"Ġstrike":7336,"Ġbodies":7337,"Ġflu":7338,"1978":7339,"ĠPeace":7340,"ocese":7341,"Ġflying":7342,"Ġtask":7343,"ĠTan":7344,"ĠThrough":7345,"ĠCru":7346,"Ġsculpt":7347,"ĠRegional":7348,"Part":7349,"Ġelimin":7350,"Ġbillion":7351,"Ġ48":7352,"ĠGet":7353,"Ġfounding":7354,"ĠMess":7355,"Ġmaximum":7356,"ication":7357,"Ġemployed":7358,"Ġopposite":7359,"iner":7360,"Ġmusicians":7361,"Ġdeveloping":7362,"Ġdies":7363,"Ġfly":7364,"lease":7365,"ni":7366,"ĠCommunist":7367,"ĠPlace":7368,"Ġadult":7369,"ĠGuitar":7370,"gency":7371,"ĠCra":7372,"'ll":7373,"ĠLuther":7374,"Ġruled":7375,"Ġstructures":7376,"veland":7377,"ĠLieutenant":7378,"Ġago":7379,"ĠTurkish":7380,"ĠMexican":7381,"Ġselect":7382,"Ġlaid":7383,"Ġsoul":7384,"ĠForeign":7385,"Ġinterpret":7386,"ĠHarris":7387,"ĠLanc":7388,"ĠNev":7389,"Biography":7390,"ĠCow":7391,"Ġrequires":7392,"ĠEntertainment":7393,"long":7394,"Ġtank":7395,"orus":7396,"Ġaccompl":7397,"Ġinform":7398,"ovak":7399,"Ġintelligence":7400,"Ġdeploy":7401,"oves":7402,"ĠBuck":7403,"IP":7404,"power":7405,"ĠCrit":7406,"rates":7407,"Ġvisited":7408,"ĠKa":7409,"aux":7410,"icts":7411,"related":7412,"ictionary":7413,"oom":7414,"ocation":7415,"Richard":7416,"Ġcrown":7417,"Ġuseful":7418,"Ġwarn":7419,"Ġfreedom":7420,"ĠAfghan":7421,"December":7422,"Ġarmed":7423,"aman":7424,"Ġremember":7425,"ĠImp":7426,"Ġboys":7427,"umi":7428,"Ġsubstant":7429,"Ġmode":7430,"Ġsell":7431,"ĠLegisl":7432,"ĠMinistry":7433,"Ġnormally":7434,"eland":7435,"Ġpermanent":7436,"Ġworldwide":7437,"Ġ1932":7438,"ĠBird":7439,"Ġresistance":7440,"sky":7441,"ĠFleet":7442,"ĠHop":7443,"ĠJay":7444,"oa":7445,"ĠJohnny":7446,"point":7447,"rons":7448,"San":7449,"Ġmouth":7450,"rea":7451,"Ġthing":7452,"Ġwave":7453,"stances":7454,"ĠLar":7455,"ĠSym":7456,"Ġsort":7457,"Ġregarding":7458,"ĠMontreal":7459,"ateur":7460,"marine":7461,"Tom":7462,"uble":7463,"Ġexists":7464,"Ġkeyboard":7465,"ĠErn":7466,"Ġedited":7467,"Ġ1922":7468,"Ġinstitution":7469,"ĠCost":7470,"Ġpassing":7471,"sch":7472,"ĠVar":7473,"Ġmyster":7474,"Ġaccompan":7475,"Ġparallel":7476,"Ġanime":7477,"Ġtell":7478,"ĠFrederick":7479,"Ġgenus":7480,"illery":7481,"Over":7482,"Ġdesignated":7483,"Em":7484,"Ġadministrative":7485,"Ġscenes":7486,"Sing":7487,"ĠBiography":7488,"mosp":7489,"SC":7490,"Ġ1914":7491,"Ġoccasionally":7492,"unnel":7493,"lad":7494,"Ġweather":7495,"official":7496,"ĠDublin":7497,"ĠBou":7498,"ĠBowl":7499,"ĠLouisiana":7500,"ĠPuerto":7501,"ĠIowa":7502,"ĠMind":7503,"ĠChairman":7504,"Ġkg":7505,"ĠBlood":7506,"ĠSus":7507,"Ġmig":7508,"rip":7509,"ĠMatt":7510,"Ġfavour":7511,"ĠVideo":7512,"imore":7513,"Ġarran":7514,"150":7515,"ĠHorn":7516,"Ġquestions":7517,"Ġclean":7518,"Pat":7519,"aza":7520,"ĠInfantry":7521,"Ġexcell":7522,"ĠRick":7523,"Ġcaught":7524,"Pe":7525,"DP":7526,"Ġdrawn":7527,"Ġstrip":7528,"ĠLocal":7529,"1977":7530,"Ġguns":7531,"Ġpurposes":7532,"Ġstanding":7533,"Ġplanning":7534,"ĠTrad":7535,"Ġalongside":7536,"Ġeasy":7537,"Ġflood":7538,"Ġastron":7539,"Ġdrama":7540,"iko":7541,"enh":7542,"ĠMeg":7543,"ĠGuy":7544,"ĠBomb":7545,"Ġbattles":7546,"Ġboat":7547,"ersonal":7548,"ĠCook":7549,"roc":7550,"ĠIl":7551,"Ġcorner":7552,"ĠForces":7553,"Ġeducational":7554,"Ġmart":7555,"Ġconference":7556,"Ac":7557,"Ġdates":7558,"November":7559,"anned":7560,"Ġ1928":7561,"Ġ1931":7562,"Ġobtain":7563,"ructure":7564,"Ġprime":7565,"resents":7566,"Mark":7567,"ĠLeb":7568,"ĠSamuel":7569,"ocratic":7570,"Ang":7571,"140":7572,"Ġassociation":7573,"html":7574,"Ġbiggest":7575,"insula":7576,"spec":7577,"ĠMississippi":7578,"ĠOfficer":7579,"ĠFil":7580,"ĠArizona":7581,"Ġdream":7582,"Ġkick":7583,"ooth":7584,"Ġsand":7585,"inian":7586,"ĠKarl":7587,"Ġappropri":7588,"Ġcheck":7589,"ĠProduct":7590,"ogether":7591,"ĠFarm":7592,"ĠJimmy":7593,"ĠFollowing":7594,"King":7595,"ĠAdams":7596,"vements":7597,"Ġconsiderable":7598,"ĠFather":7599,"iah":7600,"vo":7601,"Ġbond":7602,"Ġlect":7603,"ĠFive":7604,"Ġshowing":7605,"ensis":7606,"uous":7607,"ĠGram":7608,"ecticut":7609,"sters":7610,"ĠHeb":7611,"okes":7612,"olo":7613,"Ġattached":7614,"Ġperfect":7615,"Ġ49":7616,"orage":7617,"icians":7618,"ĠSwitzerland":7619,"Ġmeters":7620,"ĠMatthew":7621,"Ġdivers":7622,"Ġoperate":7623,"apolis":7624,"ĠMission":7625,"ĠTokyo":7626,"engers":7627,"Ġcriminal":7628,"isd":7629,"ĠHockey":7630,"ĠPsych":7631,"Ġopportunity":7632,"Ġbra":7633,"ompson":7634,"Ġbehavior":7635,"ĠAbd":7636,"Ġoperates":7637,"aste":7638,"ĠRecord":7639,"Dan":7640,"Ġaudio":7641,"ĠHarvard":7642,"ĠDenmark":7643,"ĠReport":7644,"Ġfine":7645,"Ġproced":7646,"ĠGulf":7647,"Ġswim":7648,"Ġ1924":7649,"Peter":7650,"place":7651,"called":7652,"ĠBah":7653,"Ġlearned":7654,"ĠChem":7655,"Ġ41":7656,"ĠLost":7657,"Two":7658,"ĠClin":7659,"Ġultimately":7660,"ĠAirlines":7661,"Ġstatement":7662,"Ġwitness":7663,"How":7664,"rent":7665,"AA":7666,"Ġchurches":7667,"Ġinstruments":7668,"Ġwalls":7669,"ĠKit":7670,"Ġdefinition":7671,"ĠStewart":7672,"ĠWing":7673,"Ġearliest":7674,"Ġpasses":7675,"Mart":7676,"Ġcapture":7677,"ĠAnne":7678,"rik":7679,"Ġuniform":7680,"Ġnations":7681,"scape":7682,"ĠSel":7683,"ĠKennedy":7684,"Ġgraduate":7685,"ĠKam":7686,"ĠMcK":7687,"hetic":7688,"ĠGab":7689,"ĠHotel":7690,"ĠPhill":7691,"Ġchairman":7692,"Ġdebate":7693,"pass":7694,"ĠPalest":7695,"enses":7696,"Ev":7697,"ĠABC":7698,"Ġprogramme":7699,"ĠEver":7700,"ĠDefense":7701,"Ġrepresents":7702,"ĠNorwegian":7703,"Sir":7704,"ĠTurkey":7705,"uri":7706,"Ġcontext":7707,"Ġborough":7708,"ĠTerrit":7709,"1976":7710,"Ġcontributed":7711,"ucks":7712,"ĠCooper":7713,"har":7714,"iga":7715,"icon":7716,"ĠFC":7717,"Ġsurre":7718,"Ġda":7719,"Ġexception":7720,"ĠKnow":7721,"Mc":7722,"DF":7723,"Ġspiritual":7724,"ĠFac":7725,"ĠOm":7726,"Ġ1927":7727,"Ġinters":7728,"ĠMand":7729,"Ġskin":7730,"ellect":7731,"ĠMiami":7732,"idel":7733,"Ġmayor":7734,"ĠEdition":7735,"ĠMountains":7736,"dam":7737,"ĠĠĠĠĠĠĠĠĠĠĠĠĠĠĠĠĠĠĠĠĠĠĠĠĠĠĠĠĠĠĠĠ":7738,"ĠKevin":7739,"Ġcritics":7740,"Ġphase":7741,"Ġglobal":7742,"Jos":7743,"ossible":7744,"Spec":7745,"Ġcricket":7746,"ĠRa":7747,"Ġmedium":7748,"Ġtruth":7749,"ĠCrown":7750,"ester":7751,"ĠNA":7752,"ĠAlabama":7753,"ibliography":7754,"Ġtrained":7755,"ĠAthlet":7756,"Ġdesigns":7757,"low":7758,"Ġdescription":7759,"ĠStorm":7760,"ĠHampshire":7761,"Ep":7762,"ĠMunicip":7763,"1975":7764,"ĠRussell":7765,"Ġdepend":7766,"ĠSpirit":7767,"ĠHonor":7768,"Ġcancer":7769,"Ġbed":7770,"109":7771,"grey":7772,"ĠCass":7773,"Ġ1921":7774,"avig":7775,"Ġmolec":7776,"Ġdevices":7777,"Ġeverything":7778,"Ġroutes":7779,"ando":7780,"ĠSoul":7781,"ĠGallery":7782,"tery":7783,"Ġdescend":7784,"600":7785,"div":7786,"Music":7787,"inations":7788,"luded":7789,"then":7790,"Ġfear":7791,"Ġaspects":7792,"ĠRepresentatives":7793,"plete":7794,"ĠNa":7795,"Ġsolution":7796,"Ġexped":7797,"Ġopponent":7798,"ĠElectric":7799,"ussion":7800,"Europe":7801,"Ġathlet":7802,"Ġfixed":7803,"ivate":7804,"High":7805,"eo":7806,"inction":7807,"raine":7808,"ĠGrant":7809,"ili":7810,"Ġcrowd":7811,"orton":7812,"forc":7813,"Ġsurvived":7814,"Ġbeautiful":7815,"Ġsole":7816,"asp":7817,"Ġarrang":7818,"Ġancest":7819,"ĠChampion":7820,"eta":7821,"ĠGri":7822,"Ġcommissioned":7823,"Ġgone":7824,"ĠSatur":7825,"ĠSac":7826,"Ġjudge":7827,"Ġshut":7828,"Ġregularly":7829,"Ġfresh":7830,"udget":7831,"je":7832,"Ġoutput":7833,"ĠMall":7834,"Ġcold":7835,"Ġeducated":7836,"Ġgreatly":7837,"atically":7838,"Ġsections":7839,"Ġpainting":7840,"Ġdifferences":7841,"Ġrepresenting":7842,"Ġsubjects":7843,"Ġlocomot":7844,"ho":7845,"Ġstrateg":7846,"Ġexperi":7847,"ymn":7848,"din":7849,"ĠAlbum":7850,"ĠFranklin":7851,"comm":7852,"ogen":7853,"ĠKnight":7854,"iday":7855,"Ġspeak":7856,"Ġdowntown":7857,"otte":7858,"ĠSaturday":7859,"Ġengaged":7860,"Ġrecognition":7861,"Ġpure":7862,"asa":7863,"Ġconsisting":7864,"Sch":7865,"ĠGib":7866,"ski":7867,"Sam":7868,"Ġappeal":7869,"Ġmerch":7870,"asters":7871,"ĠSoft":7872,"rete":7873,"Ġ1925":7874,"going":7875,"yan":7876,"Reg":7877,"MP":7878,"rock":7879,"adi":7880,"equ":7881,"ĠSystems":7882,"Ġpra":7883,"ĠPortugal":7884,"Ġassumed":7885,"ĠDak":7886,"Ġmile":7887,"ĠCode":7888,"Ġuniversities":7889,"ortunately":7890,"itionally":7891,"ĠBry":7892,"Ġnominated":7893,"Ġguitarist":7894,"ĠDJ":7895,"ĠArgentina":7896,"Ġengineer":7897,"Ġselling":7898,"amental":7899,"anch":7900,"ĠSax":7901,"ĠTrade":7902,"olished":7903,"Play":7904,"ĠSet":7905,"Ġinstall":7906,"800":7907,"rystal":7908,"gate":7909,"ĠHistorical":7910,"Ġmoves":7911,"ĠRow":7912,"Ġmagic":7913,"Ġstring":7914,"Ġphenomen":7915,"Port":7916,"Ġcourses":7917,"So":7918,"Ġtwelve":7919,"ĠBattalion":7920,"Ġbill":7921,"ĠJordan":7922,"hop":7923,"Ġhill":7924,"Ġpainter":7925,"Ġpeak":7926,"Sources":7927,"Ġflo":7928,"Ġ1926":7929,"Ġ1910":7930,"ouver":7931,"world":7932,"Ġtail":7933,"ĠPalace":7934,"Ġsupporting":7935,"Ġsurvey":7936,"orig":7937,"elsh":7938,"ĠConvention":7939,"jan":7940,"Ġtact":7941,"Ġinvolving":7942,"ften":7943,"Ġcert":7944,"top":7945,"Ġwheel":7946,"ĠBull":7947,"ĠDest":7948,"ĠEuro":7949,"eenth":7950,"Ġegg":7951,"ĠGirls":7952,"ĠOrthodox":7953,"Ġunusual":7954,"cription":7955,"ĠNik":7956,"ĠCroat":7957,"Ġvast":7958,"ĠPap":7959,"Ġeveryone":7960,"ĠMars":7961,"Ġdomestic":7962,"Ġcharged":7963,"body":7964,"Ġmir":7965,"Ġroughly":7966,"Ġconsult":7967,"Ġcatch":7968,"Ġenemies":7969,"Ġban":7970,"ducing":7971,"ĠLiver":7972,"Ġ43":7973,"Ġhear":7974,"Ġanimated":7975,"Ġrelative":7976,"Ġintern":7977,"Ġtrip":7978,"Donald":7979,"Ġwaters":7980,"ĠSeason":7981,"Ġjun":7982,"archy":7983,"ĠMetro":7984,"February":7985,"iece":7986,"ĠConnecticut":7987,"overs":7988,"atin":7989,"Ġutil":7990,"lete":7991,"rypt":7992,"ĠNag":7993,"1974":7994,"oons":7995,"Ġwrong":7996,"chell":7997,"Ġrecip":7998,"ture":7999,"Ġresigned":8000,"ĠMond":8001,"Major":8002,"East":8003,"bi":8004,"Ġdriving":8005,"ĠFinland":8006,"Ġvide":8007,"ĠFal":8008,"oda":8009,"ĠWard":8010,"ĠPitts":8011,"Ġ1923":8012,"Ġprovincial":8013,"Ġcommitted":8014,"away":8015,"amps":8016,"Ġreceiving":8017,"Ġreplace":8018,"bridge":8019,"EL":8020,"istant":8021,"ĠAtlanta":8022,"125":8023,"leans":8024,"pa":8025,"ĠJuan":8026,"Ġspoken":8027,"Ġrein":8028,"ĠGun":8029,"Ġster":8030,"ĠAnc":8031,"bal":8032,"Ġrend":8033,"ooking":8034,"ĠCampbell":8035,"ĠMarket":8036,"leton":8037,"ridges":8038,"Ġpoly":8039,"oshi":8040,"Ġbroadc":8041,"Ġeat":8042,"ashed":8043,"Ġliqu":8044,"ĠNorman":8045,"Ġbirds":8046,"Ġcommittee":8047,"Austral":8048,"eron":8049,"Ġhappened":8050,"Ġargued":8051,"Ġpassenger":8052,"Ġ55":8053,"bass":8054,"ĠCart":8055,"Ġviolence":8056,"cha":8057,"ĠAlexand":8058,"Ġhotel":8059,"Ġ120":8060,"BI":8061,"ĠIsraeli":8062,"ĠYan":8063,"Ġmountains":8064,"Ġdistributed":8065,"Ġseconds":8066,"Ġbuy":8067,"Ġfilled":8068,"Ġfinish":8069,"Ġfram":8070,"Ġinvent":8071,"aware":8072,"119":8073,"bat":8074,"ĠDal":8075,"ĠScient":8076,"Ġfired":8077,"di":8078,"Ġteach":8079,"mingham":8080,"Ġdetermine":8081,"Cap":8082,"casting":8083,"Ġasks":8084,"uda":8085,"ĠEnt":8086,"Cast":8087,"Ġjump":8088,"iper":8089,"ĠBed":8090,"Ġconsisted":8091,"bishop":8092,"ĠLang":8093,"ĠJess":8094,"Ġcriticism":8095,"ED":8096,"osure":8097,"Ġrum":8098,"Ġabsor":8099,"ĠSri":8100,"ĠFalls":8101,"Ġcharges":8102,"reedom":8103,"iop":8104,"rating":8105,"Ġpromote":8106,"master":8107,"vey":8108,"ĠVinc":8109,"Ġcous":8110,"2007":8111,"ĠComputer":8112,"Ġvolunte":8113,"ĠCatal":8114,"Ġaware":8115,"Ġalco":8116,"ilst":8117,"ĠTol":8118,"Ġnegative":8119,"Ġcool":8120,"Ġ95":8121,"Ġphone":8122,"Ġdiscussion":8123,"ĠConfeder":8124,"ĠRights":8125,"gery":8126,"ĠControl":8127,"ĠCleveland":8128,"ĠSeven":8129,"ĠDallas":8130,"ĠSeattle":8131,"Ġreturns":8132,"Ġteen":8133,"ĠPrincip":8134,"ĠOur":8135,"ĠDean":8136,"Ġhomes":8137,"iler":8138,"Ġmort":8139,"ĠVolume":8140,"1973":8141,"ĠGi":8142,"icket":8143,"fare":8144,"Ġdry":8145,"Ġalign":8146,"ĠHum":8147,"Ġdocuments":8148,"Ġpictures":8149,"ĠWrestling":8150,"oving":8151,"Ġdestruction":8152,"ĠAssoci":8153,"coming":8154,"Ġpublisher":8155,"ubb":8156,"ĠCarter":8157,"abet":8158,"ighters":8159,"ĠAdmiral":8160,"seud":8161,"Ġ98":8162,"Ġpropos":8163,"Ġgrade":8164,"ĠAntonio":8165,"Ġexternal":8166,"International":8167,"Ġupd":8168,"ĠMethod":8169,"ĠAdministration":8170,"ĠChristopher":8171,"oca":8172,"Ġsleep":8173,"Ġclearly":8174,"ĠJose":8175,"Ġfalls":8176,"auc":8177,"CS":8178,"vant":8179,"Ġunderground":8180,"ythm":8181,"ĠDanish":8182,"Ġmembership":8183,"elli":8184,"English":8185,"Ġanth":8186,"Ġimprove":8187,"wall":8188,"ĠNHL":8189,"Ġbreed":8190,"osopher":8191,"ML":8192,"Ġreleases":8193,"Ġclimb":8194,"Ġ47":8195,"annon":8196,"Ġroads":8197,"Ġcategory":8198,"ĠVocals":8199,"uto":8200,"Ġstret":8201,"ĠMayor":8202,"pm":8203,"ĠMorris":8204,"level":8205,"Ġrecordings":8206,"Reference":8207,"ĠRey":8208,"Ġelse":8209,"Ġsquad":8210,"Ġadap":8211,"Ġimproved":8212,"Ġanyone":8213,"fish":8214,"Ġunderstanding":8215,"ĠTak":8216,"Ġobvious":8217,"Ġstreets":8218,"inburgh":8219,"Ġcycle":8220,"ĠBlues":8221,"Mil":8222,"ĠGary":8223,"pping":8224,"Ġimag":8225,"Ġamongst":8226,"ĠSeveral":8227,"Ġcredited":8228,"ĠEmer":8229,"Ġpatients":8230,"Ġfil":8231,"Ġaccused":8232,"heastern":8233,"ĠBroadway":8234,"ĠPa":8235,"raham":8236,"agues":8237,"acon":8238,"Ġliberal":8239,"Rel":8240,"Ġduties":8241,"ĠFund":8242,"exts":8243,"isp":8244,"ĠIndones":8245,"ĠBelgium":8246,"Ġphrase":8247,"atherine":8248,"%.":8249,"gie":8250,"Ġ52":8251,"Ġpreced":8252,"ĠOrleans":8253,"Alex":8254,"ĠMorgan":8255,"Ġscheduled":8256,"Ġpersonality":8257,"Ġexpressed":8258,"Ġacres":8259,"\");":8260,"ĠMarvel":8261,"Ġenh":8262,"mers":8263,"UN":8264,"Ġ1912":8265,"Ġatmosp":8266,"ĠThompson":8267,"ĠAlfred":8268,"ĠYouth":8269,"bird":8270,"ĠDom":8271,"ĠIns":8272,"GA":8273,"Ġgrown":8274,"uru":8275,"ĠOperation":8276,"eton":8277,"riel":8278,"Ġinterested":8279,"comp":8280,"merce":8281,"ancer":8282,"Ġmovements":8283,"ags":8284,"Ġ1915":8285,"ĠRap":8286,"Ġcosts":8287,"Ġsan":8288,"Ġstopped":8289,"Ġincreasingly":8290,"1972":8291,"Ġrebu":8292,"Ġneut":8293,"Ġcommunication":8294,"otional":8295,"Ġfrequency":8296,"ĠPed":8297,"Ġwor":8298,"Jim":8299,"Ġgrounds":8300,"Ġrow":8301,"Ġ1916":8302,"ĠPas":8303,"Ġreduce":8304,"oga":8305,"Ġheaded":8306,"ĠRub":8307,"ĠKelly":8308,"ĠSenior":8309,"athy":8310,"ĠHas":8311,"ĠNelson":8312,"Ġinjury":8313,"ĠLaure":8314,"Comp":8315,"ancouver":8316,"uy":8317,"ĠLanguage":8318,"Ġprofession":8319,"Ass":8320,"Ġjurisd":8321,"Ġenvironmental":8322,"Ġarc":8323,"108":8324,"Ġsevere":8325,"ĠVienna":8326,"orous":8327,"Ġnorthwest":8328,"Ġmeets":8329,"ĠMovement":8330,"Ġur":8331,"Ġ46":8332,"rehens":8333,"ĠNation":8334,"ĠArmen":8335,"Ġadvoc":8336,"Ġgiant":8337,"Ġwants":8338,"Ġthrone":8339,"Ġinfluential":8340,"Ġretirement":8341,"ĠMicrosoft":8342,"hus":8343,"ĠBond":8344,"orp":8345,"ĠFried":8346,"ĠGran":8347,"Ġdocumentary":8348,"106":8349,"ĠDue":8350,"Ġscoring":8351,"Ġbear":8352,"129":8353,"107":8354,"Pre":8355,"Ġ1911":8356,"Ġestablishment":8357,"ĠPublishing":8358,"128":8359,"egas":8360,"oenix":8361,"ĠSenator":8362,"oslav":8363,"raction":8364,"ĠFull":8365,"fire":8366,"139":8367,"ĠBapt":8368,"Ġpersonnel":8369,"Ġdiplom":8370,"Russ":8371,"Ġwars":8372,"Ġseparated":8373,"Ġappoint":8374,"Frank":8375,"Ġnortheast":8376,"ĠBaltimore":8377,"ulus":8378,"ĠMaj":8379,"Ġfactor":8380,"Ġgoods":8381,"Ġpric":8382,"ĠTaiwan":8383,"Ġchose":8384,"Med":8385,"ĠStandard":8386,"Ġcompeted":8387,"ĠRyan":8388,"Ġplus":8389,"dy":8390,"Ġfactory":8391,"Ġselection":8392,"Ġbran":8393,"Ġsuggests":8394,"DA":8395,"Ġisol":8396,"ĠNeb":8397,"Ġchoose":8398,"ĠGrey":8399,"Following":8400,"ĠLl":8401,"aser":8402,"ĠEs":8403,"Main":8404,"Ġcandidates":8405,"Ġcolour":8406,"ĠMembers":8407,"aze":8408,"ĠLam":8409,"Ġcamera":8410,"Ġtransform":8411,"mat":8412,"Ġcomposition":8413,"bow":8414,"Ġknew":8415,"ĠAle":8416,"ĠIan":8417,"non":8418,"Ġstrongly":8419,"Brit":8420,"ĠKer":8421,"do":8422,"Ġcycl":8423,"ĠMother":8424,"Ġdemand":8425,"Ġcarrying":8426,"Ġconfirmed":8427,"hand":8428,"ĠWalker":8429,"ĠRing":8430,"Ġachieve":8431,"ĠVI":8432,"ĠChamber":8433,"ĠPir":8434,"Ġ99":8435,"folk":8436,"ĠStanley":8437,"Ġdecor":8438,"Ġcoordin":8439,"antine":8440,"Ġrepresentative":8441,"Ġwounded":8442,"Ġunderstand":8443,"ĠPeak":8444,"Ġdecade":8445,"Mal":8446,"Ġrif":8447,"ĠMagic":8448,"ĠMaur":8449,"Lou":8450,"Ġinnov":8451,"enez":8452,"Ġpoem":8453,"ido":8454,"ĠEqu":8455,"Ġsnow":8456,"Ġcatal":8457,"ĠMarshall":8458,"Ġcourts":8459,"raf":8460,"Ġadmitted":8461,"ĠSin":8462,"ĠOrange":8463,"1969":8464,"Ġshell":8465,"ĠSign":8466,"Note":8467,"Ġentrance":8468,"Ġprinciple":8469,"ĠRest":8470,"using":8471,"Ġreaching":8472,"Ġimprison":8473,"Ġstrict":8474,"ĠTel":8475,"Ġsuccessor":8476,"ĠPersian":8477,"Ġcomed":8478,"usalem":8479,"Ġhabit":8480,"Ġextension":8481,"ĠUlt":8482,"ĠJohann":8483,"Ġcredit":8484,"Ġhistorian":8485,"105":8486,"Ġru":8487,"Ġ).":8488,"ĠNon":8489,"ĠExt":8490,"Ġrapidly":8491,"fall":8492,"ĠChron":8493,"ĠContin":8494,"Ġloyal":8495,"Ġsees":8496,"Ġmodified":8497,"andal":8498,"ĠBarry":8499,"ĠCemetery":8500,"Ġanch":8501,"Ġfactors":8502,"Ġdangerous":8503,"Ġassault":8504,"ĠInn":8505,"rak":8506,"ĠKy":8507,"1968":8508,"ĠKu":8509,"cell":8510,"ĠLane":8511,"ĠCulture":8512,"jamin":8513,"Ġtopics":8514,"Ġsuicide":8515,"ĠEncyclopedia":8516,"ĠShip":8517,"Ġemployees":8518,"Lit":8519,"Ġsteam":8520,"ĠWayne":8521,"Ġfunds":8522,"ĠNBA":8523,"Ġdispl":8524,"ameter":8525,"lie":8526,"unes":8527,"ocked":8528,"ĠMotor":8529,"Ġcooper":8530,"aku":8531,"Ġnaval":8532,"Ġsudden":8533,"ultan":8534,"ĠFrid":8535,"Ġemperor":8536,"Ġpromotion":8537,"avalry":8538,"Ġlooks":8539,"ĠMovie":8540,"emen":8541,"ĠAustin":8542,"Ġgrid":8543,"ĠChile":8544,"estyle":8545,"Ġgay":8546,"Rock":8547,"Ġsubsid":8548,"OL":8549,"ĠKaz":8550,"izer":8551,"Ġdepending":8552,"Ġborders":8553,"icop":8554,"Ġremark":8555,"Ġsixth":8556,"ĠDynasty":8557,"Ġlinked":8558,"Ġbishop":8559,"ĠNE":8560,"Ġextreme":8561,"'ve":8562,"gow":8563,"oria":8564,"ĠHungary":8565,"Hz":8566,"iph":8567,"Ġcable":8568,"Ġexisted":8569,"Ġ59":8570,"atures":8571,"apping":8572,"greg":8573,"Ġwidth":8574,"Ġfoundation":8575,"Ġpublications":8576,"Ġdistinguished":8577,"Ġannounc":8578,"Ġphotograph":8579,"bach":8580,"Br":8581,"ĠDaily":8582,"Ġprint":8583,"ĠConstant":8584,"Ġ51":8585,"Ġprepared":8586,"Ġrejected":8587,"ĠCanal":8588,"DS":8589,"Ġeffectively":8590,"Ġcomponents":8591,"Ġsimpl":8592,"ĠPremier":8593,"ĠHindu":8594,"endar":8595,"Ġped":8596,"ithm":8597,"Ġgrav":8598,"ĠCBS":8599,"ĠSte":8600,"University":8601,"Ġinher":8602,"Ġcharts":8603,"Ġpolicies":8604,"oni":8605,"Ġ97":8606,"ĠProp":8607,"Ġfal":8608,"edding":8609,"Time":8610,"Up":8611,"ducer":8612,"ĠModel":8613,"roduction":8614,"ĠFood":8615,"achelor":8616,"gets":8617,"ĠProm":8618,"ĠLiving":8619,"Ġconstituency":8620,"Ġpriest":8621,"Ġheads":8622,"Ġski":8623,"Ġpool":8624,"ondo":8625,"ĠPhot":8626,"ĠHend":8627,"Ġconvinc":8628,"iversary":8629,"Ġprotest":8630,"Ġstarred":8631,"Ġadjacent":8632,"ĠZone":8633,"ĠSaf":8634,"Ġspeaking":8635,"ĠDonald":8636,"Ġvisual":8637,"Ġextent":8638,"Ġoverl":8639,"ĠMetropolitan":8640,"sm":8641,"ĠFel":8642,"Ġresponsibility":8643,"Ġaer":8644,"Ġrarely":8645,"lon":8646,"ĠIce":8647,"HS":8648,"obb":8649,"ĠRangers":8650,"know":8651,"zz":8652,"138":8653,"Ġarrival":8654,"Ġexpression":8655,"1960":8656,"Ġmathematics":8657,"rity":8658,"pop":8659,"yst":8660,"alph":8661,"ĠRobinson":8662,"hew":8663,"Ġsoldier":8664,"Ġswitch":8665,"Ġresear":8666,"Ġconservative":8667,"WA":8668,"Ġlanding":8669,"ubs":8670,"Ġfiles":8671,"orses":8672,"Big":8673,"Ġabilities":8674,"mund":8675,"kee":8676,"Ġ96":8677,"Ġsouthwest":8678,"Ġbrown":8679,"ĠUpper":8680,"hu":8681,"IL":8682,"pir":8683,"ĠBernard":8684,"Ġeth":8685,"ĠJerry":8686,"ĠTele":8687,"wers":8688,"Ġcalling":8689,"Ġaccompanied":8690,"oro":8691,"Ġcartoon":8692,"Ġsale":8693,"ĠTam":8694,"Ġpurchase":8695,"Ġopinion":8696,"Ġinvited":8697,"ĠNatural":8698,"ĠGraham":8699,"136":8700,"ĠAuthority":8701,"ĠStars":8702,"Ġtools":8703,"Ġaffairs":8704,"theless":8705,"ĠEnvironment":8706,"Ġmedicine":8707,"Ġgather":8708,"Ġ1913":8709,"Ġ1000":8710,"ĠAnti":8711,"cks":8712,"chi":8713,"Ġparent":8714,"Ġextens":8715,"Ġworship":8716,"ĠRud":8717,"Ġhired":8718,"Ġafterwards":8719,"Ġcollected":8720,"Ġunsuccess":8721,"Ġstood":8722,"Ġplate":8723,"Care":8724,"rm":8725,"Henry":8726,"ĠCP":8727,"ĠBeg":8728,"Ġmachines":8729,"ĠMerc":8730,"ĠSuch":8731,"Ġdecre":8732,"Ġmoder":8733,"Ġcounties":8734,"Ġfranch":8735,"Ġvision":8736,"onus":8737,"Ġveget":8738,"Dou":8739,"Ġsufficient":8740,"Ġzone":8741,"ingham":8742,"IR":8743,"ĠNBC":8744,"Mod":8745,"Ġrivers":8746,"Ġappearing":8747,"Ġinterior":8748,"ĠBirmingham":8749,"Ġhundreds":8750,"ĠCole":8751,"Ġstrate":8752,"Ġdress":8753,"ĠCricket":8754,"Ġpassengers":8755,"othy":8756,"Ġfaculty":8757,"igs":8758,"OM":8759,"inema":8760,"anged":8761,"'d":8762,"Ġgenre":8763,"atche":8764,"ĠWoman":8765,"Ġresidence":8766,"ĠFern":8767,"Ġparticipate":8768,"Ġstrategy":8769,"ĠWright":8770,"ĠIndians":8771,"Ġcarbon":8772,"Ġscheme":8773,"hered":8774,"Ġrequirements":8775,"Ġvisible":8776,"Out":8777,"Saint":8778,"ĠCommunications":8779,"umni":8780,"ĠCold":8781,"Notable":8782,"elta":8783,"achi":8784,"iege":8785,"ĠWol":8786,"ishment":8787,"Tim":8788,"ĠMario":8789,"ĠBaker":8790,"Ġthick":8791,"Life":8792,"rn":8793,"ĠMap":8794,"but":8795,"omon":8796,"Ġsuperior":8797,"ĠPittsburgh":8798,"ĠPolitical":8799,"ĠBrigade":8800,"ĠUnit":8801,"ĠRight":8802,"osaur":8803,"ĠCher":8804,"cons":8805,"Ġfocused":8806,"Ġjoining":8807,"ancell":8808,"ĠLiverpool":8809,"ĠEdinburgh":8810,"formance":8811,"Ġsust":8812,"Ġrefuge":8813,"Ġweekly":8814,"Ġprinted":8815,"Ġstyles":8816,"Ġmental":8817,"ĠWelsh":8818,"pur":8819,"Ġconvention":8820,"ĠMedicine":8821,"Ġaffected":8822,"Ġinvestigation":8823,"odore":8824,"Ġexperienced":8825,"Ġvoted":8826,"Ġbot":8827,"Ġcrash":8828,"EP":8829,"orer":8830,"Ġusage":8831,"istical":8832,"Ġ1890":8833,"ĠNash":8834,"750":8835,"acre":8836,"Ġsurf":8837,"ĠEvent":8838,"Ġmissions":8839,"ĠApple":8840,"ĠHebrew":8841,"ĠAction":8842,"Ġvice":8843,"135":8844,"ĠMurray":8845,"Ġprocesses":8846,"ĠColonel":8847,"stan":8848,"ĠDays":8849,"Ġriding":8850,"126":8851,"ĠProtest":8852,"Ġthousand":8853,"Go":8854,"Ġrain":8855,"ĠSupport":8856,"sea":8857,"ĠBeck":8858,"Ġsend":8859,"Ġveter":8860,"ĠNova":8861,"ĠAfghanistan":8862,"ĠGot":8863,"700":8864,"ĠSid":8865,"Ġpremier":8866,"Ġinvolves":8867,"Ġcircuit":8868,"Ġ1908":8869,"Ġfled":8870,"ĠSingh":8871,"Ġactors":8872,"ctic":8873,"Ġbatter":8874,"ĠPlayer":8875,"ĠAy":8876,"ĠOri":8877,"mo":8878,"ĠHunter":8879,"ewhere":8880,"Ġresign":8881,"ĠLead":8882,"fe":8883,"ĠHold":8884,"Ġdivisions":8885,"izard":8886,"Que":8887,"Ġsigns":8888,"ĠTreaty":8889,"ĠEner":8890,"rior":8891,"Ġintellect":8892,"Bel":8893,"ĠMult":8894,"illes":8895,"Ġhosts":8896,"iti":8897,"ĠCase":8898,"Death":8899,"LP":8900,"ĠĠĠĠĠĠĠĠĠ":8901,"Ġmanga":8902,"ĠNorm":8903,"Ġsignificantly":8904,"ĠFact":8905,"ĠVancouver":8906,"Ġwearing":8907,"Ġelectron":8908,"Ġauthors":8909,"Ġguide":8910,"Just":8911,"list":8912,"Ġmobile":8913,"Ġalien":8914,"illo":8915,"Ġbes":8916,"aceae":8917,"ĠCharlie":8918,"%,":8919,"ĠMichel":8920,"Ġsoutheast":8921,"rieved":8922,"etch":8923,"ĠPil":8924,"ned":8925,"geon":8926,"ĠBase":8927,"ĠJerusalem":8928,"Film":8929,"ĠNazi":8930,"vi":8931,"Ġchanging":8932,"ĠAgency":8933,"Green":8934,"SO":8935,"Ġretail":8936,"ĠOpera":8937,"ĠSpeed":8938,"Ġranked":8939,"Ġfat":8940,"ilarly":8941,"ĠUpon":8942,"ĠSig":8943,"ĠExper":8944,"inch":8945,"ĠFA":8946,"Ag":8947,"Ġhapp":8948,"Ġoffering":8949,"Ġsed":8950,"ĠLith":8951,"ĠKo":8952,"Ġvalid":8953,".'":8954,"Ġundert":8955,"Ġreserv":8956,"Ġcovering":8957,"Ġencoun":8958,"Ġwrest":8959,"Ġnom":8960,"ĠMean":8961,"olid":8962,"Ġobserved":8963,"Ġ?":8964,"Ġpublishing":8965,"ĠTob":8966,"ked":8967,"oples":8968,"ĠRand":8969,"Ġjourney":8970,"Ġalleg":8971,"ĠMargaret":8972,"Ġrestored":8973,"ĠChampions":8974,"ĠReserve":8975,"Ġwarm":8976,"Ġorganisation":8977,"Ġfighter":8978,"Ġrescue":8979,"Ġrandom":8980,"bound":8981,"hill":8982,"Ġapproved":8983,"inding":8984,"Ġsword":8985,"rolled":8986,"ĠGa":8987,"Ġowners":8988,"Ġexecuted":8989,"Ġtropical":8990,"ivan":8991,"ĠMack":8992,"Ġsatellite":8993,"Ġcolors":8994,"uka":8995,"Ġshopping":8996,"Ġsynthes":8997,"pent":8998,"ĠBillboard":8999,"Ġmanif":9000,"Ġprize":9001,"Discography":9002,"Ġteachers":9003,"Ġgal":9004,"ĠShah":9005,"ci":9006,"Ġbenefit":9007,"omar":9008,"ĠQueensland":9009,"ologists":9010,"Ġexpert":9011,"Sub":9012,"Ġdivor":9013,"Pol":9014,"igo":9015,"Ġsession":9016,"ĠDakota":9017,"ĠMarie":9018,"udson":9019,"Ġsuperv":9020,"Pop":9021,"Ġtesting":9022,"Ġneighbour":9023,"160":9024,"Ġturb":9025,"rama":9026,"Ġstruck":9027,"Ġbanks":9028,"ĠRef":9029,"onstruction":9030,"1967":9031,"Ġensure":9032,"102":9033,"ĠYug":9034,"Ġfishing":9035,"ĉĊ":9036,"Ġfinding":9037,"Ġdomain":9038,"MC":9039,"ĠLimited":9040,"Ġcompete":9041,"Ġbegun":9042,"Ġinteresting":9043,"mm":9044,"Rev":9045,"sec":9046,"Ġdetailed":9047,"ĠAndy":9048,"Ġchallenge":9049,"Ġfrequent":9050,"Ġsafe":9051,"otten":9052,"ĠCathedral":9053,"ĠGray":9054,"Ġpitch":9055,"Ġcoverage":9056,"rast":9057,"Ġ1905":9058,"ĠColomb":9059,"Ġdelivered":9060,"ushing":9061,"teenth":9062,"Ġwine":9063,"uart":9064,"ĠSteel":9065,"Ġnewspapers":9066,"ĠInstead":9067,"ĠLP":9068,"term":9069,"ĠHeavy":9070,"Air":9071,"enson":9072,"ĠPokmon":9073,"Ġmunicipalities":9074,"Ġseek":9075,"Under":9076,"alia":9077,"ulating":9078,"Ġmissing":9079,"Ġbranches":9080,"Act":9081,"ĠPrix":9082,"Ġdepth":9083,"annels":9084,"hatt":9085,"ĠRace":9086,"Ġdynam":9087,"ĠGlas":9088,"Ġinstalled":9089,"ĠSud":9090,"Ġrooms":9091,"mate":9092,"Ġconcerned":9093,"ĠPatri":9094,"Ġgarden":9095,"Ġcelebrated":9096,"Mont":9097,"ĠMagn":9098,"ensed":9099,"ĠEpisode":9100,"Let":9101,"Ġfaced":9102,"Ġrestrict":9103,"astery":9104,"aneous":9105,"Ġbeach":9106,"Ġneither":9107,"Ġprinciples":9108,"Ġdamaged":9109,"ĠRena":9110,"Ġagricultural":9111,"Ġhope":9112,"ugg":9113,"ellion":9114,"ĠScout":9115,"Ġagency":9116,"Cons":9117,"Ġmarkets":9118,"Ġcharacteristics":9119,"anner":9120,"gon":9121,"ĠExpl":9122,"Ġ54":9123,"Ġtribes":9124,"Ġstages":9125,"Ġcomputers":9126,"Ġrepresentation":9127,"rose":9128,"ĠJason":9129,"Ġforming":9130,"ogs":9131,"Old":9132,"ĠPun":9133,"ichi":9134,"ĠVik":9135,"137":9136,"new":9137,"Ġmand":9138,"Little":9139,"she":9140,"ĠRichmond":9141,"iji":9142,"abled":9143,"quis":9144,"Ġinjured":9145,"Ġoccupation":9146,"ĠBenn":9147,"ĠChristianity":9148,"Ġ1906":9149,"ĠCommons":9150,"But":9151,"ĠAlberta":9152,"Ġanswer":9153,"Elect":9154,"core":9155,"Jack":9156,"Ġcolony":9157,"ĠTerry":9158,"Ġindicate":9159,"Ġroots":9160,"Ġassistance":9161,"ĠWarren":9162,"ĠRobin":9163,"erted":9164,"dis":9165,"omic":9166,"ulu":9167,"ĠTrail":9168,"Ġindeed":9169,"ĠAT":9170,"Ġphilosopher":9171,"Ġboss":9172,"ĠShadow":9173,"ĠClar":9174,"Ġlawyer":9175,"orkshire":9176,"foot":9177,"ĠLarry":9178,"Ġtribe":9179,"ĠTrek":9180,"Ġresidential":9181,"1966":9182,"Ġnotice":9183,"ĠMS":9184,"Ġfrag":9185,"owed":9186,"Ġarranged":9187,"oko":9188,"Ġessentially":9189,"ĠGriff":9190,"otype":9191,"lik":9192,"Ġdrugs":9193,"ĠAP":9194,"Ġfootballer":9195,"ĠSmall":9196,"opes":9197,"Ġframe":9198,"Ġpractices":9199,"rg":9200,"ĠAustrian":9201,"ĠInterstate":9202,"ĠDub":9203,"Ġappropriate":9204,"Ser":9205,"Ġexpensive":9206,"ĠSi":9207,"Ġturning":9208,"Ġsupporters":9209,"ulum":9210,"ĠMalaysia":9211,"inea":9212,"ogan":9213,"Ġsurrounded":9214,"ĠPrimary":9215,"Ġjustice":9216,"asketball":9217,"Ġcousin":9218,"104":9219,"Ġready":9220,"anka":9221,"ĠHungarian":9222,"Ġbringing":9223,"Ġfame":9224,"Ġcolonial":9225,"Ġphysics":9226,"Further":9227,"Ġmerely":9228,"ĠCollins":9229,"Ġillegal":9230,"Ġshore":9231,"Ġexcellent":9232,"Ġsight":9233,"ĠVo":9234,"ĠSide":9235,"ĠBorn":9236,"Ġcompilation":9237,"Ġasc":9238,"ĠLud":9239,"Ġchapter":9240,"Ġdeleg":9241,"anon":9242,"apped":9243,"yll":9244,"ĠSprings":9245,"Ġtreated":9246,"ĠLen":9247,"Ġargument":9248,"ĠYu":9249,"ISBN":9250,"Ġreplacement":9251,"Ġcredits":9252,"asant":9253,"encing":9254,"Af":9255,"Ġaccounts":9256,"inated":9257,"ĠHarbor":9258,"ĠPhoenix":9259,"Ġgram":9260,"ĠRico":9261,"Ġdismiss":9262,"ĠHolland":9263,"Ġelectoral":9264,"ickets":9265,"Gold":9266,"103":9267,"ranean":9268,"Ġprohib":9269,"overe":9270,"ĠOd":9271,"Ġwire":9272,"ĠParker":9273,"Ġconfused":9274,"ĠDNA":9275,"Met":9276,"usted":9277,"oustic":9278,"tenance":9279,"Ġsatisf":9280,"Ġinstrumental":9281,"oren":9282,"Ġflows":9283,"abilities":9284,"hematical":9285,"ĠArabic":9286,"Ġcontributions":9287,"Ġbaby":9288,"ĠBaby":9289,"axy":9290,"Image":9291,"ĠCA":9292,"ĠTrack":9293,"ĠUnlike":9294,"ribed":9295,"ĠRat":9296,"ĠLower":9297,"oku":9298,"ĠFreedom":9299,"uits":9300,"ĠNeg":9301,"Ġlegendary":9302,"War":9303,"Ġgrant":9304,"Ġinternet":9305,"Ġexactly":9306,"Ġlegislation":9307,"ĠBeng":9308,"Ġseemed":9309,"owski":9310,"Ġpresidential":9311,"iri":9312,"ĠVerm":9313,"Ġidentical":9314,"ĠAld":9315,"ĠBrazilian":9316,"Ġ53":9317,"ĠVersion":9318,"Ġhip":9319,"ĠPearl":9320,"Ġpret":9321,"Ġrugby":9322,"ĠMuhammad":9323,"cussion":9324,"Ġprest":9325,"esis":9326,"1964":9327,"Ġagents":9328,"Ġdrum":9329,"style":9330,"Ġ56":9331,"released":9332,"Ġshel":9333,"Mat":9334,"arrier":9335,"pers":9336,"Ġalgor":9337,"Ġexpedition":9338,"Ġtraditions":9339,"Ġ1907":9340,"urst":9341,"ĠFitz":9342,"Ġminute":9343,"Ġlongest":9344,"Ġlatest":9345,"acht":9346,"ĠNet":9347,"ugs":9348,"door":9349,"avel":9350,"Ġdub":9351,"ĠSnow":9352,"Ġrose":9353,"ĠRomania":9354,"election":9355,"Ġentertainment":9356,"Ġmeasures":9357,"oks":9358,"Ġchildhood":9359,"Ġstayed":9360,"Ġ1901":9361,"ĠJazz":9362,"ĠMitchell":9363,"arest":9364,"Ġaccommod":9365,"Ġsail":9366,"Ġideal":9367,"aco":9368,"Ġrestaurant":9369,"berry":9370,"ouch":9371,"ĠMong":9372,"Ġretained":9373,"Ġevening":9374,"Ġarchae":9375,"Ġproduces":9376,"Ġ250":9377,"ĠCad":9378,"Ġsurpris":9379,"ivation":9380,"ĠRic":9381,"ĠTraining":9382,"ayan":9383,"ectors":9384,"later":9385,"Ġoccasions":9386,"ĠCarlos":9387,"ĠPast":9388,"ibbean":9389,"Ġstorage":9390,"ĠHorse":9391,"OC":9392,"Ġpoems":9393,"Ġlists":9394,"Ġbusinesses":9395,"irk":9396,"Ġdesigner":9397,"ĠYellow":9398,"cat":9399,"Ġinner":9400,"Ġmine":9401,"ĠGrad":9402,"Ġoption":9403,"Ġunlike":9404,"ĠOttoman":9405,"Ġdefensive":9406,"Ġconcerns":9407,"ĠTerm":9408,"Ġtests":9409,"Ġtheater":9410,"exp":9411,"ĠUniverse":9412,"Ġsegment":9413,"ĠIsa":9414,"udes":9415,"cing":9416,"agons":9417,"ĠAthens":9418,"Ġpractical":9419,"1965":9420,"ĠDictionary":9421,"ĠReturn":9422,"onian":9423,"ĠPrinc":9424,"Ġnetworks":9425,"fly":9426,"Leg":9427,"ĠDatabase":9428,"lett":9429,"Ġhat":9430,"Ġtransmission":9431,"ivated":9432,"ĠLear":9433,"ĠDrive":9434,"ĠSymphony":9435,"Nor":9436,"Ġalive":9437,"ĠJudge":9438,"ĠOrganization":9439,"180":9440,"ĠRegulations":9441,"Ġvisitors":9442,"Ġsoil":9443,"aru":9444,"Ġwides":9445,"encer":9446,"itarian":9447,"ĠSP":9448,"Ġthirty":9449,"Ġaccl":9450,"ĠNorfolk":9451,"Despite":9452,"aired":9453,"ĠLad":9454,"Ġfruit":9455,"HE":9456,"Ġdevoted":9457,"Ġfill":9458,"Ġimpossible":9459,"ĠPlanet":9460,"ĠCollection":9461,"Ġride":9462,"Ġdynasty":9463,"Ġ1904":9464,"ĠCarm":9465,"Ġprompt":9466,"Live":9467,"Ġserial":9468,"Ġsecretary":9469,"Ġempire":9470,"Ben":9471,"Ġcod":9472,"Ġportrayed":9473,"Ġmedieval":9474,"ĠBroadcasting":9475,"ĠBud":9476,"ĠOt":9477,"Ġstruggle":9478,"ĠPont":9479,"Ġrecre":9480,"Ġgovernments":9481,"borne":9482,"ĠStudents":9483,"issue":9484,"uis":9485,"ĠFly":9486,"pty":9487,"Ġadopt":9488,"aughters":9489,"clusion":9490,"len":9491,"ĠGhost":9492,"Ġequipped":9493,"Ġneck":9494,"ĠExp":9495,"Ġboundary":9496,"zh":9497,"ĠBranch":9498,"Ġoffensive":9499,"Ġ1880":9500,"oints":9501,"Ġexcess":9502,"song":9503,"haw":9504,"Ġdoctr":9505,"Ġdatabase":9506,"Ġtool":9507,"Ġshares":9508,"Ġinches":9509,"ĠHawaii":9510,"ĠLib":9511,"303":9512,"Ġ1909":9513,"izz":9514,"Ġproport":9515,"Ġpapers":9516,"Ġcorporate":9517,"Ġvolumes":9518,"Ġ1903":9519,"Ġbudget":9520,"ĠAqu":9521,"ĠPierre":9522,"Ġwarri":9523,"Ġperiods":9524,"Ġpartly":9525,"ĠRabb":9526,"Ġdating":9527,"ĠFormer":9528,"Ġgradually":9529,"ogle":9530,"graduate":9531,"ĠWas":9532,"Ġinput":9533,"Ġexplan":9534,"Ġkeeping":9535,"ĠUtah":9536,"Ġrecru":9537,"ĠFinnish":9538,"Ġlasted":9539,"ĠData":9540,"Bill":9541,"ĠLion":9542,"pread":9543,"Ġ88":9544,"olia":9545,"ĠDigital":9546,"Ġdiscovery":9547,"owell":9548,"Ġranks":9549,"intendo":9550,"ĠAlaska":9551,"Ġtheories":9552,"ĠKan":9553,"rov":9554,"Ġthemes":9555,"aos":9556,"fers":9557,"ĠChand":9558,"Ġmob":9559,"Ġconfront":9560,"ĠSr":9561,"Ġmatters":9562,"Ġtraditionally":9563,"rod":9564,"Ġadapted":9565,"azines":9566,"ĠTig":9567,"Ġpartnership":9568,"OT":9569,"Ġenjoyed":9570,"ĠPic":9571,"Ġshooting":9572,"ĠSarah":9573,"essions":9574,"123":9575,"Ġroof":9576,"Ġhidden":9577,"Ġ93":9578,"ĠStudios":9579,"itals":9580,"ĠSwiss":9581,"Super":9582,"Ġlose":9583,"earing":9584,"ĠSalv":9585,"Ġhence":9586,"ospel":9587,"ĠSport":9588,"Ġcomplic":9589,"ĠYorkshire":9590,"emor":9591,"ĠBrooklyn":9592,"Sl":9593,"Ġfunding":9594,"enezuel":9595,"unct":9596,"urers":9597,"Ġcurren":9598,"Ġwindow":9599,"Ġlingu":9600,"Ġfairly":9601,"Ġjunior":9602,"ĠMaine":9603,"apse":9604,"Sal":9605,"ailand":9606,"ĠAer":9607,"uable":9608,"Ġentering":9609,"Ġsounds":9610,"Ġoverse":9611,"ĠType":9612,"Ġslowly":9613,"cut":9614,"Ġgrass":9615,"Ġnickname":9616,"incinn":9617,"Ġapply":9618,"Ġiniti":9619,"Ġpunk":9620,"rena":9621,"White":9622,"ĠKid":9623,"Ġorigins":9624,"Ġceremony":9625,"Ġclimate":9626,"ĠEvans":9627,"Ġsector":9628,"sson":9629,"Ġwasn":9630,"ĠAnna":9631,"Ġlicense":9632,"ĠNord":9633,"ĠIN":9634,"rows":9635,"Ġbroadcasting":9636,"Ġdelay":9637,"ĠSay":9638,"iration":9639,"ĠDeep":9640,"Ġben":9641,"Love":9642,"Ġ57":9643,"ĠMuch":9644,"ĠAgric":9645,"ripts":9646,"Ġinvolvement":9647,"Ġcircumstances":9648,"Ġusual":9649,"UR":9650,"etry":9651,"ĠJenn":9652,"Ġsoccer":9653,"ĠFantasy":9654,"ĠHad":9655,"170":9656,"br":9657,"Ġ66":9658,"ls":9659,"Ġdesire":9660,"essed":9661,"ĠFlight":9662,"ĠHeritage":9663,"Ġrates":9664,"Japanese":9665,"ĠArkansas":9666,"otton":9667,"ĠGlobal":9668,"olar":9669,"ĠBaptist":9670,"ĠPack":9671,"Ġbright":9672,"rehensive":9673,"ĠMak":9674,"Ġbronze":9675,"scar":9676,"nia":9677,"raska":9678,"helm":9679,"Ġcarrier":9680,"Ġmining":9681,"ders":9682,"Ġwhereas":9683,"Ġprovinces":9684,"ĠCapital":9685,"Ġalcohol":9686,"ristol":9687,"Ġreviews":9688,"ĠFisher":9689,"Ġodd":9690,"1950":9691,"ĠMans":9692,"ouses":9693,"Ġscientists":9694,"Ġsoundtrack":9695,"ĠSyn":9696,"Ġdecides":9697,"ĠStre":9698,"ĠRogers":9699,"ĠTon":9700,"Ġspin":9701,"Class":9702,"ixon":9703,"wig":9704,"ĠMut":9705,"Ġelectrical":9706,"Ġ92":9707,"Later":9708,"offs":9709,"ancellor":9710,"Ġdrummer":9711,"Ġinvestment":9712,"Ġmac":9713,"itars":9714,"Ġcrossing":9715,"incinnati":9716,"hattan":9717,"imon":9718,"angle":9719,"emble":9720,"Ġtrading":9721,"Ġimpress":9722,"Ġraise":9723,"icate":9724,"Che":9725,"Ġwings":9726,"Ġdecline":9727,"Ġvictims":9728,"ĠTag":9729,"ĠKeith":9730,"ĠInv":9731,"Ġcrater":9732,"Ġcircle":9733,"ĠNumber":9734,"Career":9735,"Sk":9736,"Ġprisoners":9737,"Ġperce":9738,"avor":9739,"Ġmanufacturing":9740,"ĠEgyptian":9741,"Ġadvertising":9742,"emon":9743,"onomy":9744,"ĠPad":9745,"Ġchair":9746,"122":9747,"Ġ1902":9748,"gebra":9749,"Ġdistinction":9750,"Oh":9751,"brid":9752,"Ġadding":9753,"keley":9754,"ĠKirk":9755,"Ġpatrol":9756,"City":9757,"Ġcomics":9758,"ĠCuba":9759,"Ġattracted":9760,"force":9761,"dest":9762,"ĠFriends":9763,"Ġchannels":9764,"MD":9765,"cia":9766,"ĠGlasgow":9767,"ocket":9768,"ĠFu":9769,"Ġninet":9770,"icious":9771,"French":9772,"ĠSerge":9773,"ruption":9774,"Ġpaintings":9775,"ĠSpider":9776,"erk":9777,"ĠTu":9778,"Mad":9779,"Ġwritings":9780,"ĠTheater":9781,"ĠNature":9782,"Ġpatient":9783,"Ġchamber":9784,"arma":9785,"ovi":9786,"ilit":9787,"ieth":9788,"ĠInvest":9789,"Fred":9790,"ĠEnergy":9791,"Also":9792,"ĠMarx":9793,"white":9794,"Ġassign":9795,"Ġdriven":9796,"Ġclassified":9797,"Ġintent":9798,"Ġtrend":9799,"Ġcontinuing":9800,"Ġsecure":9801,"ĠHab":9802,"east":9803,"Bet":9804,"Ġclin":9805,"ĠFI":9806,"Ġstatistics":9807,"Ġtalent":9808,"ĠVel":9809,"ĠFriday":9810,"Ġregistered":9811,"Ġrelationships":9812,"reck":9813,"ĠCer":9814,"Ġsteps":9815,"auge":9816,"Ġsurvive":9817,"Ġ1870":9818,"Ġconj":9819,"Ġcrisis":9820,"ĠYam":9821,"ĠManit":9822,"Ġ58":9823,"Ġabsol":9824,"ĠEconomic":9825,"ĠMorning":9826,"profit":9827,"Ġmissile":9828,"ĠEug":9829,"Ġles":9830,"lington":9831,"unny":9832,"Ġlegs":9833,"pat":9834,"Second":9835,"Ġwinners":9836,"avan":9837,"Ġadvis":9838,"Ġshield":9839,"Ġcup":9840,"ntil":9841,"ĠAlice":9842,"Ġviewed":9843,"Carl":9844,"Ġtape":9845,"ĠTree":9846,"Ġcustomers":9847,"ĠNi":9848,"Ġsubst":9849,"gun":9850,"break":9851,"ificial":9852,"Ġrelation":9853,"Soc":9854,"oof":9855,"SD":9856,"ĠClay":9857,"Joseph":9858,"Ġprotected":9859,"mates":9860,"Roman":9861,"ework":9862,"Ġhelping":9863,"def":9864,"ĠJonathan":9865,"Ġliquid":9866,"vy":9867,"Ġshr":9868,"ĠHope":9869,"360":9870,"Ġmarketing":9871,"aja":9872,"ĠPay":9873,"RT":9874,"Ġelder":9875,"rost":9876,"ĠLoc":9877,"abad":9878,"Ġsubmarine":9879,"riptions":9880,"Ġcenters":9881,"Ġ85":9882,"Ġexplo":9883,"Ġfavorite":9884,"Ġwidespread":9885,"Ġtennis":9886,"ĠSocialist":9887,"rait":9888,"ĠCond":9889,"Ġexperiences":9890,"ĠGrove":9891,"Ġwhilst":9892,"Conn":9893,"eda":9894,"Ġdrawing":9895,"Ġpenal":9896,"Ġfur":9897,"Ġmaps":9898,"ĠArticle":9899,"hers":9900,"ĠShan":9901,"900":9902,"icular":9903,"ĠCEO":9904,"zi":9905,"ifies":9906,"State":9907,"More":9908,"type":9909,"Ġorchestra":9910,"ĠWor":9911,"Ġremove":9912,"Ġprove":9913,"Ġpossibility":9914,"ĠHeaven":9915,"Mike":9916,"Ġpersp":9917,"ĠHitler":9918,"esley":9919,"abul":9920,"ĠDeputy":9921,"ĠView":9922,"Ġexperimental":9923,"Ġfalse":9924,"fortunately":9925,"President":9926,"Ġsentence":9927,"Ġreun":9928,"Ġeval":9929,"ĠBenjamin":9930,"tains":9931,"Ġskill":9932,"tha":9933,"appe":9934,"Rob":9935,"Ġreven":9936,"ĠNicholas":9937,"ĠBurg":9938,"127":9939,"ictions":9940,"Ġopponents":9941,"ĠThunder":9942,"Ġdownload":9943,"ĠShel":9944,"Ġdrink":9945,"ĠByz":9946,"ĠChall":9947,"itable":9948,"Ġcomponent":9949,"Ġclock":9950,"etta":9951,"Ġsure":9952,"ĠLutheran":9953,"ĠGay":9954,"ĠMachine":9955,"Ġsaved":9956,"rys":9957,"Ġclan":9958,"peare":9959,"Album":9960,"ĠLegislative":9961,"ĠOttawa":9962,"ĠClinton":9963,"page":9964,"iciency":9965,"feld":9966,"Ġrid":9967,"ĠAny":9968,"ĠNotes":9969,"ĠPra":9970,"ĠSoftware":9971,"134":9972,"ĠGlen":9973,"icip":9974,"That":9975,"Ġradical":9976,"Ġfold":9977,"iterranean":9978,"Ġvictim":9979,"Ġcommunications":9980,"ĠBarbara":9981,"ĠProfile":9982,"ĠCaribbean":9983,"Ġspaces":9984,"ffee":9985,"ĠHudson":9986,"ĠWonder":9987,"ĠEld":9988,"ĠActor":9989,"osexual":9990,"Ġbelieves":9991,"onda":9992,"ĠMasters":9993,"Ġsyndrome":9994,"rus":9995,"ĠQuest":9996,"Ġprocessing":9997,"aments":9998,"sor":9999,"ĠAlt":10000,"LC":10001,"akespeare":10002,"Ġtexts":10003,"Ġforth":10004,"umps":10005,"bus":10006,"Polit":10007,"Ġformally":10008,"Ġswit":10009,"ju":10010,"Ġexplained":10011,"Ġruler":10012,"ĠChristians":10013,"Ġthinking":10014,"455":10015,"Ġphotos":10016,"strong":10017,"Miss":10018,"ilty":10019,"Ġconcerning":10020,"Ġjurisdiction":10021,"ĠOS":10022,"Ġshif":10023,"Ġalternate":10024,"igenous":10025,"ĠBobby":10026,"ĠMuslims":10027,"utor":10028,"260":10029,"ipped":10030,"Add":10031,"Ġcasual":10032,"124":10033,"Ġmainstream":10034,"asi":10035,"uated":10036,"oval":10037,"Ġsummary":10038,"olen":10039,"1963":10040,"ĠBald":10041,"Ġcanc":10042,"ĠBetween":10043,"Ġtort":10044,"Ġimmediate":10045,"Ġdepos":10046,"Ġviolent":10047,"USS":10048,"Ġregime":10049,"ĠPlat":10050,"ĠFuture":10051,"Ġregiment":10052,"Ġclaiming":10053,"Ġpainted":10054,"Form":10055,"Top":10056,"ĠPy":10057,"Ġoperator":10058,"Ġwithdraw":10059,"Ġ1898":10060,"ourse":10061,"eps":10062,"icken":10063,"1962":10064,"ĠRugby":10065,"Ġemergency":10066,"Ġacknow":10067,"Ġblocks":10068,"Ġcoun":10069,"Ġunless":10070,"Ġtransmit":10071,"bie":10072,"Ġwww":10073,"ĠDennis":10074,"ĠJefferson":10075,"Ġvideos":10076,"Ġseeing":10077,"stad":10078,"ĠKle":10079,"Ġcloser":10080,"Ġownership":10081,"Ġinvented":10082,"Ġmilit":10083,"ĠJoy":10084,"British":10085,"mail":10086,"ĠAssistant":10087,"Ġkidn":10088,"oker":10089,"Ġdenied":10090,"itis":10091,"eded":10092,"gcolor":10093,"Like":10094,"Ġvessels":10095,"Ġfranchise":10096,"opsis":10097,"Ġocean":10098,"py":10099,"Ġahead":10100,"obby":10101,"Ġsurviving":10102,"ĠWa":10103,"Ġintention":10104,"Ġpredecess":10105,"ĠAncient":10106,"Ġpossession":10107,"Ġadmin":10108,"ĠLloyd":10109,"phabet":10110,"ĠJosh":10111,"MI":10112,"Ġfundamental":10113,"ĠWarner":10114,"Ġexpect":10115,"Ġfilmed":10116,"Ġtied":10117,"Ġliterally":10118,"eria":10119,"uin":10120,"Ġsimult":10121,"ovakia":10122,"edge":10123,"Ġconfig":10124,"aneously":10125,"Ġliteracy":10126,"ĠRio":10127,"inist":10128,"Ġgolf":10129,"Ġ94":10130,"Ġloan":10131,"amo":10132,"Ġmounted":10133,"issa":10134,"ĠLan":10135,"Ġtransportation":10136,"ĠCraig":10137,"ĠMA":10138,"Ġheir":10139,"Bas":10140,"iens":10141,"ĠArc":10142,"Ġtempor":10143,"ĠPul":10144,"CAA":10145,"Ġcoastal":10146,"ĠNiger":10147,"alysis":10148,"Ġrig":10149,"onymous":10150,"ĠPortland":10151,"Ġstress":10152,"ricted":10153,"Ġtemporary":10154,"Ġminimum":10155,"castle":10156,"Ġadvice":10157,"Ġthreatened":10158,"Background":10159,"ĠStudent":10160,"Today":10161,"Ġfalling":10162,"Ġmechanical":10163,"RI":10164,"ĠShin":10165,"Ġtrail":10166,"Ġmagazines":10167,"Ġsubstantial":10168,"iour":10169,"ĠGermans":10170,"ĠChapter":10171,"arus":10172,"Gen":10173,"ĠTheory":10174,"iors":10175,"ĠPlant":10176,"Ġmoral":10177,"ĠOliver":10178,"ĠGon":10179,"Ġratio":10180,"ested":10181,"270":10182,"ĠVincent":10183,"Ġ91":10184,"ĠHeat":10185,"oka":10186,"Ġ1899":10187,"Ġinterpre":10188,"rien":10189,"Ġclothing":10190,"Ġsupplies":10191,"ĠGround":10192,"ophone":10193,"Arch":10194,"Ġconsecutive":10195,"inite":10196,"ĠMort":10197,"Ġrub":10198,"adian":10199,"Ġevolved":10200,"Ġib":10201,"rous":10202,"roph":10203,"Ġwooden":10204,"ĠKil":10205,"Ġorient":10206,"Ġmor":10207,"agram":10208,"Ġcabinet":10209,"133":10210,"ersonnel":10211,"Ġattempting":10212,"Ġmini":10213,"ĠAS":10214,"Ġ600":10215,"entle":10216,"ĠLink":10217,"ĠAdventures":10218,"Ġhardware":10219,"oots":10220,"Current":10221,"Ġwish":10222,"ĠBot":10223,"oi":10224,"Ġdiagn":10225,"146":10226,"Ġmartial":10227,"London":10228,"Ġsupports":10229,"Ġcontinuous":10230,"hum":10231,"Ġtreaty":10232,"ĠWhere":10233,"Ġdual":10234,"European":10235,".),":10236,"Ġminority":10237,"ported":10238,"Game":10239,"ĠGoth":10240,"132":10241,"Ġworn":10242,"dess":10243,"Every":10244,"DD":10245,"ĠPruss":10246,"ĠEddie":10247,"166":10248,"ĠBey":10249,"Space":10250,"ĠLiterature":10251,"ĠSaints":10252,"ĠKill":10253,"Ġlooked":10254,"149":10255,"Ġreserve":10256,"Ġprocl":10257,"Ġconventional":10258,"esar":10259,"eing":10260,"ĠClassic":10261,"ĠBorough":10262,"Ġhelicop":10263,"ĠAlpha":10264,"Ġamateur":10265,"stown":10266,"Ġreporter":10267,"Ġ1896":10268,"Ġbalance":10269,"emale":10270,"ĠYugoslav":10271,"bane":10272,"oked":10273,"ĠDevil":10274,"front":10275,"gom":10276,"ĠDefence":10277,"ĠTurner":10278,"Ġescaped":10279,"Ġconscious":10280,"Ġtwin":10281,"ĠRidge":10282,"ĠHear":10283,"Ġ101":10284,"ĠManhattan":10285,"nik":10286,"ĠHarrison":10287,"Ġinfantry":10288,"Ġlimits":10289,"ĠRab":10290,"280":10291,"ĠDelta":10292,"BBC":10293,"Ġencouraged":10294,"stitute":10295,"Ġatmosphere":10296,"gs":10297,"arant":10298,"Ġdim":10299,"ilia":10300,"ĠFle":10301,"ourt":10302,"101":10303,"Ġcompletion":10304,"Ġexclusively":10305,"380":10306,"asia":10307,"Ġmeat":10308,"ĠNam":10309,"ĠMetal":10310,"Ġcolleges":10311,"minster":10312,"ĠCampaign":10313,"Bro":10314,"ĠKon":10315,"Ġdominated":10316,"ĠCincinnati":10317,"avia":10318,"ĠLeo":10319,"Ġenthus":10320,"Me":10321,"ygen":10322,"ĠSad":10323,"Ġagree":10324,"ĠGang":10325,"Ġpregn":10326,"hero":10327,"Ġkilomet":10328,"ĠVegas":10329,"Battle":10330,"Ġdeaths":10331,"Ġpassage":10332,"Ġinterpretation":10333,"ĠMi":10334,"formerly":10335,"ĠChi":10336,"ĠNapole":10337,"Ġdollars":10338,"Grand":10339,"cht":10340,"Ġuncle":10341,"Ġ1895":10342,"Ġbreaking":10343,"Ġyield":10344,"Ġaged":10345,"Ġscientist":10346,"ometers":10347,"ĠOct":10348,"ublican":10349,"Hol":10350,"imir":10351,"Ġstudying":10352,"1958":10353,"holm":10354,"Ġshops":10355,"quir":10356,"eston":10357,"ĠSic":10358,"ĠHugh":10359,"ovo":10360,"ullivan":10361,"ĠIslander":10362,"celand":10363,"Ġhyper":10364,"ĠIss":10365,"PG":10366,"Ġrelief":10367,"ĠThor":10368,"ĠLegend":10369,"ĠToy":10370,"ĠCelt":10371,"amer":10372,"Ġprofit":10373,"CH":10374,"ĠNebraska":10375,"ĠProvinc":10376,"iveness":10377,"1959":10378,"Ġdeclined":10379,"Ġfinishing":10380,"ĠHem":10381,"ĠStill":10382,"osph":10383,"ĠNobel":10384,"Ġexplains":10385,"Ġprices":10386,"redited":10387,"370":10388,"Ġgene":10389,"ortion":10390,"ipper":10391,"aha":10392,"ĠOriginally":10393,"Ġzero":10394,"Ġpseud":10395,"ĠLov":10396,"Ġresolution":10397,"Ġpreserved":10398,"ĠStein":10399,"ete":10400,"Ġ1860":10401,"unswick":10402,"eva":10403,"Ġrit":10404,"ĠBert":10405,"actions":10406,"Ġmanusc":10407,"iev":10408,"plex":10409,"Ġassembly":10410,"elect":10411,"Ġformula":10412,"ĠOpp":10413,"elaide":10414,"Ġindex":10415,"Ġels":10416,"ĠSor":10417,"RS":10418,"ĠLeader":10419,"ĠThailand":10420,"Ġhal":10421,"Ġhorses":10422,"orious":10423,"opy":10424,"umer":10425,"Ġfurn":10426,"Ġprotein":10427,"Ġflash":10428,"Ġdispute":10429,"ishops":10430,"Ġessential":10431,"ĠFat":10432,"Mac":10433,"ners":10434,"ĠNintendo":10435,"ĠPin":10436,"Ġpicked":10437,"Ġconcerts":10438,"Ġattributed":10439,"Ġerror":10440,"died":10441,"ethe":10442,"ĠManitoba":10443,"trans":10444,"Ġ72":10445,"ĠIvan":10446,"Ġcommanded":10447,"ĠSoon":10448,"ĠMediterranean":10449,"1945":10450,"Ġdiverse":10451,"ighting":10452,"unning":10453,"Public":10454,"Stud":10455,"Ġstick":10456,"ĠCN":10457,"ĠFlore":10458,"Ġspell":10459,"ĠAmaz":10460,"ĠBuch":10461,"1957":10462,"290":10463,"Mount":10464,"Ġspir":10465,"Ġfaster":10466,"ĠAx":10467,"ĠYe":10468,"ĠAndre":10469,"Ġmysterious":10470,"idad":10471,"forcement":10472,"Ġvessel":10473,"ĠBour":10474,"elia":10475,"overy":10476,"ĠĠĠĠĠĠĠĠĠĠ":10477,"ĠDanny":10478,"enberg":10479,"ĠST":10480,"abric":10481,"Ġtelephone":10482,"Ġnavig":10483,"ĠEventually":10484,"Ġhonour":10485,"ĠFif":10486,"Great":10487,"Vol":10488,"quer":10489,"Northern":10490,"season":10491,"Ġdominant":10492,"aba":10493,"Ġcriticized":10494,"ĠUniversal":10495,"ĠNeil":10496,"Ġcited":10497,"ĠDiamond":10498,"Ġdistinctive":10499,"Ġrab":10500,"Ġvoting":10501,"Ġ62":10502,"Ġwrites":10503,"Ġforests":10504,"Histor":10505,"Ġaccord":10506,"ĠEagle":10507,"Ġmal":10508,"pin":10509,"Ġruling":10510,"ĠWalt":10511,"itter":10512,"rapy":10513,"Ġdefence":10514,"Scott":10515,"143":10516,"asha":10517,"Ġfamiliar":10518,"Ġroot":10519,"Ġpartially":10520,"Ġpredomin":10521,"Ġforg":10522,"ĠBeaut":10523,"ĠPrior":10524,"ĠArnold":10525,"ĠPle":10526,"Ġgat":10527,"osophical":10528,"uba":10529,"zes":10530,"Ġlie":10531,"ĠShakespeare":10532,"School":10533,"142":10534,"ĠSak":10535,"Pal":10536,"ĠRalph":10537,"Ġproof":10538,"Ġsuffering":10539,"DC":10540,"ĠName":10541,"Ġemerged":10542,"oids":10543,"Ġrenowned":10544,"Ġtruck":10545,"ĠIntelligence":10546,"ĠAbbey":10547,"Ġcivilian":10548,"Ġrestaurants":10549,"ĠProtestant":10550,"imm":10551,"Ġelsewhere":10552,"Ġmanip":10553,"ĠNav":10554,"ĠRoom":10555,"ĠOriginal":10556,"Ġcomprised":10557,"ĠPictures":10558,"velt":10559,"ĠJava":10560,"ĠMcL":10561,"ĠBerkeley":10562,"Ec":10563,"Before":10564,"Ġtanks":10565,"Ġbenefits":10566,"ĠAnglo":10567,"ĠArchbishop":10568,"ĠWinn":10569,"ĠMilan":10570,"Ġpoison":10571,"ĠVic":10572,"ĠTherefore":10573,"Mary":10574,"Ġtourist":10575,"Ġ130":10576,"agar":10577,"Ġouter":10578,"rained":10579,"Ġcyl":10580,"hent":10581,"ĠJar":10582,"ĠKnights":10583,"ĠSask":10584,"Ġmanufacturer":10585,"ĠCarn":10586,"ĠWallace":10587,"188":10588,"Ġalter":10589,"oking":10590,"opal":10591,"idency":10592,"ĠOz":10593,"Long":10594,"ĠGuinea":10595,"icism":10596,"Ġboundaries":10597,"bul":10598,"Ġagencies":10599,"Ġterritories":10600,"DE":10601,"ĠSalt":10602,"ĠFell":10603,"ĠGate":10604,"Ġdisplayed":10605,"Ġhearing":10606,"156":10607,"Ġmanufactured":10608,"Ġtheorem":10609,"Ġexceed":10610,"sur":10611,"ĠHig":10612,"Ġhole":10613,"Ġoriginated":10614,"Ġremainder":10615,"ĠSultan":10616,"Ġhoriz":10617,"ĠScar":10618,"Ġfest":10619,"ĠGor":10620,"ĠVII":10621,"ĠCurt":10622,"etary":10623,"ĠIndustrial":10624,"ĠAN":10625,"lude":10626,"group":10627,"ĠBatman":10628,"iffer":10629,"Hon":10630,"ĠBristol":10631,"Ġcoup":10632,"Blue":10633,"ĠTommy":10634,"Ġtheat":10635,"Ġ68":10636,"Ġoblig":10637,"Ġcreatures":10638,"Ġseventh":10639,"Ġabst":10640,"Ġexecution":10641,"147":10642,"ĠSah":10643,"Ġ1897":10644,"Ġabsence":10645,"eor":10646,"ĠSug":10647,"ĠPel":10648,"Ġmarks":10649,"ĠBuffalo":10650,"Sen":10651,"ĠMinor":10652,"appeared":10653,"Ġrenew":10654,"Ġ159":10655,"Women":10656,"imensional":10657,"ĠForum":10658,"ĠFaith":10659,"ĠTib":10660,"disc":10661,"acked":10662,"Ġbid":10663,"Ġgenerated":10664,"ĠAllied":10665,"220":10666,"GB":10667,"ti":10668,"Three":10669,"Ġsolar":10670,"Ġseeking":10671,"agi":10672,"anne":10673,"acles":10674,"Ġgenetic":10675,"240":10676,"lia":10677,"ĠCompet":10678,"ĠMesa":10679,"Ġsung":10680,"Ġpublicly":10681,"Ġfantasy":10682,"Ġscholar":10683,"esty":10684,"Ġwat":10685,"Ġ1885":10686,"Jean":10687,"ĠPant":10688,"ĠFeat":10689,"ĠNext":10690,"Ġkit":10691,"Ġdecisions":10692,"ĠHerman":10693,"osc":10694,"ĠAnim":10695,"ĠArchitect":10696,"ĠGreater":10697,"Ġinstruction":10698,"otto":10699,"Ġalliance":10700,"Ġtouchdown":10701,"ĠDrums":10702,"asks":10703,"ricks":10704,"Ġtelling":10705,"BE":10706,"rish":10707,"Ġjobs":10708,"ampire":10709,"Ġassemb":10710,"ĠBrunswick":10711,"Ġmaintenance":10712,"ĠStri":10713,"Mel":10714,"Ġtunnel":10715,"ĠVenezuel":10716,"ĠStuart":10717,"ĠBris":10718,"ĠUkraine":10719,"470":10720,"Ġintegrated":10721,"ĠMig":10722,"Ġindicated":10723,"ĠZe":10724,"ĠKel":10725,"Ġvow":10726,"atar":10727,"Ġexposed":10728,"Ġreplacing":10729,"Ġartistic":10730,"Comm":10731,"Ġdecide":10732,"Ġdrew":10733,"ĠCH":10734,"Ġstable":10735,"ĠAR":10736,"Ġcul":10737,"ĠLock":10738,"Ġincreases":10739,"atever":10740,"inda":10741,"Ġmoon":10742,"1956":10743,"ĠYale":10744,"Ġamounts":10745,"ĠCircle":10746,"Ġsurgery":10747,"350":10748,"actor":10749,"ĠBasketball":10750,"ĠShop":10751,"Ġreceives":10752,"stand":10753,"ĠOil":10754,"159":10755,"ricke":10756,"wald":10757,"ĠMann":10758,"Ġlayer":10759,"arr":10760,"Ġproducers":10761,"Ġillness":10762,"ĠHarold":10763,"ĠHerbert":10764,"375":10765,"ĠHarvey":10766,"Ġacted":10767,"Ġinterface":10768,"Ġreveals":10769,"ĠChen":10770,"Us":10771,"Ġha":10772,"Ġmythology":10773,"Ġremote":10774,"Ġ63":10775,"Ġmurdered":10776,"Ġhelps":10777,"ĠEnterprise":10778,"Val":10779,"480":10780,"ĠTerritory":10781,"ĠLate":10782,"Ġ158":10783,"ierra":10784,"Ġcollaboration":10785,"Oper":10786,"Ġserver":10787,"Ġapartment":10788,"ĠRAF":10789,"Ġstatue":10790,"Ġefficient":10791,"ĠConfederate":10792,"ĠLeft":10793,"Ġexplain":10794,"Ġ800":10795,"rade":10796,"Ġphoto":10797,"ĠProductions":10798,"320":10799,"Ġindustries":10800,"sub":10801,"167":10802,"sterdam":10803,"ĠIndonesia":10804,"Ġpersu":10805,"ĠBuddhist":10806,"even":10807,"GM":10808,"Ġ156":10809,"bes":10810,"Ġheritage":10811,"ĠRomanian":10812,"ĠParish":10813,"icity":10814,"Ġ1892":10815,"ieg":10816,"onc":10817,"ucker":10818,"Ġmeetings":10819,"ĠSonic":10820,"Because":10821,"ĠTamil":10822,"Ġyoungest":10823,"Liber":10824,"istance":10825,"Ġknows":10826,"empt":10827,"rave":10828,"Ġairline":10829,"Os":10830,"460":10831,"Ġinsc":10832,"Ġconnections":10833,"ĠSex":10834,"Ġdiameter":10835,"Ġaspect":10836,"auer":10837,"ĠPeninsula":10838,"Ġsponsored":10839,"Ġreaches":10840,"148":10841,".:":10842,"Ġboats":10843,"Ġ89":10844,"although":10845,"Ġcraft":10846,"390":10847,"Ġpul":10848,"aws":10849,"Ġsymp":10850,"wright":10851,"Ġpatterns":10852,"ecraft":10853,"Ġgeomet":10854,"Ġsettlers":10855,"Ġgraphics":10856,"gomery":10857,"adows":10858,"Ġ1894":10859,"ĠDh":10860,"enton":10861,"Ġcoalition":10862,"orne":10863,"anni":10864,"Ġsequel":10865,"Ġcrop":10866,"Ġwrestling":10867,"Ġcharacteristic":10868,"Ġcarries":10869,"Steve":10870,"Ġstead":10871,"osevelt":10872,"pson":10873,"Ġplastic":10874,"Ġsam":10875,"ĠUrban":10876,"anche":10877,"Ġtransition":10878,"ĠOcc":10879,"estone":10880,"OP":10881,"Ġordinary":10882,"Ġlogo":10883,"Ġbonus":10884,"145":10885,"center":10886,"ovich":10887,"asm":10888,"ĠStudio":10889,"Ġbeauty":10890,"ĠSold":10891,"Ġacceler":10892,"Ġfix":10893,"Station":10894,"ĠNewton":10895,"Ġpeoples":10896,"168":10897,"ĠMills":10898,"ĠArena":10899,"Ġinfluences":10900,"Ġretreat":10901,"Ġghost":10902,"Ġpalace":10903,"Ġinaug":10904,"Ġadaptation":10905,"tical":10906,"vas":10907,"ublished":10908,"Ġcargo":10909,"Ġmechanism":10910,"Ġexplicit":10911,"ĠRou":10912,"ĠBear":10913,"ĠTrinity":10914,"Ġreferring":10915,"Ġvisiting":10916,"boro":10917,"Ġwalking":10918,"ĠMonday":10919,"ĠPhilosophy":10920,"atchewan":10921,"ĠAbraham":10922,"ĠHeights":10923,"Ġremembered":10924,"Ġ76":10925,"ĠAccess":10926,"ĠPalomar":10927,"Ġresort":10928,"Ġconcepts":10929,"169":10930,"bel":10931,"ĠPerformance":10932,"Ġ1889":10933,"Ġcollections":10934,"Ġtons":10935,"Ġparliamentary":10936,"rastructure":10937,"free":10938,"uction":10939,"aho":10940,"ĠGrace":10941,"razy":10942,"ĠDenver":10943,"Ġcategories":10944,"agger":10945,"Ġexercise":10946,"Ġemphasis":10947,"ephew":10948,"ĠFighter":10949,"Ġhunting":10950,"flu":10951,"Ġinterviews":10952,"rah":10953,"ĠBron":10954,"Ġtone":10955,"orporated":10956,"Ġ77":10957,"Ġtrouble":10958,"Ġconcentration":10959,"Ġchron":10960,"omi":10961,"lee":10962,"ĠPhilippine":10963,"Ġidentify":10964,"ĠHMS":10965,"Ġvariation":10966,"ĠRegister":10967,"Ġschedule":10968,"Ġdaughters":10969,"Ġ125":10970,"Ġsuitable":10971,"Som":10972,"Ġanniversary":10973,"ennial":10974,"Ġ1893":10975,"Ber":10976,"olve":10977,"ĠSC":10978,"ĠRivers":10979,"irts":10980,"uez":10981,"ĠIndependence":10982,"ĠSection":10983,"179":10984,"ĠMaced":10985,"Ġnoble":10986,"case":10987,"iture":10988,"ludes":10989,"Ġhorn":10990,"Ġlanded":10991,"idal":10992,"quest":10993,"ĠSha":10994,"ĠMason":10995,"fecture":10996,"ĠObserv":10997,"Ġblind":10998,"Ġterminal":10999,"ĠVictorian":11000,"Ġ1861":11001,"Ġcrimes":11002,"amine":11003,"Awards":11004,"ĠSteven":11005,"occ":11006,"Ġlosses":11007,"Ġcash":11008,"Ġ140":11009,"ĠBulgar":11010,"ĠLex":11011,"Ġexperiments":11012,"Ġlinear":11013,"ffield":11014,"Ġneutral":11015,"aton":11016,"ĠCrime":11017,"cover":11018,"Ġorbit":11019,"agers":11020,"Ġflowers":11021,"Ġmonitor":11022,"wyn":11023,"ĠAround":11024,"ĠHat":11025,"ĠBeh":11026,"ĠCharlotte":11027,"ĠSongs":11028,"189":11029,"Chris":11030,"Ġrenov":11031,"Ġprince":11032,"155":11033,"Ġterminus":11034,"ĠLinux":11035,"ĠEff":11036,"Ġindicates":11037,"Ġinsurance":11038,"Ġdramatic":11039,"Ġunsuccessful":11040,"Ġ78":11041,"ĠEthiop":11042,"Ġmo":11043,"ĠVlad":11044,"ĠBrew":11045,"Ġsample":11046,"ĠHughes":11047,"Ġdifficulty":11048,"Ġdefeating":11049,"ĠGam":11050,"ĠKay":11051,"Ġdepicted":11052,"ruly":11053,"ĠTax":11054,"ĠMol":11055,"Ray":11056,"ĠPA":11057,"Ġclient":11058,"game":11059,"Ġkings":11060,"gi":11061,"Ġconstantly":11062,"log":11063,"Ġdescent":11064,"Ġlogic":11065,"ibilities":11066,"bot":11067,"igion":11068,"uclear":11069,"Ġvel":11070,"Ġsituations":11071,"Ġdict":11072,"Ġspeakers":11073,"sa":11074,"ching":11075,"eyer":11076,"Ġpatron":11077,"ĠButler":11078,"ĠRacing":11079,"Ġ1800":11080,"Ġdisaster":11081,"ĠMadrid":11082,"Ġ84":11083,"ĠCreat":11084,"ĠNorthwest":11085,"ĠDesert":11086,"Ġspac":11087,"Ġsteal":11088,"ango":11089,"Mah":11090,"ĠRac":11091,"1955":11092,"Ġbacking":11093,"Ġconven":11094,"ollo":11095,"Ġeditions":11096,"ĠPent":11097,"ĠLanka":11098,"Ġcamps":11099,"ĠEdwards":11100,"Ġmerger":11101,"Mo":11102,"Ġblow":11103,"Ġvariant":11104,"Ġrising":11105,"ĠHein":11106,"Ġarrangement":11107,"Ġextensively":11108,"gam":11109,"ĠPink":11110,"ĠLords":11111,"Ġfriendly":11112,"Arthur":11113,"Ġagriculture":11114,"ĠTed":11115,"ĠNevada":11116,"Ġdogs":11117,"onies":11118,"Ġannually":11119,"Ġwealthy":11120,"Post":11121,"afe":11122,"226":11123,"cester":11124,"Ġbeliefs":11125,"ĠRange":11126,"450":11127,"490":11128,"ĠQuarter":11129,"ĠFine":11130,"Family":11131,"ĠBright":11132,"ĠJe":11133,"Ġthin":11134,"ĠFa":11135,"omber":11136,"hematic":11137,"Ġnovelist":11138,"Ġvirtually":11139,"ĠHomer":11140,"rift":11141,"Ġvariations":11142,"otyp":11143,"icus":11144,"Ġargue":11145,"158":11146,"abel":11147,"ĠPolicy":11148,"ĠEsp":11149,"Est":11150,"Ġlights":11151,"Ġparody":11152,"Ġactivist":11153,"abe":11154,"ĉĉĊ":11155,"Ġsalt":11156,"ĠFoot":11157,"ĠTrophy":11158,"Ġcommemor":11159,"Ġgrades":11160,"ĠConserv":11161,"Ġpir":11162,"ĠDale":11163,"Ġhandle":11164,"fast":11165,"Ġdeparture":11166,"Ġanimation":11167,"mits":11168,"Ġequation":11169,"Ġtie":11170,"Ġvariable":11171,"Ġ61":11172,"Ġmemor":11173,"ecution":11174,"ouncill":11175,"ationally":11176,"Ġappointment":11177,"ocking":11178,"ĠSeb":11179,"Ġ69":11180,"ĠSusan":11181,"ĠExchange":11182,"Def":11183,"ĠBath":11184,"Ġattorney":11185,"ĠFun":11186,"LS":11187,"Ġrobot":11188,"ĠCareer":11189,"Ġmines":11190,"ĠWr":11191,"ĠTransit":11192,"ĠFinally":11193,"ĠScotia":11194,"ĠMTV":11195,"acters":11196,"Ġmarch":11197,"CP":11198,"isch":11199,"ĠThose":11200,"ente":11201,"ĠIceland":11202,"atra":11203,"Ġpropag":11204,"ĠFish":11205,"iability":11206,"var":11207,"Ġmail":11208,"Ġcreative":11209,"Ġpercentage":11210,"Louis":11211,"edi":11212,"ĠInterview":11213,"Ġ(#":11214,"Ġranging":11215,"Ġsurviv":11216,"Ġswimming":11217,"Good":11218,"ĠIsaac":11219,"Ġswe":11220,"Ġca":11221,"Ġ157":11222,"enburg":11223,"Ġu":11224,"ĠAdditionally":11225,"Ġrent":11226,"ĠDin":11227,"ĠLuke":11228,"Camp":11229,"Ġsailed":11230,"ĠFan":11231,"Ġ67":11232,"mediate":11233,"ĠLisa":11234,"ĠTalk":11235,"ĠChel":11236,"rington":11237,"Ġassum":11238,"Ġsky":11239,"Direct":11240,"Ġrecovered":11241,"Ġtribute":11242,"ĠHur":11243,"Ġ86":11244,"word":11245,"Ġcontribution":11246,"Ġsugar":11247,"ashes":11248,"emed":11249,"ĠTiger":11250,"bian":11251,"Ġcomprehensive":11252,"film":11253,"keeper":11254,"Ġnoise":11255,"ĠHunt":11256,"Ret":11257,"atsu":11258,"aders":11259,"Ġ1891":11260,"Ġnucle":11261,"named":11262,"Ġlocally":11263,"oded":11264,"ĠCrus":11265,"iao":11266,"ĠCou":11267,"Ġupgrad":11268,"onnie":11269,"Ġtur":11270,"Ġtube":11271,"ennium":11272,"Ġdesert":11273,"ocent":11274,"inent":11275,"atha":11276,"Ġenters":11277,"Max":11278,"ĠSerbia":11279,"Ġartillery":11280,"Ġbath":11281,"arting":11282,"ĠMurphy":11283,"225":11284,"ĠTechnical":11285,"Ġwel":11286,"ĠGene":11287,"ishi":11288,"Ġbrig":11289,"ĠParad":11290,"post":11291,"Ġprestigious":11292,"Ġdated":11293,"Ġsurn":11294,"Ġfasc":11295,"ĠSweet":11296,"ĠCut":11297,"176":11298,"ĠCoal":11299,"Ġcontrols":11300,"ĠAdelaide":11301,"178":11302,"ĠNear":11303,"Ġeggs":11304,"Mer":11305,"Ġbanned":11306,"Ġabuse":11307,"Ġaccurate":11308,"Ġtens":11309,"Ġangle":11310,"Ġrounds":11311,"som":11312,"ĠGill":11313,"ĠWu":11314,"Ġcalendar":11315,"Ġdetail":11316,"ĠViol":11317,"186":11318,"ĠTransportation":11319,"vet":11320,"Ġfollowers":11321,"ĠBog":11322,"ĠEye":11323,"Ġfeud":11324,"ĠPrice":11325,"Ġaimed":11326,"Ġeleven":11327,"God":11328,"Ġna":11329,"duces":11330,"ĠRaymond":11331,"iology":11332,"ĠAber":11333,"Ġ1850":11334,"unar":11335,"emia":11336,"Ġlisten":11337,"Ann":11338,"Ġopens":11339,"Ġimperial":11340,"Christian":11341,"ĠArms":11342,"ĠTogether":11343,"omorph":11344,"enda":11345,"ĠGilbert":11346,"fr":11347,"sis":11348,"feat":11349,"Ġopportunities":11350,"Ġstim":11351,"ĠUnfortunately":11352,"Ġtomb":11353,"ilian":11354,"foundland":11355,"/;":11356,"Wal":11357,"Ġcommentary":11358,"ĠVisc":11359,"Ġsympt":11360,"ĠAdventure":11361,"ĠShaw":11362,"Ġsuppress":11363,"ĠHann":11364,"Ġinjuries":11365,"1940":11366,"rels":11367,"ĠMalt":11368,"ĠBelgian":11369,"ĠPerry":11370,"ĠMust":11371,"Season":11372,"Ġrout":11373,"ĠManager":11374,"mid":11375,"entieth":11376,"Jeff":11377,"mother":11378,"arson":11379,"Ġparks":11380,"Ġrifle":11381,"ĠNine":11382,"1949":11383,"ĠDelaware":11384,"RE":11385,"Ġpist":11386,"Ġthanks":11387,"Ġcompetitive":11388,"ĠLiberty":11389,"Ġconversion":11390,"ĠSean":11391,"Vill":11392,"elected":11393,"Members":11394,"Bo":11395,"ĠCurrently":11396,"340":11397,"Ġcultures":11398,"ĠLux":11399,"itime":11400,"ĠFormula":11401,"Ġperspective":11402,"ĠStudy":11403,"Ġdoors":11404,"Ġwilling":11405,"onomous":11406,"Ġ82":11407,"Ġcoat":11408,"Ġmph":11409,"Ġkilometres":11410,"Ġjunction":11411,"ĠEvil":11412,"Ġcharacterized":11413,"Ġescort":11414,"yme":11415,"dark":11416,"Ġhp":11417,"ĠIBM":11418,"ĠCob":11419,"abil":11420,"itially":11421,"ĠDemocrats":11422,"Ġvoiced":11423,"ĠRoosevelt":11424,"tors":11425,"Ġexclusive":11426,"175":11427,"Ġaffiliated":11428,"aude":11429,"rox":11430,"isations":11431,"Ġtouring":11432,"ĠKap":11433,"Ġpenalty":11434,"Ġmerc":11435,"itol":11436,"Ġhappy":11437,"Ġtight":11438,"Ġvul":11439,"Ġdoubt":11440,"196":11441,"Ġabroad":11442,"ĠMunicipal":11443,"how":11444,"144":11445,"Ġfacing":11446,"Ġspend":11447,"Ġhistorians":11448,"PM":11449,"Ġsentenced":11450,"ĠNeed":11451,"ulator":11452,"Ġmanage":11453,"Ġrepresentatives":11454,"Jul":11455,"arin":11456,"157":11457,"ĠWang":11458,"Ġgard":11459,"ĠOw":11460,"Ġconcrete":11461,"Ġparticipation":11462,"Ġpy":11463,"Ġcorresponding":11464,"Ġconstitutional":11465,"Ġbases":11466,"Ġrocket":11467,"ĠPete":11468,"rupted":11469,"ĠGolf":11470,"Ġflower":11471,"ĠOwn":11472,"achment":11473,"ĠDra":11474,"ĠMath":11475,"ĠUC":11476,"Ġmonastery":11477,"unication":11478,"Ġcreature":11479,"230":11480,"via":11481,"Ġalphabet":11482,"bin":11483,"Ġbare":11484,"rapped":11485,"Ġalgebra":11486,"ourg":11487,"Ġcanon":11488,"ĠHus":11489,"Ġbars":11490,"ĠEsc":11491,"ĠJama":11492,"urring":11493,"arted":11494,"Ġlabour":11495,"Ġplain":11496,"orient":11497,"Ġfeelings":11498,"Ġbiological":11499,"eli":11500,"ĠAlong":11501,"Ġaffair":11502,"ĠReed":11503,"Ġimmigrants":11504,"Ġbroadcasts":11505,"Ġconvinced":11506,"onde":11507,"pose":11508,"about":11509,"omed":11510,"Ġradiation":11511,"ĠMaz":11512,"ĠLamb":11513,"ontin":11514,"Ġpowered":11515,"ĠRot":11516,"Ġinduct":11517,"Ġtoured":11518,"Ġhills":11519,"aca":11520,"actic":11521,"Ġorientation":11522,"238":11523,"1939":11524,"ĠCO":11525,"enders":11526,"Ġpip":11527,"agic":11528,"ĠDraft":11529,"Ġflights":11530,"Ġcompetitions":11531,"ĠIranian":11532,"Ġrecept":11533,"ĠAltern":11534,"239":11535,"Ġbeer":11536,"ĠOscar":11537,"omo":11538,"Ġchampionships":11539,"Ġtalking":11540,"Ġincrement":11541,"ĠVoice":11542,"aris":11543,"imates":11544,"Ġmasc":11545,"scale":11546,"Joe":11547,"Mus":11548,"ĠCultural":11549,"Ġscores":11550,"Ġrocks":11551,"Ġmarry":11552,"Ġproposal":11553,"Ġbacter":11554,"1948":11555,"Ġsoph":11556,"ĠTourn":11557,"Fort":11558,"imo":11559,"Ġverse":11560,"286":11561,"Ġlegislative":11562,"Ġkilometers":11563,"1954":11564,"ĠPolitics":11565,"Ġpursue":11566,"330":11567,"177":11568,"Ġ87":11569,"roe":11570,"otus":11571,"ĠPrinceton":11572,"ĠBrun":11573,"Ġcook":11574,"aukee":11575,"ĠMoz":11576,"1953":11577,"Ġdialect":11578,"hin":11579,"gus":11580,"ĠĠĠĠĠĠĠĠĠĠĠĠ":11581,"Ġarmies":11582,"Tur":11583,"ĠCatherine":11584,"ĠWatch":11585,"rainian":11586,"Ġdiver":11587,"Ġconvicted":11588,"ĠPrivate":11589,"elligent":11590,"Ġdeck":11591,"ĠSpac":11592,"reated":11593,"Bibliography":11594,"ĠProgressive":11595,"Ġromantic":11596,"hal":11597,"299":11598,"ĠReform":11599,"Ġwedding":11600,"Ġthereafter":11601,"Dist":11602,"Radio":11603,"1952":11604,"ĠLess":11605,"185":11606,"Ġrect":11607,"Ġpercussion":11608,"Ġcoins":11609,"Ġcancelled":11610,"Ġorb":11611,"Ġemployment":11612,"lights":11613,"Ġsubdiv":11614,"ĠLem":11615,"ĠMeanwhile":11616,"Ġrevers":11617,"ĠGuild":11618,"Ġlandscape":11619,"ĠSurre":11620,"amese":11621,"audi":11622,"ilogy":11623,"person":11624,"ĠTong":11625,"emark":11626,"cho":11627,"first":11628,"Ġattacking":11629,"agonist":11630,"ĠVermont":11631,"common":11632,"Ġobsc":11633,"ĠAmendment":11634,"itting":11635,"isen":11636,"Ġpopulations":11637,"ĠVas":11638,"ĠDoll":11639,"Ġprol":11640,"Ġ74":11641,"Ġovers":11642,"Step":11643,"Ġencl":11644,"ĠAges":11645,"ĠGust":11646,"Ġassess":11647,"Ġexplanation":11648,"hall":11649,"ĠNCAA":11650,"279":11651,"ĠTas":11652,"ĠKitt":11653,"ielder":11654,"terior":11655,"child":11656,"oland":11657,"Ġneuro":11658,"aturally":11659,"lades":11660,"never":11661,"rev":11662,"Ġperceived":11663,"ĠLis":11664,"154":11665,"Ġreportedly":11666,"Ġpanel":11667,"ĠGregory":11668,"Ġpreferred":11669,"Ġ1862":11670,"Ġeasier":11671,"ahl":11672,"Ġcodes":11673,"ĠVent":11674,"ĠCommissioner":11675,"Ġceased":11676,"umph":11677,"Ġintellectual":11678,"289":11679,"195":11680,"ĠCampus":11681,"rets":11682,"IG":11683,"Ġcondem":11684,"Ġarrives":11685,"Ġloop":11686,"ĠSomers":11687,"umberland":11688,"ampton":11689,"Ġconnect":11690,"Sy":11691,"Ġcampaigns":11692,"Ġibn":11693,"Ġbay":11694,"Tor":11695,"itan":11696,"ĠGardens":11697,"ĠWithin":11698,"ĠHil":11699,"raud":11700,"Bur":11701,"Ġ81":11702,"iblical":11703,"upt":11704,"umm":11705,"two":11706,"ĠAttorney":11707,"Ġflex":11708,"owder":11709,"ampa":11710,"ĠQual":11711,"ĠEditor":11712,"Ġoutstanding":11713,"**":11714,"ĠRhodes":11715,"celona":11716,"Ġfate":11717,"Day":11718,"ĠPalmer":11719,"ĠTravel":11720,"Now":11721,"Ġbelt":11722,"Ġrecommended":11723,"197":11724,"1930":11725,"Hel":11726,"ĠAway":11727,"album":11728,"ĠPublications":11729,"Ġdealing":11730,"235":11731,"ĠFaculty":11732,"Ġ1887":11733,"ĠImm":11734,"ĠCarr":11735,"ĠCome":11736,"making":11737,"Ġstating":11738,"Ġsubsc":11739,"Ġscen":11740,"Ġguarant":11741,"Ġvaluable":11742,"Ġphotographs":11743,"pel":11744,"rano":11745,"ĠPicture":11746,"alks":11747,"ĠGiants":11748,"erness":11749,"Kn":11750,"Mor":11751,"Ġimplementation":11752,"lived":11753,"Ġartificial":11754,"Ġconcluded":11755,"sequently":11756,"Ġproductions":11757,"ĠOperations":11758,"Ġsoap":11759,"Ġrevol":11760,"165":11761,"ĠChester":11762,"ĠNote":11763,"Ġcomfort":11764,"artet":11765,".-":11766,"Ġfer":11767,"ĠRus":11768,"ĠStories":11769,"Ġquiet":11770,"attered":11771,"Ġchampions":11772,"Ġrebuilt":11773,"ĠActress":11774,"ĠRelations":11775,"ĠComedy":11776,"Ġsharp":11777,"ĠTreas":11778,"opl":11779,"ĠHero":11780,"ĠMyster":11781,"ĠRu":11782,"ĠKur":11783,"Ġpian":11784,"acker":11785,"187":11786,"BO":11787,"ĠPeru":11788,"Ġnam":11789,"ĠVict":11790,"153":11791,"Source":11792,"ĠFras":11793,"Ġuniversal":11794,"Ġmonster":11795,"sf":11796,"Ġphenomenon":11797,"ĠSuz":11798,"Ġlegislature":11799,"anti":11800,"Ġcongress":11801,"bone":11802,"Ġsin":11803,"Ġcanal":11804,"Ġprocedure":11805,"ĠOpt":11806,"ĠPresent":11807,"shaped":11808,"ĠHav":11809,"athon":11810,"Ġowns":11811,"Ġ1888":11812,"Ul":11813,"aran":11814,"Ġeconomics":11815,"ĠSurvey":11816,"ĠColumbus":11817,"ĠProduction":11818,"ĠLag":11819,"enos":11820,"Ġquar":11821,"anto":11822,"Four":11823,"aiden":11824,"ĠWatson":11825,"uer":11826,"____":11827,"Ġburned":11828,"Ġacknowled":11829,"ĠBM":11830,"only":11831,"Ġrhythm":11832,"Ġ1863":11833,"Ġsovere":11834,"ĠIT":11835,"Ġstrange":11836,"ĠRenaissance":11837,"ĠWel":11838,"Ġoxygen":11839,"Ġprogressive":11840,"ĠCardinal":11841,"ĠLie":11842,"Ġerr":11843,"Education":11844,"Ġ1864":11845,"ĠSimpson":11846,"Ġdanger":11847,"ĠLuis":11848,"Ġpermission":11849,"Ġdescendants":11850,"iast":11851,"Ġcow":11852,"Ġcongreg":11853,"Ġrestricted":11854,"ĠEssex":11855,"mill":11856,"ĠFrances":11857,"tic":11858,"Ġdemands":11859,"Ġcollapse":11860,"ĠStage":11861,"Ġsacrif":11862,"Daniel":11863,"Ġattending":11864,"rise":11865,"!!":11866,"Ġarrive":11867,"Ġmonument":11868,"ĠRav":11869,"Ġstrategic":11870,"grim":11871,"tershire":11872,"ipher":11873,"Ġunderstood":11874,"Ġdiscussed":11875,"iche":11876,"kov":11877,"olition":11878,"ĠJa":11879,"usually":11880,"Ġ1865":11881,"icing":11882,"Ġlb":11883,"ĠOg":11884,"Ġbusinessman":11885,"Ġmagnetic":11886,"Ġtraveled":11887,"ĠSecondary":11888,"Ġfriendship":11889,"Ġcharter":11890,"ĠSut":11891,"Ġanchor":11892,"Ġmixture":11893,"ĠBreak":11894,"ĠByzantine":11895,"Ġrepair":11896,"left":11897,"Ġlabels":11898,"jab":11899,"Ġwarfare":11900,"Ġguilty":11901,"Ġ110":11902,"ĠFlying":11903,"wind":11904,"ormal":11905,"Ġtargets":11906,"Ġplatforms":11907,"fred":11908,"ĠAL":11909,"Ġobst":11910,"ĠWorkers":11911,"ĠkW":11912,"ĠNat":11913,"1000":11914,"Ġqualified":11915,"Ġexhibition":11916,"aping":11917,"written":11918,"ĠPedro":11919,"Ġoperational":11920,"Ġhorror":11921,"Ġparticipants":11922,"ĠAmsterdam":11923,"Ġbehalf":11924,"Ġ1867":11925,"Ġmemorial":11926,"ĠCurrent":11927,"Ġstored":11928,"Ġprev":11929,"Ġfert":11930,"Ġtravels":11931,"Edward":11932,"cott":11933,"arc":11934,"Western":11935,"486":11936,"ĠGuardian":11937,"ĠPhillips":11938,"Ġvertical":11939,"Ġthir":11940,"Ġexposure":11941,"Ġties":11942,"Ġaccessible":11943,"Ġfifteen":11944,"469":11945,"Ġslave":11946,"pace":11947,"Ġintense":11948,"ĠIsle":11949,"Ġgrandfather":11950,"Ġeldest":11951,"sl":11952,"antom":11953,"Ġpronounced":11954,"236":11955,"ĠĠĠĠĠĠĠĠĠĠĠ":11956,"eras":11957,"Ġcrossed":11958,"Ġemig":11959,"south":11960,"ĠPain":11961,"iu":11962,"ribution":11963,"Wil":11964,"ĠMontgomery":11965,"orrect":11966,"VA":11967,"ĠGand":11968,"Ġpod":11969,"278":11970,"Ġconnecting":11971,"OW":11972,"ĠCrow":11973,"Ġchest":11974,"France":11975,"Ġdrivers":11976,"ĠTales":11977,"Ġnomination":11978,"ĠIraqi":11979,"Scot":11980,"Ġgods":11981,"Ġsmooth":11982,"Ġwaves":11983,"Ġquantum":11984,"Ġdoctrine":11985,"ĠTrav":11986,"Ġdrinking":11987,"acular":11988,"ĠEconomics":11989,"Do":11990,"ĠEight":11991,"Ġcomments":11992,"Ġimplemented":11993,"Ġinspiration":11994,"Ġbgcolor":11995,"Ġsurprise":11996,"ĠHerald":11997,"ĠNep":11998,"Ġadults":11999,"298":12000,"waukee":12001,"ierre":12002,"Ġenorm":12003,"Ġsubsidiary":12004,"Ġcreator":12005,"440":12006,"yler":12007,"Ġdirectors":12008,"Ġty":12009,"ĠBav":12010,"ĠWilhelm":12011,"Ġradar":12012,"Ġwait":12013,"ĠVenice":12014,"ĠSpencer":12015,"288":12016,"Ġtrick":12017,"Ġsuccession":12018,"Ġ2008":12019,"ignated":12020,"Ġbirthday":12021,"Ġevac":12022,"Ġfeeling":12023,"ĠNathan":12024,"Ġitem":12025,"elfare":12026,"ĠGund":12027,"Ġpilots":12028,"ĠPrad":12029,"Ġ1886":12030,"625":12031,"ĠTyp":12032,"levard":12033,"Ġcomparison":12034,"ĠRabbi":12035,".).":12036,"Works":12037,"span":12038,"Ġvirus":12039,"ĠSullivan":12040,"alling":12041,"ylon":12042,"ĠNan":12043,"Ġgift":12044,"Ġcutting":12045,"Bre":12046,"Ġoverseas":12047,"Ġconfess":12048,"ieve":12049,"Cy":12050,"ĠKos":12051,"ĠWik":12052,"Ġve":12053,"Ġspending":12054,"Ġsignals":12055,"Ġallies":12056,"cano":12057,"ĠMul":12058,"Ġcompens":12059,"Ġestablishing":12060,"maker":12061,"appa":12062,"Ġdesignation":12063,"ĠArtist":12064,"brook":12065,"pled":12066,"original":12067,"ĠPut":12068,"tingham":12069,"ĠMusical":12070,"ĠBerg":12071,"rooms":12072,"Ġarena":12073,"Ġqueen":12074,"Ġmainland":12075,"ĠAngels":12076,"ĠPhysics":12077,"ĠPlaces":12078,"Den":12079,"ĠHelen":12080,"Ġsuddenly":12081,"CW":12082,"tes":12083,"Ġpulled":12084,"ĠMadison":12085,"Ġproperly":12086,"ĠSlav":12087,"Ġtravelled":12088,"Central":12089,"325":12090,"iem":12091,"ĠPoll":12092,"ĠKor":12093,"Ġguests":12094,"ĠLor":12095,"ĠCommerce":12096,"Ġdisband":12097,"ungle":12098,"Ġsiege":12099,"Ġmilk":12100,"nan":12101,"Ġblog":12102,"ĠDouble":12103,"ĠAthletic":12104,"oan":12105,"brev":12106,"Ġplacing":12107,"ambig":12108,"Mur":12109,"ĠProfessional":12110,"Ġpermitted":12111,"ĠTodd":12112,"Ġdiet":12113,"Crit":12114,"ĠMunich":12115,"EA":12116,"card":12117,"Ġfiring":12118,"Ġobjective":12119,"abl":12120,"ĠSony":12121,"gary":12122,"420":12123,"oyage":12124,"Ġdeployed":12125,"Bus":12126,"ĠSA":12127,"499":12128,"Ġencounter":12129,"ĠLebanon":12130,"arms":12131,"ĠSz":12132,"Ġgauge":12133,"Birth":12134,"ĠWald":12135,"ĠFab":12136,"Ġcreates":12137,"Ġorganic":12138,"Sem":12139,"Ġrealized":12140,"Ġaffect":12141,"ĠWag":12142,"strument":12143,"Ġporn":12144,"Ġcompound":12145,"ĠWithout":12146,"Ġhomepage":12147,"ĠShar":12148,"1947":12149,"Ġlocomotives":12150,"Ġ1882":12151,"Ġaffiliate":12152,"Ġanalog":12153,"ĠRush":12154,"Ġworst":12155,"Ġalgorithm":12156,"Ġconclusion":12157,"ansk":12158,"Ġbreaks":12159,"Brian":12160,"Ġdisk":12161,"Ġarmor":12162,"399":12163,"piracy":12164,"Ġpointed":12165,"ĠClarke":12166,"Ġcertainly":12167,"Final":12168,"vision":12169,"winning":12170,"ĠFerr":12171,"ĠHob":12172,"Ġelectricity":12173,"SW":12174,"ĠSheffield":12175,"iw":12176,"Ġrepro":12177,"ĠWoods":12178,"275":12179,"ĠValent":12180,"ĠBak":12181,"Ġcitizen":12182,"rs":12183,"Ġflour":12184,"Luc":12185,"alin":12186,"Ġholiday":12187,"Ġremix":12188,"Ġsitting":12189,"Ġintersection":12190,"Ġreverse":12191,"ĠFoster":12192,"ĠArmstrong":12193,"ĠIndustry":12194,"ĠThr":12195,"Ġspecialized":12196,"Ġputting":12197,"Ġbeings":12198,"ĠGoogle":12199,"Ġ1884":12200,"oirs":12201,"ĠJoan":12202,"Ġstronger":12203,"Ġoptions":12204,"296":12205,"ĠCompan":12206,"Ġborrow":12207,"Ġ83":12208,"379":12209,"Ġslaves":12210,"ĠKiss":12211,"Ġmathematic":12212,"Ġsuspended":12213,"Ġeliminated":12214,"Ġsweet":12215,"ĠHaz":12216,"ĠSaskatchewan":12217,"ĠIb":12218,"Each":12219,"math":12220,"Ġaboard":12221,"human":12222,"247":12223,"Ġwaiting":12224,"Ġfifty":12225,"ĠBulgaria":12226,"Ġmonarch":12227,"Ġbuses":12228,"Ġnephew":12229,"Ġsettlements":12230,"Ġdemonstrated":12231,"Ġwaste":12232,"added":12233,"ĠJuda":12234,"326":12235,"Ġconsumer":12236,"ĠHalf":12237,"ĠRonald":12238,"Ġtag":12239,"Ġdeals":12240,"Ġelabor":12241,"Ġdeliber":12242,"Ġsimultaneously":12243,"that":12244,"ĠHurricane":12245,"Ġwet":12246,"Ġsick":12247,"Ġtechnologies":12248,"Ġsle":12249,"Ġassociate":12250,"Ġtorped":12251,"Ġmaintains":12252,"ĠSuperman":12253,"ĠAgainst":12254,"Ġcompeting":12255,"UC":12256,"Ġsessions":12257,"ĠDelhi":12258,"ĠStanford":12259,"Ġelementary":12260,"Ġplanes":12261,"Ġcruc":12262,"ĠPep":12263,"Ġdelivery":12264,"Ġtalks":12265,"Ġstatements":12266,"ĠCand":12267,"Ġnecessarily":12268,"notes":12269,"Ġkills":12270,"Ġimprisoned":12271,"ds":12272,"378":12273,"iza":12274,"China":12275,"Ġ79":12276,"ĠPath":12277,"ĠCeltic":12278,"ĠPrison":12279,"ĠSoccer":12280,"ĠHaven":12281,"ĠLenn":12282,"Ġassets":12283,"dinand":12284,"Ġvirtual":12285,"entry":12286,"Ġpatent":12287,"ĠErnest":12288,"End":12289,"Rem":12290,"Ġbehaviour":12291,"Ġ73":12292,"Ġprovision":12293,"488":12294,"Commun":12295,"ĠTun":12296,"Ġjet":12297,"omes":12298,"ĠBod":12299,"Ġtrig":12300,"etics":12301,"speaking":12302,"ĠLac":12303,"Ġindigenous":12304,"276":12305,"ĠLegion":12306,"Ol":12307,"ĠRetrieved":12308,"Ġbone":12309,"\":":12310,"ĠHarper":12311,"thlete":12312,"Ġgear":12313,"Ġrunner":12314,"Ġsquadron":12315,"boards":12316,"arked":12317,"Ġhybrid":12318,"ĠMontana":12319,"through":12320,"389":12321,"Ġcaps":12322,"FO":12323,"Sur":12324,"Ġsax":12325,"Royal":12326,"beat":12327,"Ġtraded":12328,"listed":12329,"ups":12330,"Ġpartial":12331,"Martin":12332,"Ġbeam":12333,"ĠXX":12334,"Ġtub":12335,"Ġextend":12336,"Short":12337,"ĠPrest":12338,"Ġsending":12339,"ĠFriedrich":12340,"rag":12341,"Ġfaces":12342,"Ġdeparted":12343,"Ġisolated":12344,"ĠNewcastle":12345,"Ġtermin":12346,"Several":12347,"Ġcollaps":12348,"Ġtruly":12349,"ĠGT":12350,"Ġtel":12351,"Ġ71":12352,"Ġdece":12353,"ĠDuc":12354,"ĠWells":12355,"Ġextinct":12356,"Ġbats":12357,"sup":12358,"Ġ1881":12359,"Ġvector":12360,"ĠAbu":12361,"Ġviewers":12362,"Ġsang":12363,"458":12364,"ĠDid":12365,"ĠCorp":12366,"Ġrecommend":12367,"Ġforb":12368,"Ġlicensed":12369,"Ġ@":12370,"Ġaster":12371,"ĠIC":12372,"Ġdebuted":12373,"icia":12374,"kar":12375,"Ġstops":12376,"ternoon":12377,"ĠVirt":12378,"ĠMend":12379,"ĠIP":12380,"Ġattitude":12381,"Ġconfusion":12382,"Its":12383,"Ġrebellion":12384,"ĠGeoff":12385,"hy":12386,"itic":12387,"1946":12388,"Ġduo":12389,"Ġpartners":12390,"Ġmerchant":12391,"Ġforty":12392,"Through":12393,"Ġpremi":12394,"Ġreaders":12395,"ĠEyes":12396,"ĠChapel":12397,"Ġbears":12398,"Ġmeasured":12399,"iya":12400,"Ġble":12401,"498":12402,"ĠFinance":12403,"Ġkinds":12404,"Ġrecipient":12405,"Ġspoke":12406,"ĠLakes":12407,"umably":12408,"Ġsuburbs":12409,"gray":12410,"ento":12411,"Ġtea":12412,"ĠNASA":12413,"Jac":12414,"Ġgirlfriend":12415,"Ġsolutions":12416,"turn":12417,"Ġexplosion":12418,"111":12419,"sche":12420,"Ġempty":12421,"Ġresource":12422,"Ġmall":12423,"Ġsocieties":12424,"ĠOthers":12425,"Ġdisappeared":12426,"ĠSoph":12427,"ema":12428,"Ġcosm":12429,"ĠJacques":12430,"Ġdiseases":12431,"ĠLeonard":12432,"Ġcavalry":12433,"House":12434,"Ġ1876":12435,"ishers":12436,"ĠCred":12437,"Ġencountered":12438,"Ġfallen":12439,"Ġessay":12440,"Ġpresents":12441,"Ġclassification":12442,"ĠHolmes":12443,"ĠLon":12444,"ĠPetersburg":12445,"oser":12446,"277":12447,"Ġphotographer":12448,"Ġmatrix":12449,"Ġbrings":12450,"ylan":12451,"Ġvolt":12452,"Smith":12453,"Ġfitted":12454,"viously":12455,"Scale":12456,"ĠVIII":12457,"ĠWed":12458,"Jon":12459,"Ġjudges":12460,"UP":12461,"Episode":12462,"mons":12463,"295":12464,"ivic":12465,"Ġexpand":12466,"Ma":12467,"ĠWord":12468,"Ġwindows":12469,"Ġstrengthen":12470,"Ġfinals":12471,"Ġerected":12472,"Ġdepartments":12473,"pher":12474,"alis":12475,"owship":12476,"Ġretain":12477,"Ġexha":12478,"Ġfee":12479,"ĠFourth":12480,"385":12481,"Ġrevolutionary":12482,"Ġfulf":12483,"urai":12484,"Ġnut":12485,"ĠNad":12486,"Ġflew":12487,"Ġcloud":12488,"ĠBeast":12489,"ĠApost":12490,"uber":12491,"152":12492,"Ġreduction":12493,"ountry":12494,"Ġblues":12495,"ĠLucas":12496,"ĠInsp":12497,"297":12498,"Special":12499,"SM":12500,"ede":12501,"ĠBros":12502,"386":12503,"EM":12504,"Song":12505,"hm":12506,"Ġdevelopments":12507,"ĠPalm":12508,"ĠBened":12509,"Ġweekend":12510,"Ġelevation":12511,"ĠBeatles":12512,"Ġattraction":12513,"Ġnit":12514,"Ġspeaker":12515,"Ġlibr":12516,"ĠBrooks":12517,"Ġannex":12518,"Ġcolonies":12519,"ĠRevolutionary":12520,"Ġvic":12521,"ĠFlash":12522,"Ġdifficulties":12523,"377":12524,"ĠTake":12525,"Victor":12526,"ĠKath":12527,"gence":12528,"olin":12529,"arat":12530,"Ġng":12531,"ĠBachelor":12532,"Ġmad":12533,"ĠContemporary":12534,"Ġgolden":12535,"ĠBennett":12536,"Ġthrown":12537,"ĠJen":12538,"ĠBrisbane":12539,"oline":12540,"Ġ105":12541,"468":12542,"occo":12543,"Ġfacilit":12544,"ounce":12545,"Ġgraduating":12546,"piece":12547,"489":12548,"357":12549,"Ġdestroyer":12550,"Ġpitcher":12551,"inja":12552,"Ġtorn":12553,"ĠHamb":12554,"Colors":12555,"ovan":12556,"eto":12557,"Ġtransc":12558,"Ġmathematical":12559,"esse":12560,"Ġbombing":12561,"ĠFiction":12562,"Ġ1868":12563,"287":12564,"Ġmanufacturers":12565,"Ġfoss":12566,"Ġdebt":12567,"ĠPerth":12568,"eri":12569,"amon":12570,"ĠTestament":12571,"Dep":12572,"Ġfib":12573,"359":12574,"Ġconsiderably":12575,"empl":12576,"rint":12577,"Ġlegit":12578,"Ġsignificance":12579,"Ġrating":12580,"rage":12581,"Ġ1871":12582,"Ġcoffee":12583,"ieu":12584,"Del":12585,"Ġcomedian":12586,"Ġparad":12587,"Ġjudg":12588,"Ġcoinc":12589,"Ġlowest":12590,"high":12591,"tar":12592,"285":12593,"ĠSource":12594,"ĠCollect":12595,"ependent":12596,"Ġfarming":12597,"Who":12598,"Ġsignature":12599,"Ġratings":12600,"ĠCombat":12601,"rank":12602,"Ġclosing":12603,"ĠPopular":12604,"Ġfighters":12605,"Ġwider":12606,"rh":12607,"ATO":12608,"425":12609,"Ġ1878":12610,"Ġsisters":12611,"ĠSox":12612,"ĠAnnual":12613,"herent":12614,"Ġautomatic":12615,"FS":12616,"Ġthorough":12617,"ĠWant":12618,"itus":12619,"Ġbull":12620,"ĠHerm":12621,"206":12622,"EG":12623,"Ġfocuses":12624,"soc":12625,"ĠFIFA":12626,"ĠGn":12627,"ĠMobile":12628,"ĠRoth":12629,"rgb":12630,"Ġexecut":12631,"Ġchemistry":12632,"ĠCox":12633,"oyle":12634,"Ġdestination":12635,"hour":12636,"ĠRaid":12637,"ĠCust":12638,"Ġclosest":12639,"Canada":12640,"avian":12641,"ablished":12642,"Though":12643,"Ġfluid":12644,"Ġpioneer":12645,"Ġmanages":12646,"ocity":12647,"ĠBarcelona":12648,"Ġbin":12649,"borg":12650,"made":12651,"cycle":12652,"Ġacoustic":12653,"Ġsymbols":12654,"Ġsav":12655,"356":12656,"dal":12657,"ĠMC":12658,"ingers":12659,"Ġprox":12660,"HA":12661,"ĠDrama":12662,"arded":12663,"Ġaccomplished":12664,"ĠMethodist":12665,"Ġchrom":12666,"ĠRice":12667,"addy":12668,"Ġlaser":12669,"barra":12670,"ĠTerror":12671,"atible":12672,"184":12673,"Ġinfrastructure":12674,"Ġimpressive":12675,"ĠFlorence":12676,"ladesh":12677,"ĠHenri":12678,"1920":12679,"ĠBes":12680,"ĠAviation":12681,"ĠGeneration":12682,"ben":12683,"182":12684,"Ġcurrency":12685,"anic":12686,"Ġmentions":12687,"Ġdescribing":12688,"Av":12689,"ĠNapoleon":12690,"Ġpreparation":12691,"Ġconsistent":12692,"ĠFig":12693,"istent":12694,"Ġmagical":12695,"Gre":12696,"ĠPract":12697,"Ġinternationally":12698,"174":12699,"ĠRepresentative":12700,"Ġhypothes":12701,"ĠSpart":12702,"Ġgallery":12703,"Ġphon":12704,"Ġdeputy":12705,"Ġisn":12706,"Ġseriously":12707,"Ġstolen":12708,"ĠSingles":12709,"Att":12710,"roat":12711,"ĠSter":12712,"ĠPM":12713,"ustrated":12714,"held":12715,"Ġongoing":12716,"333":12717,"Ġearthqu":12718,"ĠEU":12719,"walk":12720,"ĠBrid":12721,"ĠHarm":12722,"164":12723,"ĠPlayers":12724,"Bu":12725,"Gr":12726,"Ġchess":12727,"Spanish":12728,"376":12729,"306":12730,"Ġpackage":12731,"479":12732,"Ġavo":12733,"ĠMidd":12734,"ĠCoach":12735,"ĠBach":12736,"ĠBag":12737,"rable":12738,"ĠLeeds":12739,"Ġcave":12740,"Ġabolished":12741,"368":12742,"ials":12743,"ijing":12744,"308":12745,"edo":12746,"Ġdiscovers":12747,"Ġprogrammes":12748,"colm":12749,"Ġparticles":12750,"garian":12751,"Ġexile":12752,"onica":12753,"Ġabbrev":12754,"ĠCant":12755,"Ġportions":12756,"icist":12757,"Ġconvert":12758,"ĠPick":12759,"Ġapproaches":12760,"ĠWestminster":12761,"Ġequally":12762,"459":12763,"Ġvocalist":12764,"avier":12765,"essa":12766,"Ġdemocracy":12767,"oil":12768,"Ġdisturb":12769,"lu":12770,"Ġgate":12771,"Ġgender":12772,"century":12773,"Ġfarmers":12774,"ĠSerbian":12775,"urse":12776,"eca":12777,"Ġinfer":12778,"playing":12779,"Ġrational":12780,"ĠSingle":12781,"warf":12782,"ipedia":12783,"467":12784,"Ġpredecessor":12785,"ĠRif":12786,"ĠElection":12787,"Ġrevenge":12788,"Ġhier":12789,"ĠBody":12790,"onduct":12791,"Ġphysician":12792,"ĠHawk":12793,"Ġvillain":12794,"umped":12795,"ulsion":12796,"Ġgif":12797,"ĠHood":12798,"Ġfabric":12799,"ĠRobot":12800,"Open":12801,"ĠGas":12802,"Ġinvolve":12803,"ONE":12804,"ĠOakland":12805,"overed":12806,"Ġkids":12807,"Ġdenomin":12808,"oning":12809,"ĠKin":12810,"Ġsubt":12811,"onge":12812,"456":12813,"Ġdevast":12814,"ĠNEAT":12815,"ste":12816,"ĠStatistics":12817,"192":12818,"Ġ1848":12819,"Ġ1879":12820,"Ġassisted":12821,"ĠManuel":12822,"----------------":12823,"Ġfiled":12824,"speed":12825,"ĠUkrainian":12826,"ifier":12827,"uchi":12828,"??":12829,"Ġquoted":12830,"Ġtaxes":12831,"Ġampl":12832,"Ġnurs":12833,"ĠHim":12834,"Ġmuscle":12835,"Ġinnings":12836,"Ġinject":12837,"prus":12838,"ĠOtto":12839,"ĠDod":12840,"Ġapproval":12841,"ĠShir":12842,"ĠMom":12843,"second":12844,"ĠRemix":12845,"Ġrevival":12846,"erves":12847,"Ġkeyboards":12848,"xx":12849,"Ġtoler":12850,"ĠThom":12851,"Ġtemperatures":12852,"496":12853,"ĠReich":12854,"Wood":12855,"Ġcustomer":12856,"boys":12857,"466":12858,"ĠConstruction":12859,"Syn":12860,"Ġprosp":12861,"handed":12862,"Ġcattle":12863,"Ġentity":12864,"369":12865,"Ġpromoting":12866,"ĠDawn":12867,"blem":12868,"Ġeating":12869,"268":12870,"IX":12871,"Ġtours":12872,"Ġpounds":12873,"outheastern":12874,"Ġfortress":12875,"ĠDaw":12876,"465":12877,"Det":12878,"CR":12879,"ĠCruz":12880,"arre":12881,"Ġadventure":12882,"ĠHave":12883,"otions":12884,"aternal":12885,"163":12886,"Ġsigning":12887,"Ġorange":12888,"eu":12889,"Ġrelevant":12890,"ĠEngineer":12891,"Ġhang":12892,"Ġmoderate":12893,"ĠKra":12894,"485":12895,"Ġviolin":12896,"Ġaka":12897,"anese":12898,"ĠFurthermore":12899,"Ġprivile":12900,"anian":12901,"ĠChancellor":12902,"ĠTruth":12903,"ĠMob":12904,"grade":12905,"roid":12906,"Ġvisits":12907,"Ġrespective":12908,"Doc":12909,"erek":12910,"Ġmedals":12911,"ĠGabriel":12912,"ĠTibet":12913,"Ġ1873":12914,"Ġregulations":12915,"orded":12916,"Ġasking":12917,"ĠEve":12918,"ĠNewfoundland":12919,"Ġpassion":12920,"ghai":12921,"Ġposted":12922,"Ġrelating":12923,"ĠFolk":12924,"ussex":12925,"Ġtenure":12926,"Ġshorter":12927,"Ġunw":12928,"Ġthereby":12929,"Ġtransformed":12930,"1935":12931,"ĠDuncan":12932,"Ġsymptoms":12933,"kees":12934,"ĠVern":12935,"309":12936,"1944":12937,"ĠReference":12938,"ĠXV":12939,"Ġticket":12940,"inery":12941,"Ġcompact":12942,"Chinese":12943,"Law":12944,"byter":12945,"Ġinherited":12946,"ĠChallenge":12947,"194":12948,"acking":12949,"Ġsciences":12950,"itudes":12951,"ĠBlock":12952,"Ġtherapy":12953,"ĠTang":12954,"ĠNy":12955,"Ġalumni":12956,"ĠGaz":12957,"ĠRan":12958,"Ġscandal":12959,"Ġdrafted":12960,"Ġrepeatedly":12961,"ĠKun":12962,"DR":12963,"Ġfier":12964,"Ġdying":12965,"Ġ1874":12966,"Ġpunishment":12967,"ĠTournament":12968,"388":12969,"irms":12970,"Ġstriking":12971,"Ġreward":12972,"Ġacquis":12973,"ĠBoulevard":12974,"rina":12975,"asses":12976,"495":12977,"Ġanthrop":12978,"Ġvenue":12979,"Ġages":12980,"Ġrecognised":12981,"ĠKate":12982,"476":12983,"Ġinitiated":12984,"ĠCosta":12985,"Ġclar":12986,"ĠJunction":12987,"UT":12988,"Ġtherm":12989,"nton":12990,"ĠSaw":12991,"ĠStevens":12992,"backs":12993,"Ġorchest":12994,"269":12995,"1937":12996,"ĠSelf":12997,"358":12998,"ĠOwen":12999,"Ġdefine":13000,"ĠCore":13001,"208":13002,"Lord":13003,"haus":13004,"onso":13005,"ĠCrystal":13006,"ĠAdvanced":13007,"Ġprisoner":13008,"ĠKash":13009,"ĠTrue":13010,"his":13011,"Ġbrew":13012,"Ġdisorder":13013,"Ġseverely":13014,"Ġdrag":13015,"ĠSeg":13016,"ĠBeth":13017,"Ġapprec":13018,"alian":13019,"Ġbelonging":13020,"PlotData":13021,"Ġallegedly":13022,"ĠRut":13023,"lightgrey":13024,"ĠCraw":13025,"Ġcharity":13026,"ĠSomerset":13027,"ĠSwan":13028,"orum":13029,"ĠVin":13030,"387":13031,"ĠLaboratory":13032,"Ġterrorist":13033,"Ġoccasional":13034,"Ġshock":13035,"Mic":13036,"uli":13037,"478":13038,"Ġpsychology":13039,"Ġgrey":13040,"Ġheroes":13041,"ĠBelf":13042,"ĠReading":13043,"Ġpushed":13044,"Ġprinting":13045,"Hung":13046,"Ġhide":13047,"Ġfacts":13048,"ĠLiu":13049,"Ġforum":13050,"ĠEt":13051,"Ġ1840":13052,"ĠChan":13053,"183":13054,"ĠTech":13055,"173":13056,"ĠCycl":13057,"ĠPiano":13058,"ĠSpect":13059,"Singles":13060,"Tony":13061,"Ġdin":13062,"ĠFBI":13063,"PR":13064,"istration":13065,"lain":13066,"ĠAircraft":13067,"Ġhomosexual":13068,"Ur":13069,"ĠEdmund":13070,"sole":13071,"ĠFlag":13072,"ĠStrat":13073,"ĠFranz":13074,"Ġstem":13075,"Ġ1875":13076,"Ġhurricane":13077,"Ġconductor":13078,"Ġvoters":13079,"Ġtale":13080,"487":13081,"uania":13082,"Ġdestroying":13083,"nic":13084,"1938":13085,"Ġ1872":13086,"Ġtoll":13087,"ĠEin":13088,"398":13089,"Ġswitched":13090,"ĠParks":13091,"si":13092,"oding":13093,"gart":13094,"Ġeighth":13095,"uced":13096,"Ġdancing":13097,"ĠSent":13098,"1941":13099,"ĠCS":13100,"rica":13101,"ĠGonz":13102,"Ġsupposedly":13103,"Ġgaining":13104,"ĠRuth":13105,"Ġtemporarily":13106,"eme":13107,"imus":13108,"Ġwinds":13109,"ĠLevel":13110,"Former":13111,"ĠGibson":13112,"Profess":13113,"ecca":13114,"osl":13115,"Ġbutter":13116,"Among":13117,"Ġfootage":13118,"ingen":13119,"Ġpatri":13120,"ĠProvincial":13121,"Ġlakes":13122,"ĠTigers":13123,"Ġvaries":13124,"obiography":13125,"...\"":13126,"GC":13127,"Ġmessages":13128,"zed":13129,"Ġguitars":13130,"ĠMyth":13131,"497":13132,"Ġgridcolor":13133,"%;":13134,"Ġdepression":13135,"base":13136,"ĠMik":13137,"imensions":13138,"darkgrey":13139,"162":13140,"266":13141,"Ġvaried":13142,"Where":13143,"asted":13144,"Ġrevised":13145,"ĠNevertheless":13146,"IDS":13147,"ku":13148,"560":13149,"Ġpoliticians":13150,"Ġuncertain":13151,"ĠNancy":13152,"Mid":13153,"ĠJudaism":13154,"ĠAF":13155,"Ġdrives":13156,"uckland":13157,"ipeg":13158,"193":13159,"ĠPeng":13160,"missioned":13161,"ĠDy":13162,"366":13163,"Ġautomatically":13164,"Charl":13165,"heel":13166,"365":13167,"Ġgenerations":13168,"ĠCroatia":13169,"anyon":13170,"Ġarriving":13171,"ĠAaron":13172,"ĠMilwaukee":13173,"Ġhumanity":13174,"Ġlieutenant":13175,"Greg":13176,"opened":13177,"acco":13178,"Ġoperators":13179,"four":13180,"Ġtox":13181,"ĠSearch":13182,"Fore":13183,"ĠButter":13184,"ĠResources":13185,"ĠKids":13186,"Ġprosper":13187,"ĠCompetition":13188,"Ġreducing":13189,"ĠGospel":13190,"ĠBirth":13191,"Ġbeating":13192,"Ġreporting":13193,"Ġsamples":13194,"ĠHighland":13195,"prene":13196,"Ġdisag":13197,"Ġtribut":13198,"Ġcurric":13199,"Ġsoci":13200,"Ġmamm":13201,"Ġlocomotive":13202,"vol":13203,"sfondo":13204,"Ġnegotiations":13205,"Arab":13206,"airo":13207,"ĠDurham":13208,"rible":13209,"Ġrestoration":13210,"Ġ1883":13211,"regular":13212,"Ġbridges":13213,"Ġdiscontin":13214,"1942":13215,"ĠMarcus":13216,"Ġtaste":13217,"Ġpole":13218,"Writ":13219,"Ġbio":13220,"Ġpray":13221,"Div":13222,"quin":13223,"ĠSou":13224,"Ġpap":13225,"andra":13226,"ĠVenezuela":13227,"Ġcorruption":13228,"ĠRomans":13229,"ĠJedi":13230,"Ġdragon":13231,"aternity":13232,"sion":13233,"went":13234,"ĠTall":13235,"igation":13236,"Ġtrials":13237,"legiate":13238,"Australia":13239,"1918":13240,"forced":13241,"Ġburning":13242,")-":13243,"etown":13244,"Ġ1877":13245,"ĠTeen":13246,"Ġgrave":13247,"ĠProcess":13248,"inned":13249,"ĠCabinet":13250,"length":13251,"ĠJin":13252,"Ġspl":13253,"ĠShi":13254,"ĠBurns":13255,"Book":13256,"Les":13257,"Ġfuneral":13258,"Ġaltitude":13259,"oriented":13260,"ĠFinancial":13261,"Ġbread":13262,"Ġinch":13263,"Ġpill":13264,"ĠSaudi":13265,"ullah":13266,"namese":13267,"Ġgardens":13268,"ĠBaronet":13269,"Ġhappens":13270,"ĠTab":13271,"Ġobser":13272,"Ġprototype":13273,"Ġpeer":13274,"Ġhistorically":13275,"ĠIng":13276,"Ġministry":13277,"vor":13278,"457":13279,"Ġtip":13280,"ĠDuck":13281,"Personnel":13282,"GS":13283,"reprene":13284,"azi":13285,"Republican":13286,"ĠWarri":13287,"ĠProtection":13288,"ĠProducer":13289,"Ġmetropolitan":13290,"Ġcopper":13291,"Net":13292,"Ġundergraduate":13293,"ĠDoug":13294,"Ġsurname":13295,"ĠJoint":13296,"Ġvital":13297,"Free":13298,"Ġcopyright":13299,"ĠHomepage":13300,"Ġballs":13301,"ĠPS":13302,"ewatch":13303,"ĠJulian":13304,"this":13305,"Ġcorps":13306,"ĠCaesar":13307,"Ġacclaimed":13308,"Ġsteep":13309,"Ġhopes":13310,"ĠArabia":13311,"Ger":13312,"owing":13313,"477":13314,"Land":13315,"Ġenormous":13316,"iba":13317,"ĠKrist":13318,"ĠFranco":13319,"Ġgraphic":13320,"ĠSR":13321,"Atl":13322,"Ġleaf":13323,"imer":13324,"Ġclothes":13325,"ambiguation":13326,"Ġports":13327,"Ġranking":13328,"Ġdemon":13329,"550":13330,"ĠChes":13331,"ĠEdge":13332,"ĠYang":13333,"tto":13334,"ados":13335,"ripp":13336,"Ġdisplays":13337,"eneration":13338,"girl":13339,"ĠAndrews":13340,"ĠObl":13341,"Ġreforms":13342,"iscopal":13343,"ĠInst":13344,"Ġstudios":13345,"ĠAdvis":13346,"Ġgrandson":13347,"ĠChin":13348,"Ġseed":13349,"iker":13350,"Ġemotional":13351,"Ġranges":13352,"lesh":13353,"Ġcorporation":13354,"ĠFilip":13355,"ĠNashville":13356,"ĠNAS":13357,"ĠAirways":13358,"267":13359,"Ġapproached":13360,"phis":13361,"Ġforcing":13362,"ordinary":13363,"ĠRever":13364,"121":13365,"live":13366,"Ġreveal":13367,"ogg":13368,"367":13369,"Ġderiv":13370,"';":13371,"ĠMechan":13372,"igi":13373,"Ġjoins":13374,"Ġdemocratic":13375,"Ġtrademark":13376,"Ġprobability":13377,"580":13378,"Ġcommunist":13379,"Ġabsolute":13380,"Vir":13381,"ĠPaper":13382,"usa":13383,"Ġresearchers":13384,"ĠBanks":13385,"ĠEston":13386,"Ġjew":13387,"anz":13388,"Ġgathered":13389,"ĠWorth":13390,"ĠHir":13391,"Ġsurrender":13392,"Ġpin":13393,"ĠCroatian":13394,"Ġnamely":13395,"IF":13396,"phant":13397,"ĠWellington":13398,"Ġmask":13399,"207":13400,"172":13401,"ĠMt":13402,"Ġrever":13403,"Australian":13404,"Ġhanded":13405,"ĠLil":13406,"TR":13407,"lean":13408,"Ġremoval":13409,"ĠCyr":13410,"Franc":13411,"ĠKum":13412,"393":13413,"Ġmaintaining":13414,"ĠMade":13415,"ĠKurt":13416,")\";":13417,"ĠRA":13418,"Ġshots":13419,"Ġencomp":13420,"Ġmissiles":13421,"ĠMine":13422,"ahan":13423,"path":13424,"Ġju":13425,"Ġinteraction":13426,"Ġactively":13427,"ikes":13428,"Ġsecular":13429,"ĠParliamentary":13430,"Bul":13431,"ĠBuffy":13432,"Ġfestivals":13433,"ellers":13434,"ĠColombia":13435,"Ġarbit":13436,"Ġaccessed":13437,"ĠHeavyweight":13438,"397":13439,"Ġremarkable":13440,"Ġdistinguish":13441,"Ġdonated":13442,"Ġdialogue":13443,"ĠUnderground":13444,"monton":13445,"Ġelite":13446,"onstruct":13447,"Of":13448,"earance":13449,"Ġsummon":13450,"ĠThing":13451,"ĠYugoslavia":13452,"ĠChase":13453,"Ġquad":13454,"ĠAttack":13455,"Ġhyd":13456,"Ġinterchange":13457,"ĠAmbass":13458,"Total":13459,"ĠMHz":13460,"396":13461,"Ġresponded":13462,"Jud":13463,"pine":13464,"Ġsymmet":13465,"ĠMaurice":13466,"Web":13467,"Ġtheology":13468,"Ġhandling":13469,"Jew":13470,"Ġlock":13471,"Ġdesired":13472,"265":13473,"ĠWarsaw":13474,"Ġtasks":13475,"VP":13476,"ocolate":13477,"termin":13478,"hibition":13479,"Ġwarning":13480,"Ġveteran":13481,"Ġbicy":13482,"Ġsharing":13483,"307":13484,"ĠPanama":13485,"Ġhorizont":13486,"Mu":13487,"ĠDol":13488,"Ġteeth":13489,"Ġcompleting":13490,"Ġparking":13491,"illon":13492,"assy":13493,"Ġupdated":13494,"Ġprayer":13495,"ĠBru":13496,"Ġadjust":13497,"Ġhydrogen":13498,"ĠMs":13499,"Lake":13500,"agne":13501,"ospitals":13502,"395":13503,"224":13504,"mus":13505,"ĠPotter":13506,"anie":13507,"Ġyard":13508,"Ġ1869":13509,"Ġ103":13510,"adier":13511,"Ġprepare":13512,"292":13513,"Cor":13514,").;":13515,"ĠSpacewatch":13516,"eting":13517,"ĠGat":13518,"odor":13519,"Ġ`":13520,"furt":13521,"355":13522,"ĠWarriors":13523,"ĠSierra":13524,"rier":13525,"ĠBuddhism":13526,"ĠProper":13527,"NS":13528,"ische":13529,"pit":13530,"Ġ1866":13531,"embourg":13532,"uum":13533,"zig":13534,"Ġtong":13535,"employ":13536,"Ġopposing":13537,"Ġlifetime":13538,"Ġlying":13539,"1900":13540,"plane":13541,"ĠExamples":13542,"ĠDerby":13543,"Ġmanual":13544,"ĠWis":13545,"ĠChart":13546,"Ġextends":13547,"Bad":13548,"cap":13549,"ĠMathematics":13550,"Ġfunctional":13551,"ĠEagles":13552,"Ġmarine":13553,"284":13554,"Ġfights":13555,"Ġwhatever":13556,"Ġdepends":13557,"Ġpromised":13558,"orde":13559,"Di":13560,"Ġaccidentally":13561,"ĠAthletics":13562,"Ġdubbed":13563,"Ġsongwriter":13564,"TP":13565,"Ġdiscrim":13566,"idance":13567,"Ġbreath":13568,"music":13569,"Ġsq":13570,"ensen":13571,"ĠShore":13572,"Ġ00":13573,"incorporated":13574,"ĠSword":13575,"ividual":13576,"ĠZero":13577,"Ġarchitectural":13578,"ovanni":13579,"ĠOrd":13580,"475":13581,"Ġ700":13582,"Scotland":13583,"ĠChair":13584,"EFA":13585,"likely":13586,"Ġrice":13587,"ĠDrum":13588,"ĠClear":13589,"Ġnaturally":13590,"ĠEnvironmental":13591,"Ġincl":13592,"Head":13593,"Ġqualify":13594,"ĠPunjab":13595,"usty":13596,"ĠPalestinian":13597,"Ġjail":13598,"iott":13599,"Tra":13600,"ĠArist":13601,"Ġdischar":13602,"Ġseemingly":13603,"ĠSchol":13604,"Ġtravelling":13605,"ications":13606,"Ġrecognize":13607,"cock":13608,"Amendment":13609,"rovers":13610,"ĠSey":13611,"eness":13612,"lican":13613,"ĠGren":13614,"ĠLions":13615,"Ġque":13616,"Originally":13617,"Ġraising":13618,"racted":13619,"sburg":13620,"Ġconnects":13621,"ĠBran":13622,"ĠPersonal":13623,"ĠMotors":13624,"Ġexcav":13625,"Ġpush":13626,"ĠCharter":13627,"ĠSpringfield":13628,"Dave":13629,"ĠEvangel":13630,"ĠStockholm":13631,"ahoo":13632,"ingle":13633,"ĠColin":13634,"pense":13635,"Ġrecovery":13636,"ĠContinental":13637,"ĠShortly":13638,"lando":13639,"aq":13640,"ĠKw":13641,"492":13642,"ambers":13643,"Ġinformed":13644,"ĠAur":13645,"Sat":13646,"Ġmic":13647,"ĠCov":13648,"ĠBund":13649,"Area":13650,"mel":13651,"Ġwheels":13652,"ĠMoney":13653,"ortheastern":13654,"Ġfewer":13655,"histor":13656,"223":13657,"nut":13658,"Ġrequiring":13659,"ĠESP":13660,"209":13661,"Ġnose":13662,"Ġorganised":13663,"ĠNottingham":13664,"293":13665,"ĠCel":13666,"Modern":13667,"Ġear":13668,"Ġdiamond":13669,"ĠClan":13670,"Ġorganisations":13671,"tz":13672,"Ġtack":13673,"Ġevident":13674,"ĠPrincipal":13675,"senal":13676,"ĠTasman":13677,"1914":13678,"ĠAB":13679,"Ġoverw":13680,"ĠGael":13681,"ĠMis":13682,"ĠBark":13683,"uta":13684,"Ġ1857":13685,"Ġhem":13686,"Ġdemolished":13687,"ĠFerdinand":13688,"eno":13689,"ĠCameron":13690,"ĠCitiz":13691,"Ġfinger":13692,"Ġtransit":13693,"273":13694,"Ġreflected":13695,"Ġventure":13696,"ĠDylan":13697,"274":13698,"Tw":13699,"Pan":13700,"Ġclients":13701,"Ġexamination":13702,"writing":13703,"1932":13704,"ĠHous":13705,"ĠSchw":13706,"Ġhelicopter":13707,"ĠMahar":13708,"ĠAlger":13709,"Ġwears":13710,"Ġwishes":13711,"ĠArmenian":13712,"Ġsubstance":13713,"Ġloved":13714,"ĠBrain":13715,"than":13716,"Ġwrestler":13717,"283":13718,"670":13719,"ĠThings":13720,"Ġphotography":13721,"ĠWesley":13722,"pany":13723,"ificate":13724,"Ġspecified":13725,"1933":13726,"ĠClare":13727,"Events":13728,"ĠPav":13729,"Ġcinema":13730,"Ġpupils":13731,"Ġdismissed":13732,"Ġfinance":13733,"onny":13734,"1929":13735,"Ġtourism":13736,"ĠDiocese":13737,"harm":13738,"Ġmissed":13739,"Ġbearing":13740,"Ġ180":13741,"ologically":13742,"ĠCities":13743,"ĠBoeing":13744,"ĠCalgary":13745,"Ġconstitute":13746,"Ġarray":13747,"Ġtends":13748,"Ġillustrated":13749,"ĠGlass":13750,"Ġvarying":13751,"ĠDeg":13752,"osely":13753,"mn":13754,"305":13755,"Ġtransformation":13756,"ĠMiles":13757,"Ġrulers":13758,"green":13759,"ĠClassical":13760,"ountain":13761,"Ġassassination":13762,"Ġartif":13763,"ĠNewport":13764,"uku":13765,"ĠAntar":13766,"reeks":13767,"ĠPine":13768,"alus":13769,"Ġing":13770,"Ash":13771,"ĠArchive":13772,"oqu":13773,"oya":13774,"Ġconservation":13775,"Andrew":13776,"374":13777,"ĠKeep":13778,"ricketer":13779,"Ġnumer":13780,"Ġ104":13781,"rine":13782,"Ġinstructions":13783,"Ġprevented":13784,"onial":13785,"atta":13786,"Ġ1830":13787,"inos":13788,"Their":13789,"oque":13790,"Ġbag":13791,"Ġthrew":13792,"Ġorn":13793,"Ġlesser":13794,"Ke":13795,"Ġwickets":13796,"ĠBasil":13797,"uzzle":13798,"Ġproven":13799,"Ġsuspension":13800,"ĠHits":13801,"ulates":13802,"iffe":13803,"ĠFant":13804,"Ġsacred":13805,"ĠBangladesh":13806,"ĠWals":13807,"ĠCord":13808,"Ġber":13809,"Ġpermit":13810,"Ġpersonally":13811,"Ġsuffer":13812,"Ġoutbreak":13813,"aa":13814,"istle":13815,"Prince":13816,"five":13817,"Ġcommune":13818,"icting":13819,"Ġboards":13820,"isan":13821,"Ġcapabilities":13822,"Ġsitcom":13823,"282":13824,"inds":13825,"ĠTrin":13826,"rob":13827,"quiry":13828,"Ġbeneath":13829,"Ġdrove":13830,"dig":13831,"ĠBlake":13832,"Ġtested":13833,"Ġultimate":13834,"ĠShield":13835,"ĠTeacher":13836,"ĠWildlife":13837,"legraph":13838,"Ġresembles":13839,"Ġspots":13840,"ĠSuff":13841,"205":13842,"Canadian":13843,"Ġmillions":13844,"Ken":13845,"ĠCC":13846,"294":13847,"Ġfires":13848,"Ġculmin":13849,"Ġresumed":13850,"ĠCornwall":13851,"ubble":13852,"Ġcasualties":13853,"Ġaccum":13854,"Ġsuspected":13855,"323":13856,"ĠSpl":13857,"Ġexit":13858,"ĠLey":13859,"KA":13860,"ĠSolomon":13861,"Ġhumor":13862,"ĠArgentine":13863,"Ġrib":13864,"Ġshaped":13865,"Ġ1500":13866,"850":13867,"ĠApollo":13868,"ĠDil":13869,"ĠKenneth":13870,"Personal":13871,"Ġconsumption":13872,"Due":13873,"language":13874,"ĠCec":13875,"lication":13876,"onne":13877,"ĠTowns":13878,"ĠPi":13879,"ĠJur":13880,"Social":13881,"cal":13882,"Ġefficiency":13883,"222":13884,"Ġrespected":13885,"tees":13886,"259":13887,"Ġvariants":13888,"Ġbullet":13889,"Ġcompiled":13890,"CAR":13891,"Ġ();":13892,"News":13893,"406":13894,"ĠVilla":13895,"Ġbreeding":13896,"Ġaltered":13897,"ĠLaura":13898,"ĠLic":13899,"ĠUg":13900,"Ġrequested":13901,"ĠMarqu":13902,"Sar":13903,"ĠHiro":13904,"Ġdependent":13905,"ĠUnd":13906,"Ġstrings":13907,"ĠUsing":13908,"Ġdeemed":13909,"Ġstoryline":13910,"ĠResults":13911,"Ġautomobile":13912,"Ġcolumns":13913,"ĠMunicipality":13914,"role":13915,"ĠPrague":13916,"Ġmargin":13917,"Ġadministered":13918,"ĠPor":13919,"ĠLodge":13920,"aji":13921,"iffs":13922,"Ġconsidering":13923,"unciation":13924,"ea":13925,"Ġrestrictions":13926,"ĠSisters":13927,"Ġperforms":13928,"ĠMercury":13929,"played":13930,"isers":13931,"ĠViscount":13932,"ĠEvents":13933,"Ġaccompany":13934,"iking":13935,"ĠAch":13936,"570":13937,"Ġsketch":13938,"Sun":13939,"Ġmonthly":13940,"Ron":13941,"Ġwore":13942,"ĠTat":13943,"ĠFilms":13944,"Ġbelonged":13945,"ĠEduc":13946,"1943":13947,"ischer":13948,"Ġbelongs":13949,"Ġstrikes":13950,"andin":13951,"ebsites":13952,"alam":13953,"forming":13954,"ĠDim":13955,"Ġtactics":13956,"Ġcentres":13957,"Ġbankrupt":13958,"ĠScientific":13959,"Cr":13960,"ĠPowell":13961,"Ġhamlet":13962,"Ġpenet":13963,"ĠGur":13964,"Ġaviation":13965,"ashing":13966,"ĠDarwin":13967,"Ġruins":13968,"stra":13969,"Town":13970,"iscell":13971,"ĠBeing":13972,"Ġscholarship":13973,"nolds":13974,"Rog":13975,"ĠStef":13976,"arts":13977,"Ġvolunteers":13978,"ĠThan":13979,"ĠChang":13980,"ĠLeices":13981,"ĠAw":13982,"Ġposts":13983,"Ġathletic":13984,"Ġ102":13985,"Ġ~":13986,"insky":13987,"ĠUltimate":13988,"chant":13989,"ĠSF":13990,"usters":13991,"ĠDynam":13992,"ĠAce":13993,"icking":13994,"ĠMake":13995,"chron":13996,"ĠMega":13997,"antis":13998,"Ġkiss":13999,"Child":14000,"Ġnotorious":14001,"onal":14002,"Ġdemo":14003,"Ġindependently":14004,"bey":14005,"Ġregardless":14006,"Ġdeeply":14007,"ME":14008,"hl":14009,"ints":14010,"Alexander":14011,"ogo":14012,"Ġspelling":14013,"ĠGP":14014,"orms":14015,"asian":14016,"asis":14017,"ĠMarines":14018,"131":14019,"ĠGerald":14020,"Here":14021,"373":14022,"Ġpreserve":14023,"bery":14024,"409":14025,"etti":14026,"Ġlux":14027,"ĠIndianapolis":14028,"Ġcircles":14029,"ION":14030,"icz":14031,"igible":14032,"Ġmathematician":14033,"ivities":14034,"Ġwatching":14035,"expected":14036,"ambo":14037,"ĠEllis":14038,"Ġlift":14039,"Ġgenerate":14040,"ĠMull":14041,"ĠWool":14042,"394":14043,"ĠConstantin":14044,"Ġhoused":14045,"Ġathlete":14046,"Ġjack":14047,"ĠSyria":14048,"Ġresignation":14049,"Ġdism":14050,"493":14051,"Ġcollective":14052,"ĠSussex":14053,"453":14054,"uffy":14055,"ĠDame":14056,"ĠChange":14057,"isting":14058,"Ġconcentrated":14059,"Ġmemb":14060,"1934":14061,"Ġaudiences":14062,"Dis":14063,"ĠAlexandria":14064,"Ġdistant":14065,"Ġencourage":14066,"Ġarguments":14067,"ĠFraser":14068,"hart":14069,"Ġsimilarly":14070,"494":14071,"Ġfunded":14072,"ĠLithuania":14073,"MB":14074,"Ġregister":14075,"ouns":14076,"munition":14077,"ĠTotal":14078,"Ġboot":14079,"uchy":14080,"272":14081,"Ġdiplomatic":14082,"ĠCell":14083,"Ġreleg":14084,"Ġpolitically":14085,"ĠLap":14086,"Queen":14087,"Hy":14088,"ĠRachel":14089,"rowing":14090,"Ġauthent":14091,"ĠEns":14092,"Ġcooperation":14093,"ĠAven":14094,"Ġminimal":14095,"rific":14096,"lay":14097,"ĠWeather":14098,"Ġflav":14099,"Ġphilosophical":14100,"Master":14101,"264":14102,"Ġdrain":14103,"ĠObservatory":14104,"Ġrevenue":14105,"ĠMcN":14106,"Po":14107,"ĠEugene":14108,"terbury":14109,"ethyl":14110,"ĠRules":14111,"ĠCuban":14112,"Ġsits":14113,"590":14114,"ĠHerz":14115,"ĠBeijing":14116,"464":14117,"Ġtraveling":14118,"Ġintegral":14119,"Ġbenef":14120,"irie":14121,"Ġambass":14122,"ĠMiguel":14123,"Ġnotion":14124,"Ġhighlight":14125,"Ġreader":14126,"ĠIdaho":14127,"141":14128,"ĠVietnamese":14129,"ĠScots":14130,"Both":14131,"pes":14132,"ĠGlou":14133,"Ġmanifest":14134,"ĠLomb":14135,"Ġcoc":14136,"ĠNak":14137,"ranger":14138,"Ġclim":14139,"limited":14140,"ĠPoetry":14141,"bet":14142,"484":14143,"ĠBeyond":14144,"ĠSoutheast":14145,"Ġseparation":14146,"ĠCool":14147,"ĠSurrey":14148,"ĠCanton":14149,"ĠNas":14150,"ĠAstron":14151,"agle":14152,"ifax":14153,"ĠKas":14154,"Ġpairs":14155,"rium":14156,"final":14157,"Down":14158,"Ġsor":14159,"ĠGreatest":14160,"Gar":14161,"Ġengineers":14162,"Ġlad":14163,"idi":14164,"Ġpharm":14165,"Mean":14166,"Ġaims":14167,"ĠHarbour":14168,"ĠPradesh":14169,"Ġsupplied":14170,"Ġbrow":14171,"headed":14172,"umble":14173,"ĠCyprus":14174,"Ġweaken":14175,"Ġbattery":14176,"ĠSebast":14177,"Ġconfiguration":14178,"Ġdemanded":14179,"olics":14180,"Ġcomprises":14181,"ĠUntil":14182,"Ġ106":14183,"Ġrequirement":14184,"Ġfraud":14185,"Wind":14186,"Ġcryst":14187,"ĠBlair":14188,"Ġshoulder":14189,"ĠHopkins":14190,"ĠAuckland":14191,"Ġenforcement":14192,"Spe":14193,"ighthouse":14194,"hey":14195,"Ġconsolid":14196,"kan":14197,"immer":14198,"Ġstyl":14199,"apest":14200,"lette":14201,"Ġcompositions":14202,"ĠGamb":14203,"ighty":14204,"Ġnicknamed":14205,"ardi":14206,"onomic":14207,"Ġcuts":14208,"Ġverb":14209,"Ġunions":14210,"ĠWindsor":14211,"ĠCanyon":14212,"Ġframework":14213,"ĠLearning":14214,"mith":14215,"Ġion":14216,"ĠArchitecture":14217,"hell":14218,"Ġvari":14219,"enzie":14220,"avery":14221,"Ġemployee":14222,"ĠBosnia":14223,"Ġdisgu":14224,"Ġoptim":14225,"Ġexch":14226,"ĠBulgarian":14227,"Ġchapters":14228,"NC":14229,"ĠSE":14230,"ĠSleep":14231,"Ġmystery":14232,"rafts":14233,"Ġaggressive":14234,"Ġtransp":14235,"ĠLook":14236,"Power":14237,"Water":14238,"Ġstones":14239,"oux":14240,"Ġrelocated":14241,"Ġsuburban":14242,"ĠChad":14243,"rators":14244,"Ġepic":14245,"Ġcrypt":14246,"Non":14247,"imi":14248,"iatric":14249,"ĠRee":14250,"ĠWeap":14251,"Ġrecruited":14252,"Ġpeninsula":14253,"ĠPresbyter":14254,"ĠReds":14255,"Ġpriests":14256,"Ġunclear":14257,"lied":14258,"256":14259,"Ġpolar":14260,"Ġvoltage":14261,"ĠHale":14262,"Ġpianist":14263,"Ġcouldn":14264,"Ġtourists":14265,"Ġpale":14266,"Group":14267,"ĠRanger":14268,"print":14269,"1922":14270,"ĠMonster":14271,"Ġinfamous":14272,"Ġcirculation":14273,"ifferent":14274,"Ġsegments":14275,"asting":14276,"ĠInteg":14277,"324":14278,"atorial":14279,"Ġvoices":14280,"Ġintelligent":14281,"RL":14282,"reements":14283,"ĠPod":14284,"issions":14285,"Ġpayment":14286,"Trad":14287,"Ġconflicts":14288,"Ġdissolved":14289,"Ġcogn":14290,"rogen":14291,"ĠClaud":14292,"yu":14293,"Russian":14294,"Ġchallenges":14295,"SL":14296,"Ġdisbanded":14297,"week":14298,"inas":14299,"ĠMilton":14300,"ĠWinnipeg":14301,"Ġtissue":14302,"Ġbassist":14303,"ĠOF":14304,"364":14305,"Ġphysically":14306,"dimensional":14307,"fin":14308,"olds":14309,"atories":14310,"ĠBee":14311,"Ġsends":14312,"Ġputs":14313,"Indian":14314,"650":14315,"483":14316,"Ġcounsel":14317,"Ġreorgan":14318,"Ġunlikely":14319,"Ġsecured":14320,"ĠBengal":14321,"Ġreceiver":14322,"ĠResp":14323,"Ġpromise":14324,"Simon":14325,"ĠHeath":14326,"ĠHaving":14327,"Ġimprovements":14328,"ĠCit":14329,"ĠHost":14330,"ĠDragons":14331,"itely":14332,"Ġadventures":14333,"ĠSafety":14334,"408":14335,"ĠCork":14336,"ĠArtists":14337,"disambiguation":14338,"Ġsilent":14339,"ĠCIA":14340,"Ġaddressed":14341,"Ġwound":14342,"ĠWhy":14343,"ĠHenderson":14344,"ĠContest":14345,"ĠEmpress":14346,"Original":14347,"sometimes":14348,"ĠPorter":14349,"pling":14350,"Ġinventor":14351,"gans":14352,"ĠDrug":14353,"Ġsummit":14354,"Ġlaboratory":14355,"Ġconsciousness":14356,"Ġlib":14357,"Ġdiscipline":14358,"ĠWon":14359,"Ġcelebration":14360,"Get":14361,"ĠCros":14362,"abwe":14363,"ournals":14364,"ĠLaz":14365,"Ġgap":14366,"Ġunt":14367,"ĠWitch":14368,"Ġabstract":14369,"ĠPret":14370,"Ġritual":14371,"ĠRah":14372,"1925":14373,"ĠExped":14374,"Ġpredominantly":14375,"Ġtiny":14376,"Ġtournaments":14377,"151":14378,"isi":14379,"Ġafternoon":14380,"Ġinhabited":14381,"Ġperformers":14382,"Ġbeaten":14383,"Ġneighboring":14384,"454":14385,"Ġcock":14386,"ĠToo":14387,"ĠSometimes":14388,"1912":14389,"Ġcentered":14390,"ĠFul":14391,"ĠGM":14392,"334":14393,"ĠĠĠĠĠĊ":14394,"ĠFellow":14395,"Ġlikes":14396,"Ġreluct":14397,"Ġabund":14398,"444":14399,"Ġmos":14400,"ĠTroy":14401,"Ġchallenged":14402,"Fin":14403,"Ġworker":14404,"Ġbombs":14405,"asma":14406,"Ġhonorary":14407,"Brazil":14408,"ĠPeriod":14409,"People":14410,"izers":14411,"ĠTrip":14412,"Ter":14413,"ulous":14414,"ĠIndies":14415,"Ġconsequence":14416,"obi":14417,"Ġspite":14418,"Ġov":14419,"Ġ1854":14420,"Home":14421,"452":14422,"Ġow":14423,"Ġdesk":14424,"ĠMorrison":14425,"ferred":14426,"ĠPalestine":14427,"ĠBenedict":14428,"463":14429,"Ġliver":14430,"Chap":14431,"Once":14432,"Ġsad":14433,"ĠWend":14434,"ucc":14435,"neapolis":14436,"ija":14437,"Ġdimension":14438,"Ġdrunk":14439,"ĠMoses":14440,"lymouth":14441,"ĠMonte":14442,"ĠGundam":14443,"Ġconquered":14444,"Ġdiesel":14445,"Ireland":14446,"ĠCohen":14447,"Ġdevelopers":14448,"imony":14449,"third":14450,"372":14451,"Ġtun":14452,
[...]
