#version: 0.2 - Trained by `huggingface/tokenizers`
Ġ t
h e
Ġ a
i n
e r
o n
Ġt he
r e
Ġ o
a n
e d
i s
a t
e n
Ġ s
o r
e s
i t
Ġ w
a r
a l
Ġo f
n d
Ġ c
Ġ f
Ġ in
Ġ b
Ġ p
i c
a s
in g
Ġa nd
r o
l e
i on
Ġ m
Ġt o
Ġ d
Ġ S
o u
i l
Ġ h
Ġ C
Ġ T
Ġ A
Ġ 1
en t
o m
e l
Ġ (
s t
a m
Ġ M
Ġ n
t er
o l
Ġ l
= "
Ġ re
a c
Ġ B
i d
a d
Ġ P
Ġ is
Ġt h
e t
e c
Ġ H
u r
l y
o c
u s
i v
Ġ I
Ġ e
i g
i m
at ion
Ġw as
o t
i r
Ġ R
Ġf or
Ġ on
o w
Ġ D
u t
Ġ g
Ġ L
a y
Ġ Ġ
Ġ1 9
Ġ F
ĠT he
e m
v er
c h
Ġ G
0 0
Ġ W
Ġa s
he r
u n
it h
u l
Ġ 2
Ġ N
Ġp ro
an d
is t
Ġs t
c e
Ġ E
er s
a g
Ġb e
Ġa l
Ġw ith
c t
Ġb y
t h
o s
es s
Ġ J
' s
u m
Ġw h
r a
Ġa n
o p
ro m
Ġa t
r i
Ġ he
o d
Ġc on
Ġth at
es t
d oc
Ġ O
a v
il l
Ġ "
Ġ -
a in
it y
Ġf rom
re s
i f
Ġ it
Ġ K
a b
Ġo r
e w
t s
i es
Ġ v
u p
Ġc om
Ġ U
e x
i an
ig h
T he
a k
at e
Ġa re
b er
a p
) ;
al l
ar d
Ġh is
ar t
u d
i a
in d
ic h
Ġ r
l d
ĠS t
1 9
s e
g e
o re
Ġd e
q u
e ar
c ess
n t
i p
u b
or t
Ġ2 00
i al
iv e
o v
Ġe x
at ed
o g
k s
en d
er e
el l
am e
Ġ V
an t
Ġc h
ĠC h
g h
ĠI n
ou r
on g
Ġp l
ar y
in e
Ġ k
s o
u nd
Ġ id
Ġ Ċ
as t
e p
m ent
o st
Ġw ere
Ġt it
Ġn on
or d
u re
A R
Ġpro cess
u st
Ġtit le
is h
ic al
Ġs h
Ġ y
t her
Ġwh ich
ter ed
ter n
f il
r an
u c
ec t
Ġ le
i re
I C
Ġs e
i e
E N
Ġal so
om e
L E
D O
Ġs p
AR T
ind ex
Ġprocess ed
Ġd b
fil tered
" >
Ġnon filtered
Ġdb index
< /
IC LE
DO F
ART ICLE
EN DOF
ENDOF ARTICLE
ac k
ag e
ou s
m er
Ġh as
igh t
f f
Ġn ot
p p
Ġ us
r y
Ġ ;
av e
ĠH e
u e
ion s
ĠĠ ĠĠ
a re
Ġ un
i z
Ġin c
Ġ 3
as s
ow n
) .
) ,
Ġcom p
Ġ1 8
ĠU n
Ġw he
f er
Ġ .
o k
r ic
Ġh ad
it e
ig n
Ġa r
Ġ19 9
ir st
m an
p er
ĠT h
ou nt
al ly
r it
Ġ Y
l and
en s
or y
or k
on d
Ġin t
id e
ĠI t
an g
ou t
Ġcon t
ic e
Ġc l
im e
k e
Ġb ut
Ġwh o
ac t
er v
p l
Ġthe ir
p h
i b
Ġon e
at er
Ġth is
w n
en ce
ation s
ac h
Ġh ave
n g
Ġa b
f ter
ac e
Ġm an
ĠA l
Ġf irst
w o
en c
Ġit s
Ġ ro
o ver
Ġal l
ol d
or n
it ion
Ġa d
Ġ 4
Ġre s
ou ld
o ol
Ġy ear
e e
ou nd
r u
Ġo ther
ul t
em ber
Ġ j
ar k
p t
le ct
or m
re e
Ġa pp
Ġp art
he d
at es
u gh
u ch
I n
Ġb ec
Ġ her
h n
on e
Ġa c
am p
ation al
1 8
i le
e b
a w
l ud
Ġpl ay
res s
l es
o b
p ort
el y
Ġl in
n e
on s
it ed
ad e
ub l
ent s
Ġp er
ĠA r
o y
ab le
Ġc an
Ġbe en
ou gh
ol l
Ġre c
ch ool
Ġo ut
is s
ĠN ew
il d
Ġ up
e g
a il
or s
u g
Ġinc lud
Ġt wo
Ġ im
v el
at h
Ġthe y
Ġo ver
tern al
i o
Ġ |
ĠC om
Ġ19 8
ur ing
Ġ 5
iv ers
o in
Ġs c
o od
os e
Ġa g
an s
Ġ 6
Ġd is
Ġ en
Ġcom m
mer ic
ĠM ar
e ver
an ce
re d
Ġt e
Ġint o
Ġe v
Ġ| |
Ġ und
ak e
Ġh im
on t
i ed
ing s
Ġa ct
as ed
ur n
x ternal
Ġp r
or ld
1 0
f t
Ġa fter
Ġk n
s s
h ip
Ġof f
as e
Ġm ore
ic s
1 2
Ġt r
p e
al s
w e
ĠA meric
Ġd es
ic k
ter s
w ay
Ġn ew
Ġund er
t e
Ġat t
2 00
ic t
i ous
re n
ou se
Ġt ime
Ġm ost
t on
w ard
ĠS h
Ġ ver
Ġwhe n
re at
Ġlin ks
Ġ19 7
1 3
Ġl oc
Ġp op
ou th
ul ar
ro ugh
Ġyear s
a h
Ġg ro
Ġon ly
ol og
r am
Ġs he
ct ion
ĠS p
en er
e v
f orm
Ġthe re
or th
am il
5 0
1 7
ot h
g an
Ġp re
Ġs ome
Ġthe m
t ed
Ġcon s
l l
e at
a us
d u
an c
Ġus ed
Ġfor m
i k
r al
Ġs o
E xternal
ran s
in ce
1 4
Ġs erv
Ġs y
Ġw ork
Ġin d
1 6
ĠJ o
Ġw ould
in al
a z
ĠTh is
e y
t en
he n
i x
Ġb et
in s
Ġm e
i el
Ġ qu
o ok
ow er
Ġ Z
t le
u al
oc k
1 5
ivers ity
Ġ 7
Ġman y
ri b
ĠP ro
ĠS c
an n
Ġ19 6
Ġs uch
am es
i ke
2 0
Ġre g
ubl ic
ra ph
enc es
19 9
ou n
a j
Ġs up
it ies
if e
Ġp e
Ġc ent
Ġwhe re
d uc
Ġs ec
Ġ 9
Ġab out
ar l
Ġre l
a ir
3 0
Ġm ov
at ive
il m
Ġs ub
Ġth an
ĠA n
is ion
Ġf l
ĠC l
ĠC ol
ĠUn ited
i er
is hed
an y
al e
Ġ 8
ar s
ĠAmeric an
d er
we en
Ġc ol
le y
Ġkn own
ĠE ng
Ġin ter
Ġth rough
Ġp ol
in n
Ġch ar
is m
i et
he s
Ġn um
if ic
as h
Ġb u
em ent
Ġ 0
res ent
ro und
over n
Ġd ec
us ic
Ġre m
Ġst ud
f ore
Ġc all
os s
Ġm ade
Ġre t
ĠL e
v e
Ġf ound
ĠI nd
em b
Ġd uring
Ġd o
oll ow
4 0
ow ever
ex t
r on
op le
it s
iv er
Ġthe n
Ġag ain
Ġbet ween
en n
ĠI s
Ġn o
st em
Ġ200 6
er ies
Ġw ill
u ally
Ġas s
ĠB l
er n
ĠF or
ĠUn iversity
i am
Ġl ar
c c
el f
Ġb l
ĠA s
og raph
ĠĠĠĠ ĠĠĠĠ
Ġa m
r is
ul ation
. .
Ġw ell
c om
Ġf amil
er t
al es
Ġn ame
Ġ ent
Ġbe ing
ist ory
ur y
ot her
o ber
Ġ ra
Ġt ra
Ġe lect
Ġar t
Ġ Q
3 6
Ġ1 0
ount y
Ġpro v
iel d
Ġ end
u res
ĠJo hn
Ġ1 7
at ing
o ot
id ent
t y
2 5
s on
Ġde f
er m
Ġp h
Ġd ist
Ġa ge
in es
Ġin v
Ġt rans
in a
p or
Ġm ed
2 6
ay s
ĠS chool
Ġre le
Ġl ater
2 8
in c
Ġsp ec
Ġs chool
vel op
2 9
2 7
Ġm od
as on
Ġbec ame
ĠSt ates
4 5
ist s
3 9
Ġ &
4 7
Ġf ilm
3 7
3 8
Ġf ollow
at her
ĠP h
Ġs et
ire ct
4 8
ĠW h
ĠW ar
ut ion
Ġan y
Ġc o
i ew
4 6
er man
ur re
ic ial
3 5
ar ly
fer ences
ĠCom m
ers on
ĠF ran
Ġth ree
Ġto wn
4 9
Ġ ed
y s
ĠC on
00 0
Ġm ay
r ad
ul l
us s
ĠC an
Ġo wn
p en
Ġsh ow
is e
Ġle ad
b um
ĠS he
Ġor ig
Ġpe ople
a x
ar ri
. "
Ġc ap
ĠD e
Ġ '
Ġd if
aus e
j ect
an k
Ġc ity
im es
r ist
f ul
t ing
iv ing
et h
Ġs m
er ed
Ġin st
Ġgro up
Ġte am
Ġm ain
ĠA t
ĠB rit
o o
ĠR e
Ġ200 5
Ġsy stem
iv ed
Ġinclud ing
Ġh igh
iv es
ĠW orld
ĠP r
ep t
Ġh ouse
Ġ1 6
r id
el s
a u
ĠA d
" ,
Ġare a
Ġy ou
Ġs ing
ut e
Ġg ener
c es
Ġcall ed
Ġus e
ĠO r
R e
Ġb ack
Ġrec ord
ion al
Ġb oth
Ġc re
Ġse ver
ĠP l
Ġe ver
Ġpop ulation
u ro
ar n
Ġe m
olog y
Ġs eries
am ed
Ġbe fore
a i
Ġw e
Ġex p
Ġb ro
l ed
19 8
Ġb el
Ġsec ond
Ġw rit
ov e
Ġv ar
ib le
m y
5 6
Ġnum ber
Ġad d
ur ch
m in
5 8
Ġs ur
et s
overn ment
ut h
Ġde velop
i ent
5 7
t il
5 9
iz e
g ram
aj or
" .
Ġo per
o x
l ish
Ġre p
Ġb ar
e ed
Ġo b
Ġthe se
r ing
Ġ $
Ġg o
is c
urre nt
Ġal bum
Ġac c
le t
ĠC ounty
un e
Ġm usic
ĠA ust
Ġl ong
Ġs im
Ġex t
u es
C h
ire d
ĠY ork
t he
Ġm in
Ġg ame
S t
Ġchar ac
ĠĠ Ċ
ric t
ce pt
Ġun til
T h
Ġf eat
iz ed
ical ly
Ġs uc
Ġwh ile
i um
ĠK ing
Ġg u
ĠO n
b y
Ġs ong
b all
od e
Ġo ld
v ent
p le
g er
ĠI I
are d
an e
1 1
Ġsever al
Ġs ame
ĠC ent
ĠG e
Ġfamil y
re t
Ġc ount
f l
Ġw orld
ĠU S
ĠG erman
Ġm on
v ed
ag es
Ġ200 0
ar m
ur al
a id
s p
Ġf our
Ġdis c
Ġ est
Ġb and
il ity
Ġs ign
Ġagain st
oun c
ĠG u
ir d
r and
en e
Ġr un
ain s
ak ing
6 0
ĠP e
Ġsm all
- -
Ġa ir
Ġver s
s h
v en
ĠN ational
ain ed
ĠB e
p r
ec hn
ĠE d
ĠS outh
ĠM an
Ġdes ign
y l
ĠThe y
ĠB ro
Ġn ow
2 2
Ġp ar
7 0
ĠCan ad
" ;
an ge
oin t
Ġd r
tern ational
Ġ2 0
iss ion
it al
Ġver y
Ġd irect
ĠH is
ĠM ay
Ġcont in
th ough
Ġpro du
Ġcon st
le ge
f or
ro ss
h old
ot t
Ġ200 4
is ter
4 4
emb ers
Ġn ear
c l
ĠN orth
ĠC ity
ĠBrit ish
oc i
Ġe ff
h am
Ġst ate
y n
ic es
om an
ograph y
Ġch ild
on y
Ġe arly
b le
Ġof ten
os ed
Ġf in
3 3
st er
le v
ap an
Ġloc ated
Ġ1 5
i ence
ĠE x
ĠW ill
Ġl and
r at
ĠAl l
S ee
8 0
ĠS oc
Ġs ince
Ġt erm
Ġpro gram
Ġapp ear
Ġpol it
res ident
Ġe ach
ĠC ar
ure d
u ary
Ġc urrent
Ġs l
ĠJ an
ian s
duc ed
Ġde p
ĠD ec
ĠF l
Ġp ower
Ġp ublic
c k
Ġdif fer
ĠH igh
ro p
ĠC al
a f
uc k
ag ue
ment s
Ġ X
Ġim p
an ts
7 9
ĠA ir
Ġd id
Ġc ould
uro pe
g et
Ġever y
ec ts
ĠCh rist
Ġcl ass
H e
ug ust
Ġth ose
Ġl ife
il le
Re ferences
Ġor gan
ru ct
y p
o ard
Ġm il
m p
Ġm ajor
id ed
Ġpart ic
n er
Ġm at
6 9
Ġcomm un
re en
Ġst art
Ġ1 2
at t
i or
Ġ if
ĠN ov
ept ember
en g
ĠĠ Ġ
Ġrele ased
Ġret urn
Ġg overnment
ĠH ar
Ġo pen
3 2
Ġo cc
6 8
Ġsuc cess
Ġl ike
ial ly
4 2
he m
7 8
ent ly
ĠH owever
ĠAust ral
ĠR ep
in k
ang u
Ġres p
ĠA ss
as ter
b orn
Ġfor mer
Ġcont ro
ĠA m
ro w
ĠA nd
Ġbec ause
Ġl ine
Ġa round
5 5
l ing
Ġbu ild
eb s
Ġhouse hold
ct ober
un g
f ess
il t
ĠJ u
Ġpl ace
Ġev en
ĠA b
a im
Ġcons id
Ġf em
ĠB ar
ak es
es e
Ġhe ad
Ġp ass
a ugh
ĠP ol
Ġl ist
or ks
ar ch
Ġplay ed
Ġm embers
ĠJ apan
qu e
Ġn amed
Ġk m
at a
ec h
Ġc are
Ġst ill
Ġt ext
Ġc ar
ĠM in
t t
al ity
av ing
re w
ĠE urope
ĠM c
ĠEng lish
Ġlar ge
Ġp ubl
ac ks
ĠC o
ĠThe re
iet y
ĠA f
' t
od y
Ġp resent
g y
at or
4 3
at ure
ĠT r
ward s
9 0
ord s
igh ts
a ul
id d
u ed
ac es
Ġl it
ĠSt ate
u k
g est
ist or
| -
le x
ebs ite
at ely
in o
at s
ĠD r
A l
id es
Ġre ce
ect ion
al d
Ġle g
Ġp erson
ĠGe or
ĠA ugust
ĠW est
Ġm et
Ġe p
il y
am b
Ġen g
Ġd own
Ġm uch
Ġh ome
Ġre f
Ġhe l
Ġb ased
ĠS eptember
Ġse e
u ff
Ġth ough
Ġl ast
Ġm ake
Ġse ason
Ġj ust
re m
s ide
al k
at tle
Ġcharac ter
Ġdes c
s c
os ition
pr il
7 6
f ord
iv en
Ġfollow ing
ĠP art
end ed
d ay
ow s
Ġbe gan
Ġ200 3
g ed
Ġcon c
Ġle ft
is ed
ĠMar ch
Ġor der
ĠE l
ac ed
ĠCom p
v es
Ġal ong
ren ch
ĠS e
iv al
ri end
re ad
Ġpop ular
o on
form ation
Ġinclud e
ĠJan uary
ĠA fter
Ġdiffer ent
ĠS w
Ġh and
ĠO ctober
o ad
Ġcent ury
Ġst and
Ġp o
Ġb as
a e
um an
uth or
Ġst ation
Ġa v
in ess
on om
Ġsup port
Ġl aw
Ġ200 1
oot ball
ond on
Ġs k
ĠS y
ĠP ark
ĠP ar
r act
l ine
Ġm ember
Ġs om
w w
. ,
Ġc our
Ġde ath
Ġv ill
2 3
Ġtr ad
l er
Ġre st
Ġw on
Ġb us
c he
m ed
ie f
Ġ ,
Ġst r
Ġf act
Ġd ay
t o
ĠDec ember
7 7
p ed
Ġwh at
r ight
ne y
ĠT e
ĠWill iam
Ġp oss
l in
n ess
Ġs oc
s elf
es tern
2 1
2 4
i od
arri ed
Ġplay er
ĠCol lege
Ġre qu
8 9
iz ation
Ġs ite
ad io
Ġw ar
it ions
Ġk ill
op h
ra ft
ard s
i ber
ord ing
Ġo pp
Ġb ook
ri es
Ġre fer
ĠD av
ĠE n
Ġ es
ur g
ĠH er
ĠR iver
ĠR ec
om en
Ġ1 1
re et
ĠNov ember
Ġ200 2
Ġc r
ĠJ une
6 6
ing ton
Ġcomp any
Ġto ok
Ġ2 5
ĠJu ly
iv ely
Ġ1 3
us e
Ġan other
Ġv al
ic le
Ġcomm on
p s
Ġan n
ĠA pril
ĠH ouse
Ġoff icial
) "
Ġl angu
Ġloc al
Ġsh ort
Ġd em
Ġg reat
an a
Ġh istory
ĠO ff
Ġm ark
eb ru
c o
ĠL ondon
ebru ary
Ġ1 4
Ġe qu
ĠY ou
st it
Ġorig inal
Ġc or
enc y
ar a
Ġ1 00
um b
Ġsing le
ed er
it ary
ĠC or
m s
ĠR eg
ĠS ec
ĠF rench
Ġc amp
om in
Ġev ent
i us
rid ge
Ġl iving
ĠA ng
om b
ĠM e
ĠS up
Ġchild ren
Ġh owever
3 4
Ġw ater
ver s
ect ed
Ġad v
lev ision
Ġb est
or ts
Ġbe g
8 8
Ġd ue
us h
if ied
Ġw ay
ĠIs land
r ation
Ġest ab
Ġbu ilt
amp le
it t
ĠAf ric
3 1
Ġwith in
al th
Ġres ult
ĠA ct
7 5
ore d
amp ions
Ġ3 0
Ġto p
Ġb orn
ir c
Ġt echn
Ġa ver
Ġt urn
en se
Ġex pl
ĠPh il
Ġs on
v iew
on es
ur s
Ġvers ion
I t
S B
t ain
Ġim port
ra in
Ġpro t
Ġc over
ener al
er ing
Ġf ew
ĠM ed
Ġ2 4
Ġn orth
Ġhe ld
ol ution
oo ks
ĠR es
Ġapp ro
Ġbec ome
A s
Ġm ag
ĠEng land
n a
ĠG l
ep end
ĠL a
Ġep is
Ġpubl ished
Ġd iv
e al
in t
il ar
O n
Ġf re
Ġj oin
a el
ap p
un ic
Ġex per
Ġinc ome
or ies
5 4
Ġinc re
ot e
ĠR uss
Ġd ied
Ġaver age
ab ly
Ġorig in
um ent
Ġsh ip
Ġt ri
ĠCh ar
it ar
Ġn ational
is on
y le
o le
A n
Ġl a
5 1
5 2
ĠS an
ĠF ebruary
l ess
c hes
re st
av y
ĠD ist
er y
Ġcare er
Ġam ong
v ious
w ork
Ġis s
Ġper iod
as es
6 7
Ġa uthor
Ġs outh
Ġ19 0
ens us
ĠM ich
g es
ounc il
Ġn e
Ġw ebsite
Ġserv ed
op s
ot s
4 1
5 3
ĠO ne
Ġf e
Ġp at
inn ing
ĠQ u
Ġ199 9
ar th
e ad
Ġg iven
Ġdo es
ĠB r
s hip
Ġf r
Ġre pl
Ġv is
her n
Ġd est
ition al
Ġst at
ĠP er
Ġt ake
ir l
Ġvar ious
SB N
Ġper form
Ġc ame
Ġall ow
ap e
if orn
al f
am ous
Ġle vel
Ġpro m
as k
ac y
Ġcount ry
iv id
Ġs it
Ġcl aim
ĠE m
Ġ #
Ġ ec
ĠS m
ill ion
Ġtra in
re am
Ġcomp et
ĠIn ternational
d om
Ġre al
Ġex ample
9 9
Ġ et
ag ed
iforn ia
Ġf ather
Ġp ost
Ġus ing
ic a
Ġ el
ĠCanad a
Ġyou ng
ĠCh urch
Ġch ang
and er
c ed
ur b
z e
al t
ĠS ch
re g
Ġl ate
Ġc ult
B C
os p
em y
Ġserv ice
he re
Ġb re
Ġs aid
our n
Ġinv ol
Ġs ix
Ġs w
v ille
Ġcomp le
Th is
ak en
ort hern
r ay
Ġrep resent
f ield
ĠW hen
ain t
7 1
Ġs ide
ĠAmeric a
Ġp ort
ĠE ast
ĠH ol
Ġmed ian
e f
Ġsim ilar
Ġcre ated
6 1
he l
o ff
ĠP resident
ĠLe ague
Ġhim self
u el
ĠIt al
way s
Ġstud ents
ĠN o
ĠPart y
Ġvill age
ent ion
Ġspec ial
ric k
Ġn ever
Ġn eed
Ġg ames
Ġf ind
u ter
ĠCal ifornia
id ing
ru ction
Ġsh ould
Ġto t
Ġatt em
Ġc rit
Ġ :
Ġs old
ee k
ut ed
iv il
ĠA c
Ġt imes
at ic
Ġpro fess
ampions hip
ur ther
ĠM y
Ġin fl
Ġf ive
Ġus ually
Ġf un
ĠA g
Ġg et
Ġf riend
Ġpolit ical
Ġatt ack
Ġl ed
lect ion
e an
8 6
Ġt w
ro y
ober t
Ġm y
if t
ĠJ ames
Ġconsid ered
Ġgener al
Ġ199 0
Ġp oint
Ġwith out
k y
Ġwrit ten
Ġd et
oy al
get her
Ġto gether
Ġst ory
ĠM on
Ġte levision
Ġf ield
A r
ĠE xternal
ke y
w h
it her
o f
ĠV al
ĠI SBN
Ġcom b
Ġcon f
ber t
, "
ĠGeor ge
Ġw ent
ĠThe se
Ġn ov
Ġr ight
Ġd el
ide o
a ff
Ġst ar
ĠR ich
J o
b or
Ġre ad
Ġm arried
op e
l ic
k n
et t
Ġs ol
Ġcl ub
Ġind ivid
ĠQ ue
Ġm en
Ġm ust
Ġcontro l
Ġed uc
m ost
Ġg l
Ġf inal
ĠAr t
ĠG ro
ĠP al
oci ation
Ġpartic ular
Ġro le
Ġf ac
at ch
Ġinclud ed
art ment
ther n
pl oy
ĠM or
Ġde b
Ġv ol
Ġh aving
Ġf ore
ert ain
um mer
Ġ199 8
it or
Ġrece ived
Ġp res
ĠM ag
Ġinter est
ri pt
Ġimport ant
ĠD em
Ġth ird
Ġl ess
c hed
Ġd oc
Ġg ood
ĠRep ublic
I N
Ġw orks
Ġin formation
Ġs ize
Ġcurrent ly
ou thern
Ġbus iness
Ġt yp
idd le
ĠDist rict
du ct
ĠBl ack
Ġn ext
Ġf ootball
ĠDav id
6 5
am a
ĠB er
The re
Ġpr act
m a
ĠT own
Ġal though
Ġint ro
ĠAustral ia
Ġact iv
ap er
Ġse en
ĠR ev
Ġv iew
ĠR ed
Ġmov ed
ĠG eneral
ĠN or
om as
Ġdesc rib
8 7
Ġpr im
ĠInd ian
ĠR oman
k i
ĠP aul
ict ion
Ġl ab
ĠFran ce
Ġeng ine
Ġlangu age
ĠB y
wo od
Ġcommun ity
n ing
Ġpro p
ill s
ĠWh ite
Ġtot al
y pe
Ġf ull
Ġh uman
as tern
Ġbel ie
ip p
m it
l ished
Ġb ody
Ġlin k
ail able
ree k
Ġ =
ot es
ĠT o
ell s
Ġbuild ing
ĠH istory
ĠD es
er a
Ġs ent
w are
ĠL ou
Ġmon th
Ġ2 1
9 6
Ġother s
ĠSt reet
ir on
y m
d e
anc es
Ġg rad
ĠP ort
Ġh istor
Ġ199 7
i que
Ġpart y
Ġbe h
Ġf amous
Ġt em
ĠW e
Ġl im
h a
ĠB el
Ġ199 6
9 8
ic o
ĠD ep
c ast
Ġc aus
Ġstart ed
. ;
ra w
er r
m ing
ra b
Ġh ig
Ġpro duced
Ġdevelop ment
ĠG od
Ġde v
Ġex ist
Ġapp e
ag o
u le
im ent
Ġepis ode
Ġmil itary
Ġ198 0
Ġinfl u
le ar
u it
an ish
ĠP at
Ġh old
p ec
olog ical
ar i
Ġfem ales
ĠA nt
Ġar ch
in ed
ĠInd ia
7 2
. )
Ġan t
a ut
Ġh ost
Ġmod ern
et work
L ist
a ur
Ġcon n
et imes
g in
Ġm er
Ġpre vious
7 4
og n
an ia
Ġ6 5
e h
Ġind ust
u f
Ġg r
6 4
ol ic
ut es
i ol
7 3
Ġin s
ap s
Ġav ailable
Ġp osition
Ġin f
ĠH all
our s
T r
Ġon ce
Ġre port
Ġeff ect
ĠG r
ĠS l
ĠW ith
ĠUn ion
Ġhel p
in ation
ĠB ut
Ġh ous
ĠT V
re y
for man
us ed
Ġe le
ĠR oad
g o
Ġ2 2
fer ence
ĠAr my
Ġfound ed
Ġappe ared
Ġestab lished
ĠD iv
ru g
b and
ĠJapan ese
W h
ĠC ouncil
Ġra il
6 2
ist ic
Ġbro ther
ĠM il
ĠM o
pl es
unic ip
S h
c y
cc ording
Ġ2 8
ĠS im
Ġro ck
our ces
Ġstr ong
oc rat
Ġc ase
one y
Ġold er
Ġa ut
ĠSt ud
U n
Ġbro ad
ĠC ap
Ġpl an
Ġprodu ct
ĠC our
Ġ enc
Ġ2 3
o ice
it z
Ġdist rict
Ġ- -
ĠK n
.. .
ĠM ont
Ġc irc
r ated
em s
Ġt est
ep h
ĠĠĠĠĠĠĠĠ ĠĠĠĠĠĠĠĠ
ac hed
6 3
ĠM art
Ġhousehold s
Ġa ff
Ġreg ion
ĠEurope an
pl ay
ou l
e ep
Ġpro ble
se qu
it a
ĠCanad ian
Ġl ight
ĠL at
i j
Ġl ive
9 5
Ġec onom
Ġre v
Ġ z
arl iam
Ġsp e
our ce
ĠC up
s y
ash ington
Ġin it
Ġid ent
A fter
k a
ĠG reat
ĠV ir
ĠM ac
9 7
ourn al
8 5
ĠU K
Ġm ult
Ġh ow
end ing
ear ch
/ /
land s
use um
Ġ2 6
Ġr ul
i ography
Ġ199 5
Ġbec om
Ġt ro
min ist
st on
eth od
Ġkn ow
ri an
Ġform ed
arliam ent
ĠP ress
Ġs ound
ĠR ail
Ġm illion
ĠS en
ĠH en
g round
Ġd ays
c ent
all s
ib r
Ġpro per
F or
ĠM al
ĠD on
Ġg en
ĠAss ociation
Ġp ri
Ġprodu ction
Ġf ree
ĠL aw
Ġare as
ĠJ ew
Ġattem pt
am ent
it ch
ep ar
ĠF irst
Ġw in
Ġm aking
Ġre se
ain ing
ĠS erv
Ġ197 0
Ġgro w
Ġr ace
Ġreturn ed
Ġf ire
ĠC ont
ĠR obert
Ġman ag
ĠChrist ian
o or
Ġr adio
Ġfamil ies
ud e
Ġ /
Ġof fer
G e
ĠGerman y
Ġan im
c her
Ġdevelop ed
um e
Ġd i
un k
ater ial
augh ter
19 0
id s
ĠM usic
em ents
Ġle t
: //
ĠS ome
ud d
Ġp oin
tt p
Ġph ys
ail ed
Ġp ut
Ġlit er
Ġt aken
Ġm ar
ĠT rans
Ġsuccess ful
Ġind epend
ĠJ os
ber g
ĠS am
e ter
i ation
ak er
az ine
Ġde g
Ġ )
ens ive
m i
ĠCent er
ĠAng el
Ġcontin ued
Ġar r
Ġh alf
ĠComp any
b urg
b e
m en
Ġ2 7
id ence
ĠSt ar
Ġ199 4
m ar
ĠM r
lect ed
P l
Ġcon d
le g
ce ed
kn own
ol f
at ural
Ġro ad
inc ip
ĠM iss
ĠR oyal
Ġadd ition
Ġa ward
I I
Ġs epar
ĠIn ter
i ec
g ress
ĠD uring
Ġm ot
Ġsur v
Ġspec ies
Ġc he
ĠC he
Ġart icle
ĠW ashington
Ġpro ject
Ġe ither
y ing
c raft
u x
y a
Ġa way
Ġrel ig
m e
ag on
id a
T V
Ġelect ion
ul a
Jo hn
Ġl ost
oc h
j ects
Ġent ire
ĠN e
ĠChar les
m on
9 3
a ign
ĠIn stit
ell ing
9 2
p ro
Ġrel ations
Ġnov el
ĠM ary
Ġrele ase
Ġw id
ĠM ount
ific ation
ens ity
Ġme an
Ġs qu
ĠM et
Ġup on
p ly
Ġc ou
Ġdest roy
Ġev ents
Ġd er
i qu
ĠCl ub
Ġsoc ial
ĠMin ister
ĠB ay
Ġf ight
Ġdisc over
Ġf urther
Ġr ather
is ing
t or
ĠC D
ĠMich ael
s el
ish ing
Ġgro und
ough t
Ġpro duc
Ġbel ow
il ities
8 1
P ro
Ġmov ie
it ing
Ġelect ed
um p
er ous
Ġpr iv
C om
Ġh it
nd er
Ġw est
Ġorigin ally
od es
Ġfor ces
Ġ5 0
Ġh om
N ew
ĠI r
Ġkill ed
Ġst yle
) :
o res
al ign
er ry
Ġab le
ict or
Ġc ensus
Ġlar gest
ĠG reen
Ġwork ed
Ġsom etimes
p ite
ĠC ong
y d
Ġid e
m b
re land
Ġb attle
un n
Ġf ar
9 4
ĠAustral ian
Ġst ruct
Ġl ow
ent ial
Ġ199 2
Ġ199 3
Ġv ideo
Ġits elf
at ter
C l
ĠS ee
u ke
ell ow
Ġfeat ures
ul ts
Ġe ast
ĠKing dom
ines e
Ġre d
ec ut
ro te
i ers
Ġm id
Ġmark et
l ike
ra z
Ġw ife
ĠCh ampionship
Ġevent ually
Ġplay ing
Ġs er
Ġm other
Ġm aterial
ĠS er
Ġst ri
and ing
ĠG old
ĠRec ords
Ġp ress
Ġ( "
Ġper forman
ĠLou is
Ġsong s
Ġ2 9
ĠV ol
Ġin ternational
Ġwork ing
Ġme et
Ġjoin ed
ĠB o
H istory
ĠC ath
Ġal most
Ġv oc
ro ad
Ġh ard
u z
re l
ĠT ex
ĠI m
e le
Ġp ast
ĠM ark
ĠR ock
ĠTh omas
ĠFran c
ut ure
ĠA ward
Ġt ill
Ġme ans
8 2
ĠAfric an
Ġab ove
w est
ant ed
Ġs ug
ĠA lex
8 4
8 3
S A
v al
Ġw omen
Ġ4 0
Ġre n
ĠD ay
im ately
ĠSoc iety
ĠL ake
ly mp
Ġposs ible
ch ie
r d
he ad
ĠFran k
-- --
Ġgroup s
pec ially
ĠA pp
ab ility
ĠS ing
du ction
ĠT ur
Ġp ur
ot ed
c le
Ġtr ack
Ġgu itar
Ġinclud es
el t
ĠPe ter
ĠC ons
ir th
ĠS al
av es
Ġ200 7
ĠCh ina
at ors
ĠW estern
Ġinv est
Ġrec ogn
b oard
Ġbl ack
ic les
Ġm us
Ġem ploy
f ic
ĠW il
Ġcap t
ra p
Ġk ing
it ive
c er
Ġr ac
Ġfem ale
Ġun its
Ġcharac ters
h i
Ġs uff
Ġmod el
ec k
h an
ĠDiv ision
Ġc reat
ĠR ob
Ġthrough out
is l
S c
Ġfre qu
Ġsign ific
i res
om s
Ġb o
ĠT or
Ġgener ally
Ġ199 1
Ġplay ers
f ace
Ġserv ices
k m
ĠAc ad
are n
ĠRich ard
ear s
Ġro und
ĠG rand
ww w
ĠF rom
200 1
i en
r ig
ĠM ad
ab or
on n
Ġh on
Ġd ensity
ann el
Ġb ooks
mer c
Ġac ross
Ġt er
200 5
Ġw eek
ĠG o
ar ies
Ġ196 0
Ġw ord
Ġch urch
ers hip
Ġlit tle
ĠD an
un t
Ġc oll
ro wn
S p
Ġsit u
Ġph ot
ĠSc ott
ĠL ist
Ġac cess
ĠH ill
ĠP ri
Ġw rote
ĠL it
ĠI reland
ĠM at
ot a
an o
ĠO lymp
ĠT om
Ġk ey
Ġc ast
eder al
Ġc ertain
ĠF in
Ġsp ace
Ġrese arch
ĠC amp
Ġfr ont
Ġrecord ed
end s
ĠCour t
v iron
Ġschool s
u als
if f
Ġm ass
it es
Ġpartic ip
t r
ĠO ther
oy s
al a
Ġe arl
Ġp resident
Ġt en
Ġp ain
Ġcom e
Ġshow s
Ġc ost
Ġcl ose
Ġso on
Ġle arn
Ġc ross
Ġst ates
as ing
ic ian
Ġl ook
ĠM er
overn or
Ġt re
ow ers
Ġm ount
Ġoff ice
e in
ad a
Ġsystem s
ĠE v
A t
ĠVir gin
ĠGro up
ro l
en a
ĠSm ith
il es
Ġsh ift
Ġle ast
ĠCent ral
Ġla un
Ġar g
Ġa ud
Ġes pecially
as c
ĠTex as
Ġtrans l
200 6
Ġfor ce
ĠO f
Ġpoin ts
Ġopen ed
Ġm ethod
and s
ĠHen ry
B l
ĠL eg
enc ed
ĠM ex
ar io
ac her
p ts
ar ily
Ġto ur
por ts
p an
Ġto o
Ġs ay
b our
Ġr ange
ĠB en
ĠS o
ĠE arth
ad es
Ġt ype
Ġreg ular
ĠPl ay
Ġcount ries
t ime
Ġm i
ĠIn c
eng th
Ġd am
ri a
ĠAr ch
on st
ra v
h ib
Ġdesign ed
oin ted
are nt
Ġfeat ured
ĠCh inese
ĠI ts
ign ed
Ġm ales
Ġr aces
itt ee
Ġf ig
ĠL ord
Ġpar ts
ĠL ove
ĠInstit ute
h ood
Ġgrad u
rough t
ĠM us
Ġmil es
ach ing
Ġ3 1
ic y
Ġwh ose
Ġconst it
Ġd aughter
av al
at ory
Ġqu est
air s
Ġass oci
on ts
Ġresp ons
Ġoff ic
o id
Ġm unicip
ounc ed
ra el
ar ian
Ġc ounty
Ġp age
Ġv ict
on a
Ġwh ite
ĠC ast
un s
ist an
Ġn ight
ĠP enn
Ġc ivil
as ion
ĠB attle
ĠOff icial
ĠDem ocrat
Ġlead er
p art
IN E
Ġf av
e ff
ĠCh ic
g en
ap t
Ġch ange
Ġes c
ant a
ĠE mp
Ġus es
ibr ary
Ġm iss
Ġal ways
ĠWh ile
or ro
9 1
ate g
an ks
n ow
Ġimp ro
Ġfollow ed
Ġf all
at ives
ĠB ur
ol k
Ġf und
ĠM el
Ġf onts
ĠSup er
Ġm em
Ġcont rib
merc ial
ur a
Ġcamp aign
ĠComm un
Ġstand ard
Ġcap ital
ĠCar ol
Ġan al
us band
Ġt reat
Ġ ill
ĠC r
200 4
ed y
b ack
Ġmonth s
Ġinst ead
l or
: (
Ġsug gest
Ġlead ing
Ġc op
s erv
A T
Ġsup er
Ġan c
ĠP ac
yl v
Ġsignific ant
med i
w ell
ĠB ill
ran ch
n ot
Ġex cept
A d
Ġinvol ved
Ġcl os
ĠSp anish
Ġreg ard
ish op
viron ment
Ġth us
ur ity
ec ess
per or
Ġl ik
Ġeduc ation
er o
im ate
l am
sy ch
y r
Ġfonts ize
ĠS qu
ĠL iber
Ġv iol
Ġac cept
ĠUS A
ĠI f
it ect
Ġis land
Ġc ur
Ġwe ap
er gy
Ġcons ist
Ġperform ed
Ġ198 9
Ġ198 8
a o
or g
Ġde ter
ĠNew s
v ing
ĠCath olic
ĠB as
as ons
Ġto day
ĠAfric a
o e
ĠSc ot
uf act
ĠC ount
ov iet
r up
Ġprofess ional
Ġf oc
ĠF ore
ri al
id er
ĠSoc orro
ĠL INE
ĠCong ress
Ġe ight
Ġcomm and
ĠAt l
Ġk eep
ĠDep artment
ĠLINE AR
0 6
Ġc ut
Ġb rought
Ġpro b
Ġtra vel
Ġair craft
Ġappear s
um n
am s
ĠPro v
ir it
in i
Ġh usband
ĠB est
Ġtrain ing
Ġs aw
c ol
Ġp ers
Ġthe ory
ĠV ictor
ĠO ld
Ġd ata
Ġout side
Ġpr incip
Ġst re
ĠD irect
ĠFl or
ĠL ife
ord er
200 0
i os
Ġcomp uter
ĠRuss ian
Ġdirect or
ĠII I
Ġcent ral
ĠG re
" )
Ġmov ement
Ġcon v
as y
ut ions
Ġg irl
Ġd ou
ĠItal ian
Ġact or
Ġp os
at al
ĠAl though
at re
Ġg ave
b l
or se
Ġac com
Ġb oard
ĠS k
et ic
Ġ198 7
Ġn orm
Ġass ist
Ġa chie
y e
X S
ant ic
ĠSw ed
r as
ok e
ĠJ ust
est ival
C A
ĠT echn
Ġ i
Ġst op
ĠFor ce
ĠP arliament
osp ital
z a
Ġsp read
P h
re ed
Ġval ue
ĠChic ago
ĠPar is
Ġso ft
M ar
sel ves
Ġc al
Ġp ot
Ġrem ained
Ġthem selves
ill a
Ġb ig
ĠD el
ĠS ir
ĠZ eal
Ġfun ction
il ver
op er
Ġn ames
200 3
Ġqu ick
ĠM od
Ġact ion
ĠB u
Ġocc ur
" |
Ġn etwork
ĠBro wn
Ġintro duced
ĠR o
d en
O ff
Ġchang ed
i as
ecut ive
ol a
Ġtrad itional
ĠP ublic
ic ated
Ġb all
:( -
ĠSt ev
Ġprov ide
ĠJ ack
Ġs ex
l im
ĠL os
Ġrepl aced
Ġt rib
ele b
p ar
ĠAcad emy
Ġcent er
D em
i ro
ver t
ĠN ot
Ġf uture
ĠZeal and
Ġcour t
ĠAir port
g l
us ion
Ġact ually
Ġm ix
Ġs elf
ĠK ore
fic ult
ĠM useum
ad o
ĠO h
Ġm ach
ris on
Ġt akes
Ġcomp an
Ġph il
Ġex c
Ġdec ided
ĠM ost
ic ro
Ġbre ak
ĠI nt
Ġappro x
Ġr iver
Ġar my
Ġexp ress
inn er
Ġre b
ir t
b ers
ell ed
Ġme as
Ġapp ointed
ĠJ im
Ġad minist
ect or
ĠW ood
ĠS oviet
ĠM any
Ġar m
Ġ198 6
Ġsc ience
Ġre ve
ĠCl ass
ĠIs rael
ĠH ow
A ll
et te
ĠSec ond
Ġteam s
ĠM ass
um s
Ġcon duct
Ġrelations hip
Ġstud y
ĠT re
b it
Ġwrit er
anc ed
ri ef
Ġbeg inning
ut ch
os es
rem e
ens ion
Ġ4 5
duc ation
ry ing
ro ll
Ġconst ruction
is es
he st
Ġsing er
Ġdif ficult
ĠSy stem
Ġconsid er
in ct
ort un
Ġc and
Ġl ove
se e
Ġbeh ind
Ġac qu
Ġrun s
Ġmat ch
200 2
ing u
ĠVirgin ia
ig an
ist ry
ĠO ut
Ġp red
p ris
w in
Ġb ase
out e
Ġst age
Ġpriv ate
um ents
Ġh um
Ġy our
ol s
ĠP re
ian t
ĠM ur
ĠPr ince
Ġde al
ĠCol umb
Ġm akes
m ond
Ġrec ent
ylv ania
S S
act ion
in ary
Ġperson al
0 5
Ġhe re
Ġr ad
is her
Ġindivid uals
e ated
Ġc red
Ġfilm s
Ġd en
ĠG overnment
Ġl ower
Ġim m
os oph
ĠAn n
Ġ198 4
id ents
Ġne igh
Ġnew s
Ġdist rib
Ġperforman ce
h ire
ent al
ly ing
on ic
ĠN avy
Ġn atural
ad d
Ġo pt
c a
end er
Ġstud ent
Ġmov e
Ġf ood
Ġm ight
Ġun ivers
ĠPac ific
ĠI ll
ail s
Ġthough t
Ġadd ed
Ġdescrib ed
ent h
h ab
Ġm oney
ad y
Ġas k
ĠG en
Ġg ive
et her
Ġ198 5
Ġapp lic
read y
Ġp ark
Ġsp eed
ĠVal ley
Ġcour se
Ġp ay
ĠN orthern
us p
aw a
Ġpol ice
Ġrefer red
r ont
Ġpo et
w ith
ĠC arl
Ġcont ains
om a
ĠR adio
ĠGeor g
Ġcol lege
Ġw ind
Ġs at
Ġman ufact
Ġsub sequ
Ġorgan ization
Ġhig her
ol it
ĠM ill
0 7
ĠG reek
Ġ19 50
e el
oun ter
Ġr ights
0 1
ist ics
Ġconc ern
ech an
Ġindust ry
ĠB C
Ġcom mercial
ĠServ ice
an i
pp ed
Ġresp ect
Ġs ection
Ġwh om
0 2
Ġprov ided
Ġdeg ree
ur t
ĠIr ish
Ġs em
ĠEmp ire
ĠMart in
ĠA re
Ġcomp os
Ġsub ject
Ġp iec
Ġallow ed
az z
Ġsc ient
W hen
Ġcult ure
ĠSc ience
ĠD ou
Ġs outhern
0 4
ĠB ob
eb all
Ġm ur
al ed
Ġpur p
ĠU p
Ġb r
Ġindepend ent
Ġco ast
S he
Ġs um
ĠG ar
Ġ x
Ġl o
ĠS aint
ib ility
ĠSec ret
b ur
Ġplay s
Ġbet ter
A ccording
Ġmin or
Ġen ergy
Ġcrit ic
ro s
Ġg e
Ġg ot
Ġinst it
Ġal one
ĠH aw
ian o
ĠFlor ida
E x
Ġg old
ĠTh at
Ġb ur
ĠQue en
Ġterm s
av en
Ġparticular ly
Ġt aking
ian ce
Ġocc up
Ġs ch
ĠO l
f it
Ġc y
Ġappear ance
ĠDe f
u a
Ġn orthern
i ences
s ylvania
ĠT ra
Ġcomple te
A S
ĠW ind
ĠH istor
ĠL ine
Ġnum erous
Ġrel ated
ĠAngel es
Ġse ven
th ing
ov ed
Ġo ur
ĠB us
ĠB ig
Ġmag azine
augh t
ĠS un
ĠE r
if y
ĠS at
Ġab s
ĠD en
ĠE lect
Ġ198 2
e en
0 3
ĠJ ud
ĠT wo
Ġrec ently
Ġcomp lex
Ġ198 3
ĠA rab
Ġreport ed
Ġ6 4
Ġc ust
L e
Ġc le
ers ey
ĠD is
led ge
ĠJos eph
Ġrequ ired
im b
or ial
Ġinst r
u ge
isc o
Ġo p
Ġr ank
ĠL ong
Ġcomple ted
1 00
ĠF ort
Ġform s
Ġindivid ual
k en
Ġal ready
l a
g ing
Ġact ive
en ed
Ġs ource
all ed
ad ium
ver y
Ġm ention
m ission
Ġd ate
Ġnew sp
Ġsur round
Ġob ject
Ġv eh
ĠT ime
A meric
ĠO per
ĠH am
Ġj ud
tern et
ĠSp ec
b ury
or por
w er
ian a
Ġl og
Ġn eg
Ġdis p
Ġv ia
ain e
C ol
Ġpract ice
Ġsec ret
amil y
ment ary
b ased
Ġm ission
Ġw ords
por ary
Ġl ength
p ing
m ark
or al
ĠOr der
Ġex am
il ly
erv e
Ġor d
Ġmus ical
ĠR h
t a
Ġmean ing
Ġcol lect
Ġfeat ure
Ġrun ning
D uring
Ġto wards
nt ario
Ġ197 9
Ġen ough
Ġ198 1
n y
vent ion
is ions
om p
Ġrem ains
ar ing
ĠT er
ĠF red
Ġcomp let
Ġrelig ious
Ġfe et
Ġad op
Ġdef eat
il s
Ġearl ier
ĠB re
ĠD oc
Ġfin ally
Ġlong er
r im
ell a
ac hes
ĠM a
Ġhe alth
est s
ĠPenn sylvania
Ġsome one
Ġpr ison
ĠItal y
ĠBl ue
ĠD o
Ġc eleb
Ġloc ation
Ġcaus ed
ran ge
Ġal tern
ĠS ol
Ġiss ues
ĠB ook
he ast
ul f
Ġgo ing
Ġcand id
ĠP et
Off icial
ĠF ilm
Ġg rand
ir m
ĠRe ferences
Ġdeb ut
em ic
Ġmost ly
Ġdisc uss
in et
ĠF ound
ĠComm ission
0 9
Ġt ax
ed ia
ut y
Ġacc ording
Ġre ason
le et
Ġb i
it iz
k ins
ĠR oute
Ġpl aced
he t
Ġoper ations
ĠOh io
Ġdef eated
ĠH el
Ġmed ia
ĠBrit ain
ĠS eries
Ġset t
ĠTown ship
Ġb omb
Ġin sp
Ġprogram s
oc key
Ġw oman
0 8
Ġy et
Ġprim ary
Ġpl ann
ĠL ee
Ġd one
w rit
Ġwrit ing
Ġ4 4
ĠK h
Ġequ ip
ĠW ales
Ġlin es
ĠM iddle
ar ter
Ġim medi
Ġhous ing
Ġt ar
ĠG al
Ġfor ced
Ġre ached
199 9
om er
Ġres ults
ĠN ight
Ġd on
Ġsh own
Ġmult ip
Ġin j
Ġw estern
y ear
Ġarch itect
Ġsign ed
Ġc ities
Ġown ed
Ġp urch
Ġe arn
Ġter rit
Ġtrans fer
ĠM en
ul ated
ip s
ĠO ver
ĠAl so
r ate
Ġstruct ure
a ult
Ġiss ue
ĠSt ation
Ġproble ms
A C
ĠU nder
ult ure
W ill
Ġchang es
Ġ er
Ġlim ited
ĠJew ish
Ġturn ed
in ter
ĠR os
Ġlar ger
ĠM em
Ġcre ate
g u
ĠT ri
ost on
ĠS ub
os ing
Ġle ague
A m
at o
ĠE ducation
Ġapprox imately
ĠO ntario
p ress
ĠS ong
ĠL and
l it
Ġse qu
ell ig
ĠP an
ĠYou ng
Ġart ist
Ġb ank
Ġb irth
O ther
Ġdirect ed
Ġ197 4
b on
Ġbroad cast
ĠB oard
f ect
Ġ ess
ĠSh ow
ĠL in
ure au
ĠJ un
Ġsc ene
ĠComm ittee
o h
Ġcom es
ĠCarol ina
F ran
ĠF ootball
ĠSoc ial
Ġcompan ies
ĠE c
ĠS ur
Ġnum bers
ch ange
sh ire
E R
st anding
Ġtrans port
Ġc ases
Ġvar iety
Ġ197 8
Ġn ature
ak a
Ġ197 6
iz ing
Ġa f
it ation
or a
Ġh ttp
Ġet c
Ġb rief
199 1
ĠY ear
ĠMex ico
or ing
Ġk ind
ĠL ab
eth ing
at ively
raz il
Ġbelie ved
ĠS outhern
B A
Ġw ide
Ġr an
ĠJ r
w an
Ġquick ly
ĠĠ ĠĊ
i y
Ġst ations
Ġcol lection
a it
Ġtr ue
Ġant i
b s
and a
Ġw eb
Ġestab lish
f ile
Ġse at
Ġtechn ology
Ġwhe ther
E d
Ġs ummer
ill ed
ĠT im
por ation
Ġ197 2
Ġcont ract
O ne
emb ly
l o
ĠEd ward
H is
ac ing
che st
Ġs af
Ġassoci ated
Ġann ounced
Ġdoc ument
Ġ197 5
Ġp en
Ġn ecess
oc al
ript ion
Ġaward ed
ven ue
Ġatt ract
ĠCh ief
ĠEng ine
ĠA v
Ġsh ot
Ġun it
Ġtr ade
ĠE le
l ight
Ġro ute
Ġl ay
Ġcent re
Ġem b
ĠG ood
ĠScot land
ĠH on
Ġsp orts
err or
Ġj ournal
Ġf arm
Ġmajor ity
ag n
Ġpro min
Ġl oss
Ġinter view
w ar
Ġc ause
h t
Ġwho le
Ġsim ply
Ġb ound
Ġf if
ĠLit tle
um ber
ĠT ro
Ġs usp
ĠS ince
Ġde ad
A N
Ġpl ant
M S
Ġl ived
i ated
ĠT imes
ĠB oy
Ġun c
ĠThe ir
ĠA p
g ar
Ġ197 7
ĠR el
Ġhig hest
Ġtrad ition
ĠW ay
Ġw r
Ġb ox
a ud
Ġro om
ĠE p
Ġbecom es
Ġab ility
ĠSe a
Ġfriend s
Ġen vironment
ĠO x
ĠT em
Ġn ar
p ut
Ġanc ient
ĠC ross
ĠD ev
Ġcol or
ard en
Ġhigh ly
Ġd ig
und red
Ġed ition
Ġ197 3
ĠB ank
ĠEm peror
F L
a res
Ġw ood
Ġmur der
ĠJ ones
aren ts
S T
i h
Ġf ace
Ġd u
ĠAs ian
ĠW al
it ude
Ġdec l
Ġh ot
ĠAr ts
ing er
ĠPro fess
st ein
ĠPr ime
ĠH ot
Ġl ives
ĠM ore
ĠC le
erv ative
Ġst ep
Ġj ob
Ġe mer
Ġcon cept
ĠD uke
s k
Ġconst ruct
iv ia
Ġp il
and ed
ĠAb out
Ġrem ain
Ġinflu ence
ric e
im a
Ġm iddle
ast ic
ĠPe ople
Ġd raw
Ġcontro vers
r ich
Ġlangu ages
c el
ĠSp ain
ĠMc C
A nd
Ġrequ ire
ic an
Ġsepar ate
199 8
Ġth reat
ĠB ureau
Ġ ens
Ġ6 0
Ġactiv ities
mit ted
Ġob serv
m as
Ġmain ly
Ġprevious ly
h ouse
Ġvoc als
ĠG ame
ĠM ot
Ġre view
Ġend ed
Ġbecom ing
Ġs ays
gy pt
acks on
Ġrail way
D on
ĠJ ul
ys is
Ġspec ific
ĠC ensus
ab les
ĠĠĠĠ Ġ
Ġint eg
ĠC ro
Ġb ene
Ġcontin u
Ġnear ly
Ġprob ably
ĠW ebsite
Ġsoc iety
Ġse a
ab b
ĠBro ad
Ġhe avy
Ġ196 8
ĠDemocrat ic
Ġb ring
Ġproble m
ect ive
Ġprov ince
Ġlist ing
Ġpolit ician
ĠU l
Ġn ation
Ġleg al
anc ial
amp ion
I nd
Ġlab el
Ġbuild ings
arri age
Ġstat us
ĠC ivil
Ġbl ood
Ġgo al
it ors
ul ations
el d
ĠK ong
ĠG irl
Ġst ories
t ained
Ġsur face
Ġship s
Ġsoft ware
Ġinvest ig
Ġsch ol
ĠJ ersey
B S
Ġfoc us
Ġst aff
Ġsp ent
ple ment
is ation
ac ts
Ġind ic
ĠM ov
ĠS ar
ĠRuss ia
ĠB oston
ron ic
at i
u an
or ough
Ġnot able
Ġfor t
Ġdiv ision
g ent
Ġb ass
ĠTe am
ĠP o
ri ed
h ol
A M
Ġcompet ition
5 00
ect ions
ail y
Ġ197 1
Ġprov ides
Ġd ram
Ġf ans
is k
ad el
Ġcommon ly
Ġart ists
Ġsy mb
M an
ĠRail way
hem at
ĠL uc
ent y
res p
ĠP ower
Ġc ard
Ġ196 9
Ġam ount
ĠColumb ia
Ġpower ful
Ġan g
ĠM ax
a ith
qu ar
Ġr ule
Ġpass ed
as ts
ous ly
Ġh ours
od ay
ĠB ow
Ġs en
ĠD i
ri f
Ġl ack
ĠR ay
et ball
ĠCon n
O N
Ġeconom ic
Ġpre vent
th ur
Ġacc ount
Tr ack
Americ an
ĠHe ad
Ġcl osed
Ġch ief
Ġw inning
Ġnot ed
Ġev idence
Ġd om
Ġfore ign
ir a
ĠIs lam
Ġf oot
Ġth ings
ab y
m ore
Ġc ode
ĠG ra
Ġte acher
Ġst ay
ĠG all
Ġwid ely
Ġde ep
Ġd ed
air man
Ġse em
ĠB BC
Ġg un
Ġtro ops
ĠM id
V D
ĠF re
ĠW eb
ans as
Ġsuc ceed
ĠHigh way
Ġd omin
ĠC y
ag er
ĠFranc isco
orn ing
urb an
igh ter
Ġc lear
199 7
ĠK ent
ob ile
Ġdiscover ed
ĠL ight
ĠF ire
ĠP op
ĠG overnor
k er
Ġpl at
k ing
Ġm echan
Ġr ate
Ġdirect ly
ĠD utch
ĠP ost
i ents
Ġp ict
Ġp aper
ĠW ater
ĠB ul
ib l
D e
Ġcre w
ĠSt an
ĠE arl
Ġv oice
ino is
Ġe as
Ġlik ely
Ġide a
Ġ19 45
ec ause
Ġs ister
hen s
p re
Ġfour th
Ġp sych
ĠV er
ĠIn f
c an
ont o
Ġ196 7
ult ural
ĠLat in
Ġpol icy
ran g
ĠWilliam s
Ġa p
Ġsc reen
ar ry
wh ich
o ir
ĠSt ep
b re
Ġqu al
j a
ĠW ild
th let
E l
Ġset tle
ou d
Ġclaim ed
ir ing
op her
im um
Ġpri or
Ġproper ty
Ġquest ion
ĠF ar
Ġaut om
ĠU s
Ġcan not
Ġc hem
Ġ19 40
ĠO tt
Ġin n
ĠB et
ĠPort ug
Ġfin ished
ed d
ĠD ie
he ster
h aps
B e
Ġed itor
Ġhistor ical
Ġcons ists
Ġra re
ĠRes earch
ĠA ccording
ĠV an
Ġcon fl
oun ts
Ġexper ience
ĠE gypt
ĠS and
Ġd ro
ĠE nd
Ġdestroy ed
d own
st ant
ire ction
ib ly
Ġprim arily
l ines
ĠC at
ĠR og
Ġact ress
ĠM ah
ĠC am
Ġd rug
Ġle aving
os h
i i
anc y
Ġmunicip ality
y ric
ĠJ es
Ġc at
Ch ar
ĠCent re
ĠC amb
re ct
Ġent ered
Ġatt ended
m ir
ĠH ome
ĠCh arl
Ġtr acks
199 6
Ġhe art
ĠE astern
over ty
Ġproduct s
k o
ict ional
Ġco ach
Ġmet al
ĠM ajor
Ġpo or
Ġrespons ible
on se
Ġf ail
ĠK enn
t ies
ĠW all
ab eth
Ġra p
ĠUS S
Ġdef in
ĠAl bert
Ġun iversity
Ġtown ship
Ġhel ped
Ġth ink
ĠCh ild
ĠAr m
ra q
ĠW ars
Ġrefer ence
ic ks
ĠJ ackson
Ġsmall er
Ġposs ess
Ġcol on
ĠDirect or
Ġtyp es
Ġac ad
ĠT w
Ġpl aces
bur gh
Ġmanag ement
k in
ĠGeorg ia
ĠB ridge
osoph y
Ġrecord ing
Ġtem per
ĠL ibrary
S ome
ĠS om
ĠA ut
ĠUn ivers
h ttp
Ġstud ies
Ġen emy
Ġto ld
und er
ĠMich igan
ee ks
Ġlead ers
ĠL ater
Ġele ments
ag ing
Ġcomm it
a wn
ĠAl b
Ġincre asing
ĠB razil
ĠP ak
Ġp arents
Ġcommun ic
Ġfe el
ig er
h at
Ġoper ated
il ed
ur ies
Ġadd itional
Ġc ell
ĠPro t
ĠD et
S e
Ġoffer ed
Ġle ave
Ġ19 30
Ġin side
Ġopen ing
Ġleg isl
m et
Ġd ark
Ġvers ions
av a
Ġg re
Ġf ailed
y es
Ġ196 6
Ġapp l
Ġlaun ched
ograph ics
Ġdec ision
ĠP res
it er
Ge ography
at ers
ĠG ames
ĠE ll
Ġapp arent
ĠM os
ĠB and
ĠBar on
st ate
g ely
Ġl atter
ut en
Ġtyp ically
al le
Ġn ative
ĠC orn
ĠF our
iz ations
Ġqu ite
ĠEn ter
r ative
ak ers
ĠIll inois
ĠJohn son
it led
Ġm ale
Ġc itiz
om et
a is
te en
ent ed
er c
iz es
i ate
is hes
Ġstre ng
Ġstud ied
oc ks
199 5
ĠR y
W e
ĠJ ac
Ġ196 4
Will iam
Ġsp irit
Ġdis e
w ide
ĠN ative
ĠR ome
ul ly
ĠM aster
ed s
ĠCor poration
Ġn uc
em porary
Ġprodu ce
Ġd iss
Ġp overty
Ġs u
| |
w orth
velop ment
ĠF estival
198 1
ĠOx ford
ĠJ ournal
Ġcomm ission
Ġsom ething
um ed
D r
ob al
ay a
Ġm ess
ĠJ eff
I s
Ġphys ical
Ġincre ased
Ġhand s
el a
ĠAs ia
Ġdes pite
ce an
I S
ĠSpec ial
Ġmin utes
Ġthere fore
ĠPro gram
Ġcamp us
Ġh undred
is ters
Ġe astern
ĠT our
Ġv an
ĠD ark
ĠF ield
ĠO pen
ĠO s
Ġknow ledge
ic ient
on ent
Ġst ated
ant ry
Ġt ells
Ġcont r
ĠJ er
n o
Ġas p
Ġ ut
Ġgo es
ap ers
ĠAt t
ĠA wards
N A
st r
ĠOff ice
et ts
Ġpro gress
Ġ196 5
Ġ3 5
ĠB ern
ict ed
ĠS ummer
e es
c on
Ġl iber
or ge
Ġlevel s
ĠAlex ander
ĠP ers
b ar
Ġt al
Ġmention ed
ĠC ard
ĠCo ast
eat her
Ġlar gely
Ġin hab
Ġn omin
ĠT op
ollow ing
Ġun ique
Ġc arried
Ġadd ress
Ġth r
Ġo il
Ġdel iver
Ġch all
Ġt alk
ak s
Ġl ic
a un
Ġrac ial
j i
enn is
Ġ8 0
i est
Ġf ederal
ĠM u
Ġg ives
ĠJ ean
Ġb ad
ĠV ill
ul es
ot o
ĠR am
Ġmed ical
Ġoffic er
Ġnewsp aper
n am
im in
ĠC reek
Ġeff ects
P r
ion e
per ial
o z
rick et
v ement
u ct
Ġp owers
E S
ĠS pe
D av
rup t
ach us
ag ement
U S
in y
w ick
Ġclaim s
Ġb ridge
eder ation
ĠJo e
Ġpl ans
ĠD un
Ġar rest
Ġpe ace
Ġm ind
Ġserv ing
Ġrecord s
Ġ3 2
on ents
ĠBel g
v a
Ġoper ation
man n
ĠA venue
Ġp ick
ĠCh ap
Ġbeg ins
Ġdis play
ĠI raq
ĠBe ach
Ġcontin ue
ĠBro ther
m od
Ġrul es
Ġ19 44
Ġv on
Ġ +
ar p
ast y
Ġc ounter
ĠPhil ipp
Ġform at
Ġask ed
ro g
Ġfrequ ently
ĠH ong
F rom
ĠY our
Ġlaw s
ou ri
Ġnear by
stit ution
Ġcomplet ely
ĠB al
Ġhous es
Ġhe ro
C C
Ġepis odes
Ġ9 0
Ġse ems
Ġbl ock
Ġvers us
ĠR et
199 0
Ġm m
Ġdist inct
Ġimmedi ately
ĠComm on
ap ed
Ġb oy
ic ed
im al
il a
ĠAnd rew
Ġpr in
Ġinc orpor
ress ion
Ġc art
Ġint ended
re es
Ġserv e
ff ic
Ġ ult
Ġext rem
et y
ĠH ung
ĠM ike
on ia
ĠK e
adel ph
ĠIsland s
W ith
ĠSecret ary
Ġf ell
ay lor
Ġcond itions
ang er
Ġad j
en ge
Ġref ers
Ġatt acks
ph y
Ġbl ue
Ġg as
Ġweap ons
ĠTor onto
Ġproduc er
al so
Ġc oin
Ġstud io
Ġdiv ided
ad or
ĠM as
Ġmanag er
Ġf ictional
D es
Ġbas is
Ġw eeks
Ġs n
n el
' ,
Ġw ear
Ġfore st
Ġall ows
ĉ ĉ
B y
Ġ. ..
Ġmach ine
Ġth ous
Ġincre ase
am i
ĠVictor ia
Dem ographics
Ġrepresent ed
ors hip
Ġw alk
Y ou
Ġm arriage
Ġch ampionship
o is
uck y
ĠPol ish
ĠH un
Ġf ast
a ver
199 4
ĠS ite
n et
Ġcom ic
ĠAs h
Ġman aged
ĠN etwork
Ġl if
Ġtown s
ad er
Ġrem aining
Ġsupport ed
Ġra ised
iz abeth
adelph ia
ĠRev olution
Ġfig ure
ĠU r
Ġ19 20
Ġcon ver
og ue
Ġqu ality
y th
Ġpre c
Ġc arri
ĠScott ish
form ed
ĠB udd
ĠTh ree
ĠB ack
ap pen
Ġb order
Ġpromin ent
ild ing
Ġbelie ve
st one
Ġcontro ll
Ġdou ble
Ġs ens
. );
Ġb att
ĠL ew
ĠPak istan
achus etts
ound s
Ġs earch
G u
Ġret ired
ĠS und
Ġarr ived
Ġd og
Ġsl ow
Ġh ol
ograph ic
Ġdeter min
Ġs ense
Ġmeet ing
Ġp ack
Ġdep art
ĠOr ig
b ec
ub e
ren ce
Ġneed ed
en es
ĠM inn
Ġnorm al
Ġfeat uring
resp ond
ak i
h ost
Ġd irection
ĠMus lim
Ġsh are
Ġpart ies
Ġsim ple
ĠSt at
ĠF ree
enc ies
Ġalbum s
r or
C on
Ġte le
Ġneigh bor
em an
Ġg iving
ĠSy d
Ġsom ew
ct ions
A b
ĠB ell
v is
ĠD isc
am ber
I D
' .
ĠF air
ĠL ive
ĠThe atre
Ġun known
Ġro b
ĠM ales
ĠR om
Ġst reet
Ġm aster
v in
O R
N o
Ġser ious
A F
Ġp un
Ġlet ter
Ġsqu are
chest ra
Ġv o
Ġcover ed
ĠIn formation
Ġ196 3
ĠHar v
Ġann ual
T o
Ġmod els
ĠR od
Ġen j
am in
es h
Ġon line
y o
Ġto urn
Ġfav or
ĠIn ternet
199 3
ĠI d
ĠO b
ĠCommun ity
ĠSp ring
ĠW ork
Ġc ars
Ġpress ure
ĠP en
Ġelect ions
ĠCon f
Ġcou ples
O S
ay er
Ġre pe
ĠF amily
ĠCap tain
Ġfight ing
Ġd ial
Ġvict ory
Ġreve aled
Ġim age
iqu es
Ġf air
Ġs ources
ĠFound ation
at ab
Ġch ap
Ġst e
Ġg od
19 71
im s
ht m
Ġg reen
Ġbel ong
ĠD own
Ġ );
Ġequip ment
Ġg rew
Ġw anted
Ġfin ancial
R ep
Ġliter ature
I T
Ġ196 2
Ġinstr ument
ot ion
pt on
Ġ era
ĠI ran
ĠK ar
ĠB all
Ġex hib
Ġresp onse
ĠB at
ĠK en
ĠPro ject
Ġgo als
ĠSp ace
Q u
Ġrem oved
yn am
Ġb rand
ie uten
F A
m ad
im ated
Ġst ore
Ġcontin ues
ĠInd epend
ĠM ir
ĠCast le
y t
Ġc am
ĠH al
Ġtri ed
ic ine
es ota
ĠB oth
ath an
ag a
ĠWil son
n es
ound ed
ĠL es
ellig ence
Ġsol o
Ġgrow th
Ġatt ention
Ġsp lit
ĠAss embly
Ġd ance
Ġpresent ed
Ġc ateg
Ġdam age
amil ies
Ġgre ater
C D
Ġsl ight
on ed
p osed
B ar
Ġcont est
Ġsold iers
os a
ĠS ev
ĠV en
Ġchar ge
Ġfollow s
Ġstart ing
Ġs uit
Ġsh op
ĠF er
ĠL u
Ġb ird
ĠHe alth
ad ow
Ġpurp ose
Ġ5 00
ĠC oll
iv ity
ĠDe ath
os en
ĠJust ice
Ġoff ers
r ical
ĠTechn ology
Ġun s
ĠMass achusetts
Ġserv es
Ġh op
Ġp ath
Ġhe av
Ġg ained
ĠĠĠĠ ĠĠ
ĠS il
ĠSen ate
ĠStev e
Ġsec urity
and y
Ġper cent
Ġhon or
ap h
ĠW omen
Ġmov ing
b o
yric s
ĠOr gan
Ġs al
ĠV iet
ĠKore a
en ger
ad ron
g g
Ġrel atively
Ġfl ag
E ng
Ġcapt ured
cl us
s en
Ġc ouncil
Ġc orn
h ing
Ġadop ted
Ġoper ating
ut her
ip l
ĠR em
ĠSyd ney
ĠH y
Ġelect ric
z er
Ġp urs
ĠB ra
ĠDan iel
Ġ ice
Ġ19 43
Ġtar get
ĠI V
ĠH a
yd ro
Ġg raph
in ity
Ġfl ight
Ġsubsequ ently
erv ation
ĠA k
Ġband s
Ġent er
Ġplan et
Ġres iding
Ġr at
Ġsc hed
ĠF ox
Ġplat form
ĠPhil adelphia
Ġm om
Ġmultip le
N e
ĠCor ps
ĠD ar
ĠOlymp ics
ĠRepublic an
b a
ĠL ike
bour ne
eg a
i able
199 2
ĠL im
Ġinit ial
Ġ7 0
ĠM ain
i at
Ġcomb at
ĠO k
ins on
ant ly
ol ved
ieuten ant
o es
ĠH uman
Ġinit ially
ol is
ĠGu ard
Ġmount ain
ĠL t
ĠJ on
ord in
el ly
Ġmake up
ĠProfess or
ĠMount ain
Ġ19 42
om m
i ot
r in
Ġbeh av
b ed
ĠT est
ĠAn other
Ġres ist
ĠHis pan
ĠM ic
M ay
Ġsh oot
ell er
b ro
re al
Ġcont act
od ies
Ġv ote
ĠD VD
Ġb ranch
ec e
Ġcre ation
ĠAd d
Ġcompos er
ri z
Ġcomp osed
ac ity
ĠCh annel
le ep
al i
Ġcap ita
Ġocc asion
Ġbe at
ĠEc onom
Ġsc ore
ĠK ir
it ness
Ġleg end
ĠP ubl
Pl ot
Ġdem onst
w ise
Ġbe aut
J an
Ġk ept
ix ed
ĠMar sh
N ot
Ġres idents
Dav id
Ġtit les
I m
Ġprov inc
Ġst ars
w a
w ing
un ction
Ġ ir
Ġcult ural
Ġp le
se y
Ġw ant
ĠS her
Ġcont ent
or ation
ĠDoc tor
Ġst ra
ĠA st
Ġmat ter
Ġindust rial
ĠS a
Ġex ec
ĠM P
ert o
W est
ĠĠĠĠ ĠĠĠ
k es
R A
Ġro ll
Ġaccept ed
ĠB a
re ement
ĠS anta
ĠC a
ĠF ederal
Ġf iction
Ġh appen
Ġback ground
al m
Ġpre m
Ġ196 1
Ġch annel
itz er
ĠL y
g rad
Ġent ry
ĠB rad
ĠH ind
Ġper haps
ĠProv ince
Ġe arth
Ġthem e
ul s
y er
Ġim plement
Ġprop osed
Ġdist ance
Ġcont ain
Ġch o
Ġexper iment
ĠT aylor
ĠCh ris
olog ist
ĠAre a
ĠB ad
ĠMinn esota
Ġded icated
O r
I A
Ġam b
ĠRev iew
Ġn ine
ĠAr thur
rest ling
ot ing
Ġcor respond
r ant
re c
ĠSwed en
ask a
S outh
Ġconc ent
Ġmot or
ĠAtl antic
S P
Ġl ies
ut ation
Ġa st
ĠH ospital
ĠAr gent
ing ly
Ġb ott
ang a
Al though
Ġopp ortun
Ġsitu ation
or ph
Ġpot ential
Ġterrit ory
if ul
i ar
ru ce
ĠPol it
ĠPri ze
Ġlist ed
L a
g a
Ġextrem ely
ĠWh o
ĠH ay
l oad
Ġk il
ĠEl izabeth
ĠJes us
am m
Ġse asons
ĠF orm
Ġab and
ĠH ard
ĠHispan ic
yn asty
Ġofficial ly
ur ric
ĠCol or
ĠT ony
rug g
ĠPol and
Ġact ual
ĠCon ference
ĠG reg
Ġf t
ind er
Ġse lected
ĠL ady
pt ion
Ġ19 48
E C
Ġb it
e z
ĠFore st
ut s
Ġrec over
Ġsitu ated
." ;
ra wn
Ġre ach
Ġpre p
cl ass
ĠDe velopment
Ġ19 41
Ġappro ach
Ġb ow
ĠBer lin
H L
ĠC irc
f amilies
ĠJew s
Ġcandid ate
ĠAn th
C an
Ġp an
N otes
Ġv irt
Ġread ing
in ally
Ġnecess ary
ĠD ig
i ary
Ġ19 59
lud ing
ĠAnd erson
g ers
Ġ19 47
Ġcust om
D ec
ĠSt and
olit an
Ġsay ing
N orth
Ġ19 58
ol n
Ġm is
ans ion
ĠRep resent
Ġrap id
Ġt end
Ġbas k
p et
ĠN ow
ĠM oon
ect ing
if orm
for mer
ĠD ream
Ġ19 56
Ġpat tern
Ġ19 46
Ġup per
ult y
Ġbas ic
Ġcommun ities
Ġh or
G eneral
ĠWh at
pris e
Ġeff orts
en ing
J ames
ĠSim on
ĠC ub
ell o
Ġfound er
ĠPl an
ry st
Ġdr ive
P er
Ġmem ory
he im
Ġmin ister
g n
Ġconstruct ed
Ġfac ilities
t ra
og y
w ater
Ġexp ected
ĠS n
ĠT it
Ġenc our
Ġ3 3
du ce
Ġcomp ris
Ġactiv ity
Ġw ays
ĠW alk
Ġext ended
Ġunder st
ether lands
' m
ur d
Ġf irm
Ġacc ident
Ġcoll abor
u ation
ĠGold en
Ġaf fil
" ).
v an
w here
Ġpolit ics
l av
ul ate
ĠS ant
ĠChrist mas
ash ion
Ġeas ily
quar ters
ĠHar ry
Ġtreat ment
ĠOlymp ic
ad ing
ĠBus iness
Ġt able
Ġpro jects
ĠD am
ĠCount ry
Ġwe ight
ĠD er
Ġcom ing
ran ce
pp er
ag an
Ġmed al
u i
Ġsurround ing
Ġle aves
n ce
og rap
Ġl ot
ĠHol y
ĠStep hen
Ġh ospital
N ov
Ġf ought
Ġattem pts
ĠB h
Ġhousehold er
Ġpiec e
Wh ile
ĠN az
Ġdef ined
19 61
ĠT ok
Ġorder ed
ak ed
ev in
Ġim pl
ĠLat ino
Ġgrow ing
Ġext ra
ĠLiber al
ĠC are
Ġcitiz ens
Ġcomb ined
Ġ19 57
ĠA ff
198 9
ik i
ĠTur k
Ġsomew hat
Ġprogram ming
we ight
atab ase
Ġhold s
el ine
Ġ19 39
Ġsen ior
ĠInd ust
Ġmain tain
ĠS av
Ġar ts
res h
Ġm ax
ĠF ord
f rom
ress ed
Ġacqu ired
Ġt ree
ĠCamb ridge
ĠT s
Ġlead ership
Ġfor ward
ĠE st
Ġappl ied
Ġart icles
ĠSp orts
Ġar ms
ĠMag azine
Ġweap on
Ġqu arter
ĠP C
us c
E n
Ġpres ence
Ġstreng th
ug by
Ġmeas ure
Ġanim als
ĠPol ice
ro om
ap ore
Ġf ully
Ġ19 55
ĠE ach
ut ing
Ġoffic ers
in em
enn ess
ann a
Ġover all
Ġren amed
idd en
M y
Ġdep artment
ĠL ind
Ġdist ingu
ĠK ey
Ġ3 6
Ġtw enty
ĠW at
er ick
Ġiss ued
ĠC op
Ġtra ffic
ly wood
Ġy outh
Ġex act
ĠSwed ish
Ġc er
Ġdise ase
Ġv ac
anc ing
Ġappear ances
ur er
ĠQue bec
ĠC z
ĠL o
Ġanal ysis
Ġun ion
Ġwh y
Ġorgan izations
Ġexist ence
ĠL et
Ġadminist ration
is a
Ġme ant
Ġatt end
w orks
Ġconfl ict
Ġearn ed
Ġclass es
Ġenj oy
Ġeff ort
ĠB ooks
Ġp et
Ġb urn
al y
Ġus er
d a
Ġallow ing
Ġh orse
ac hel
m es
cl op
Ġend s
ĠSt r
Ġw ild
M A
ĠF inal
ĠG er
os is
ir ty
ĠSup reme
ri e
ĠR oss
Ġb al
M ich
Ġp it
Ġcond ition
in us
Ġcal c
Ġsp ort
um es
ĠPr in
Ġh ar
Ġm ill
ac ter
Ġent itled
er al
Ġresult ing
Ġsex ual
ric ts
ĠStud ies
Ġold est
ĠP ass
Ġcor rect
Ġdecl ared
Ġreg ional
el le
ĠGu ide
ĠLew is
ĠB att
v est
Ġt rying
c ont
Ġprofess or
ĠMar c
Ġplann ed
Ġbel ief
I f
! "
ord on
Ġan s
ĠDav is
Ġgradu ated
ĠF M
R ec
Ġscient ific
i ac
Ġ( )
l aw
Ġg ets
Ġinhab it
ĠB ox
Ġper man
Ġf ellow
ĠT oday
Ġsy n
Ġsucceed ed
ĠB ecause
ĠB ir
ĠMed al
Ġf an
l ers
ĠBr ig
Ġs il
Ġp p
ĠB ishop
Ġport ion
al ing
inn ers
Ġ19 54
is ode
in ing
Ġ19 52
ly n
Ġauthor ity
.. ..
ĠHe art
Ġet hn
Ġsub s
Ġh y
oc ated
ost er
R obert
angu age
u h
ĠAd vent
Ġb ul
Ġdo ing
Ġ19 49
u ate
ĠB ol
Ġfig ures
ĠDes pite
ĠB ab
Ġmy th
Ġacad emic
ĠU N
ĠAl f
F l
ĠH om
Ġhe ight
Ġopp osed
ĠReg iment
ĠAnt on
Ġsc ored
Ġ19 53
Ġhe ard
ĠN ic
are t
ow nt
ant asy
enn y
Ġrecogn ized
Ġf it
Ġw inner
ĠN ations
ĠRail road
D isc
ver se
Ġcol umn
ĠCon c
ĠS ix
ĠP rem
Ġ urban
Ġcall s
rop ical
we et
it age
ĠN etherlands
Ġmethod s
Ġs ac
Ġnuc lear
am ing
gl as
ĠMiss ouri
z o
Ġh arm
l ar
Ġm ap
r um
Ġlet ters
ĠB ush
ond er
Ġm useum
Ġrece ive
amil ton
Ġst rugg
Ġmunicip al
Ġneed s
P S
Ġesc ape
Ġre form
ĠT ar
S te
C O
Ġc ards
Ġsymb ol
Ġact ing
m outh
isc ons
Ġfl oor
Ġfl ow
m iss
b ell
Ġill ust
Ġconn ected
Ġadv ant
Ġres emb
ess ion
Ġqu ant
iscons in
ick n
ru it
Ch rist
Ġdid n
enn a
ĠM icro
Ġfre ed
ĠB on
Ġown er
ĠP it
ill ing
inc oln
ĠP u
Ġh air
Ġpl ants
Ġm ut
Ġres c
ĠN ap
Ġbask etball
Ġnot hing
rop olitan
l ife
Ġbas eball
Ġprov iding
Ġcap acity
y al
est ic
Ġch osen
ĠT en
19 51
ĠH an
ri ev
Ġ3 4
Ġse ats
Ġattempt ed
1 12
Ġyoung er
es c
rom e
ĠS em
N ational
ĠB rian
Ġdev ice
Ġaud ience
Ġro les
app y
Ġpl ot
Ġsup pl
n s
ĠH art
Ġsp ect
ac ement
Ġact ions
ĠR ad
Ġref used
Tr ivia
19 36
R ich
Ġres ident
S up
ĠC as
Ġlab or
Ġorgan ized
writ er
ĠPhil ip
le m
id ae
Ġt ry
Ġt im
ou red
ever al
Ġvis it
Ġt aught
Ġveh icle
Ġl yrics
Ġschol ars
ip e
ow a
Ġsit es
Ġw all
Ġcrit ical
ĠR un
Ġtw ice
' re
1 10
Ġ3 8
rop ri
L A
Ġoccur red
Ġfind s
b ook
ĠB ang
Ġext ensive
Ġmag n
ĠAb b
Ġact s
ĠW olf
hemat ics
ĠA ge
ĠP oint
Ġon to
Ġbe y
z en
il ing
ĠCom ics
ĠLe on
ic er
T e
M en
Ġp al
Ġadv anced
Ġst ock
ĠP ier
id ge
ĠK im
Ġad vert
al ion
im inal
ĠChampionship s
ord ers
E T
198 0
Ġrest aur
Ġslight ly
ĠB eat
col or
ov a
" ),
Ġr ing
P A
Ġ ),
Ġf ish
ĠMar ia
Ġf eed
Ġg overn
ik a
Ġc ab
Ġse g
ĠBar b
E arly
Ġass igned
ĠS ilver
ĠT urn
Ġre ferences
ĠCol on
d on
Ġ19 51
ĠSt ory
igh th
Ġtourn ament
Ġsuff ered
ĠTh us
Ġopp osition
Ġfun ctions
ĠT al
ĠB urn
Ġag ric
Ġher self
ĠB i
Ġcons um
Ġtri al
Ġbey ond
m un
ou ts
i ations
ri x
Ġregard ed
Ġentire ly
ĠH o
ĠM ach
Ġconstit u
d ale
Ġsub urb
Ġpos itions
ĠOn ly
Ge orge
ac he
if ically
f ound
ĠE ven
Ġsp ring
Ġp arliament
ag h
ĠR oll
198 8
Ġclub s
ĠCD P
Ġre asons
al o
f riend
out heast
or i
ĠR on
1 13
it o
ĠE ric
Ġcreat ing
g r
ĠS ound
Ġal le
Ġpurch ased
ok en
Ġder ived
Ġsup ply
Ġmusic ian
ĠHow ard
m ont
u v
ĠM un
hed ral
P aul
w eg
Ġcover s
Ġl at
ph as
Ġs ales
Ġcr ime
Ġheav ily
Ġh un
ur ches
Ġres ources
Ġs ides
Ġbeg in
ĠT rain
Ġprov ed
ĠMar ine
ĠS um
Ġphil osophy
ar ia
Ġsp ons
ĠFranc is
f ort
d d
il ation
Ġaltern ative
ran ts
Ġro t
F F
Ġwith d
ĠP age
Ġgreat est
is tered
ĠDe ad
is er
Ġdistrib ution
ĠSt one
Ġ *
ann ing
Ġro ugh
Ġsp ot
ot ic
if ying
ĠW in
Ġch art
Ġdou b
Ġte aching
Ġmat ches
ful ly
em eter
Ġm orning
Ġrelig ion
b oy
ĠAd minist
ĠL i
Ġset s
ĠA cc
im ens
Ġf uel
ĠC ur
ĠH or
ĠN ar
Ġnot ably
ony m
Ġapplic ation
Ġcont emporary
ĠBro ok
198 7
Ġnot e
Ġresult ed
ĠWh it
un te
Ġh yp
Ġsy m
Ġon es
Ġposs ibly
Ġfield s
ĠT y
Ġre ally
Ġcom edy
ĠR en
ĠR ose
ĠN ob
us es
ĠW isconsin
H er
ĠE ss
Ġst one
Ġn et
Ġset ting
Ġv s
Ġattack ed
id ers
ist ed
ĠSund ay
l ah
ĠSt adium
ĠMem orial
ĠT rib
enness ee
ĠP ope
o en
Ġav oid
Ġ iron
Ġconstit ution
Ġcar ry
ĠLab our
c hen
ew ay
Ġsettle ment
oc r
Ġre ports
Ġd oll
Ġcon ce
Ġkill ing
st ead
Ġeffect ive
Ġpart n
Ġmark ed
Ġspe ech
G l
ĠD C
Ġp iano
Ġad vent
Ġbro ke
ĠC ab
ov en
Ġengine ering
Ġre ject
Ġreg ions
Ġpiec es
ĠP ot
ues e
Ġpro ceed
S ince
p ret
ownt own
1 17
d ie
Ġch oice
ĠR ober
Ġp ull
Ġnot es
an th
Ġprincip al
Ġr ise
ĠE th
Ġd ie
od ox
Ġc ru
om ot
ĠRe al
ĠCent ury
am ples
Ġf aith
Ġob jects
uc cess
Ġgr anted
B orn
Ġwork ers
ad s
Ġrequ est
Ġto uch
st ream
ĠComm and
ĠSing apore
om y
ĠSt ock
1 14
Ġag reed
Ġest imated
Ġmaterial s
Ġequ ival
ĠF ederation
tr ack
ĠR oy
Ġvoc al
Ġr ival
Ġm icro
ib b
Ġgu ard
Ġdet ails
ĠL abor
r un
Ġn ob
ĠH ou
19 31
Ġsett led
ĠServ ices
or gan
Ġf leet
Ġsing les
ĠG il
ĠA D
ĠK ansas
Ġcom ment
Ġp aid
Ġre duced
c ious
Ġcomp ared
Ġv otes
or ter
Ġco al
ent ially
Ġ ri
Ġveh icles
Ġ3 00
Ġst orm
Ġ3 7
ĠCon stitution
ann y
? "
Ġf olk
ĠDes ign
ole c
Ġeconom y
c ar
Ġf elt
g or
ĠB alt
Ġachie ved
ĠĠĠĠ Ċ
ism s
A ust
1 16
Ġc ells
Ġconc ert
D ata
Ġv ess
198 6
Ġbott om
St ar
Ġd aily
Ġre act
ĠThe n
ang ing
Ġimm ig
ĠA z
C ont
Ġfif th
19 21
g al
ur ance
Ġmov ies
ut t
Ġhum ans
ro up
k h
Ġcomp ar
c ome
Ġf le
ĠA M
Ġsup posed
Ġvol ume
Ġs ilver
B est
19 11
ograp her
Ġwr ite
Ġclass ical
ĠH and
Ġinhabit ants
ĠPr im
Ar t
os m
qu es
ĠMill er
ic ide
ĠD og
Ġg overnor
ĠM anc
ĠMil itary
Ġcaus es
ĠTe levision
Ġmet res
Ġm ist
ĠF ront
A L
ĠMan agement
Ġtransfer red
W orld
ort heast
ĠD or
ust er
Ġcent uries
Ġl ibrary
b ra
Ġexist ing
erv ed
Ġg ra
Ġem p
ol as
n ight
Ġformer ly
ell ite
Ġun able
un a
Ġt all
ĠU t
Ph il
ĠEngine ering
Ġe lev
Ġsc hem
Ġconduct ed
ul pt
ĠL ev
Ġinsp ired
cept ion
Ġw ing
ĠPh ys
Ġstra ight
oth ing
F irst
ĠW rit
ĠS ky
Ġref lect
3 00
Ġc e
Ġequ al
Ġtra ins
Ġlearn ing
u ing
ant e
ĠF r
M ost
Ġpopular ity
Ġget ting
Ġsh all
j o
ĠU k
ĠH ills
Ġrev olution
Ġest ate
ĠCz ech
Ġpro file
in als
ĠCl ark
ĠCons ervative
ĠSh ort
oy d
ĠQue ens
Ġconn ection
Ġ19 18
Ġ19 36
Ġus ers
Ġwe alth
an es
ĠAll en
w estern
alle l
Ġapparent ly
Ġtechn iques
Ġp air
p ool
wh ile
Ġlaun ch
Ġa im
the w
R es
ĠNor way
Ġcou ple
C o
ĠS ab
Ġ. ...
C ar
Ġch ampion
ro it
ex ual
ĠP ict
Ġform ation
ĠMod ern
Ġa wards
Ġexam ples
Ġimp act
ĠIndian a
ĠTem ple
Ġl ake
ĠD a
el ve
Ġmom ent
ol t
ĠB uff
Ġex change
Ġcon vers
re ll
emeter y
Ġdig ital
ĠK l
S ec
M any
S m
Ġf ile
Ġbrother s
ĠH amilton
ĠHistor ic
oc als
Ġe yes
Ġm el
Ġclass ic
Ġ19 38
Ġbur ied
F C
ĠA h
Ġh ockey
Ġprot ection
ĠColor ado
ĠA ud
Ġide as
Ġsuggest ed
P C
ĠK at
Ġj oint
s er
Ġcont aining
ĠAl an
Ġsk ills
ĠC E
ĠSchool s
Ġpil ot
ĠV ers
Ġexp anded
ĠKore an
ak h
Ġro yal
Ġsc ale
ĠVill age
Ġp rice
Ġnew ly
Ġo x
Ġst adium
Ġcop y
b an
reg on
s es
av ed
Ġh its
Ġh uge
ĠS u
l ig
P ar
Ġex clus
uz z
ĠMed ia
Ġcer em
unic ations
Ġsy nt
ĠH ell
u ters
Ġprot ect
Mich ael
Ġneighbor hood
ĠP ear
ĠEx press
ĠL ow
Ġair port
In ter
Ġh our
Ġord ers
Ġatt rib
_ _
ĠL incoln
por ter
w ich
ĠTr ust
ĠIm perial
Ġshow ed
mir al
Ġo ri
ĠB oys
m ine
198 5
Ġshort ly
ĠJun ior
Ġinv asion
ĠTrans port
Ġal t
A ugust
ĠDis ney
b u
Ġapplic ations
Ġem phas
Ġse vent
uk i
r ations
1 15
ĠMel bourne
Ġcon qu
ĠT ennessee
Ġb ought
our ney
Ġcomp l
Ġw atch
ĠSqu are
c ow
ĠDr agon
Ġre ign
Ġ1 50
ĠB os
Ġdro pped
Ġt error
od d
s pe
Ġst ores
so ft
Ġgl ass
Ġp oll
ĠD ave
Ġsign al
J u
Ġg ain
ĠN ick
Ġchem ical
M arch
Ġeng ines
Ġport ray
Ġob tained
ĠW he
Un ited
Ġgener ation
190 1
ĠA uthor
Ġsh ape
Ġto ward
ĠMar g
ĠLt d
Ġwin ter
Ġth row
ĠMary land
Ġstand ards
Ġnov els
ĠViet nam
ĠO cean
ĠE P
Ġfl at
Ġstar ring
Ġn ickn
Ġthe ore
Ġh all
ĠTh ough
c les
Ġland s
ig ious
om ing
Ġintro duction
Ġindepend ence
Ġsem i
ĠAd am
Ġalle ged
ĠAd v
Ġpro s
et ime
Ġsaf ety
ĠO ak
or row
ĠO p
lah oma
ĠAg ain
ĠR aj
Ġex erc
Ġsubsequ ent
ang el
ĠS on
Ġmot ion
b ox
st ic
Ġj ur
os ite
Ġpr on
Ġident ity
ĠDou glas
ĠK han
Ġarchitect ure
im ents
Ġh ab
198 4
Ġexp ansion
ĠAust ria
ĠE arly
olog ies
ĠAmeric ans
J apan
end ment
Ġmix ed
Ġstand s
ĠL ast
Ġprom oted
Ġocc as
Ġform al
ol i
le ased
ĠN aval
ĠV ice
Ġs ave
Ġcaus ing
Ġr isk
ĠV is
ĠF e
gh an
en z
Ġval ues
Ġin ternal
ĠT ai
Ġa id
ĠV i
O rig
ill er
ĠC re
orn ey
ĠF riend
hip s
ĠSt ew
Ġanim al
ĠPrin cess
ink ing
ut ies
M r
lin ed
el er
th odox
ĠGre ece
Ġtyp ical
le ts
Ġcast le
Ġperforman ces
Ġch ain
Ġl oad
Ġtransl ation
ĠW W
Ġf ashion
ĠJo h
ain ts
B ack
ĠR eb
Ġdef ense
Ġit ems
Ġpublic ation
ron ze
cy clop
Ġex ecutive
Ġs ons
Ġthe atre
ol es
Ġph r
ĠMed ical
Ġvill ages
s et
Ġgirl s
ĠEle mentary
wh o
ĠF ame
Ġmult i
ĠK al
Ġend ing
Ġsy nd
ubl in
ian g
ĠW ell
a fter
Ġpl ane
ik h
ĠSer b
Ġfail ure
ar on
Ġstar ts
Ġd raft
iam ond
Ġun us
Ġgu est
ĠF all
ag u
Ġis lands
Ġsecond ary
ĠSec urity
Ġ19 35
at ur
Ġp aint
Ġt or
ĠD u
ar ks
un ch
G erman
we alth
on na
is f
ig e
ĠDie go
Ġj azz
19 79
Ġfac ility
Ġtra v
Ġ19 37
ĠD ur
Ġoper a
ĠG ordon
gress ive
Ġpart ner
ĠW orks
Ġim ages
Ġany thing
iv a
T rans
ĠChild ren
Ġhost ed
Ġa ired
A nt
ob a
---- ----
Ġpict ure
ang es
Ġev olution
Ġre ality
ĠSqu adron
Ġag ent
Ġag reement
Ġ rom
Bl ack
t own
Ġw a
ul ed
Ġcontr ast
n old
el son
inc luding
row d
in ks
C ent
R O
ĠBrother s
ĠMo ore
Ġinc ident
ĠWind ows
ĠG ard
el ess
Ġn or
Ġg all
Ġ4 00
Ġperform ing
ad ed
Ġdetermin ed
Ġcomm ander
Ġ4 2
Ġdist ricts
II I
Ġlook ing
ĠHol lywood
ĠI ron
Ġident ified
Ġnar row
own ed
ar o
ĠN Y
Ġr h
Ġcont ained
ĠBe fore
Ġpoet ry
ĠN ich
12 0
ag g
Ġdo or
ĠL og
Ġethn ic
Ġhold ing
Ġval ley
Ġlim it
Ġarrest ed
Ġauthor ities
rat or
em ies
Ġ19 00
Ġc m
ch ar
st ar
oc ol
Ġcol le
Ġret ire
Ġacc ur
ĠB ass
The y
Ġunivers e
Ġop in
ĠS S
ĠM es
ĠC all
ĠPhilipp ines
Ġdis app
Ġto wer
ot al
ist a
ĠW inter
Ġtechn ical
Ġclos ely
Ġking dom
ipp i
ĠBudd h
Ġc as
um a
ord an
H owever
Ġdr iver
ac c
in th
ac ent
H ar
T A
Ġst ream
U SA
Ġhistor ic
ĠD ick
ĠBu ilding
Ġcomb ination
M in
ĠM it
Ġdeg rees
Ġp up
Ġrespect ively
Ġrec omm
Ġsequ ence
ash i
l i
ro ke
S w
Ġcap able
Ġe ye
ĠP ok
ang ers
Ġtr ust
Ġinst ance
ĠPortug uese
O ctober
Ġpar ish
Ġinflu enced
ris is
M on
ĠCon st
1 18
p resent
I V
ret t
Ġrac ing
ars h
Ġadvant age
ĠM ember
act ive
ĠH amp
Ġev il
Ġadv ance
ĠH ere
ob e
198 3
ĠLin ks
ĠKent ucky
ĠManc hester
13 0
Ġdoc tor
Ġaband oned
Ġac id
h r
ific ations
Ġ3 9
Ġview s
ĠN FL
ph a
ĠAl i
Ġinst ruct
Ġpre fer
ail ing
Ġ19 33
Ġcor por
Ġa x
Ġr ich
Ġa uth
por ters
ile y
ĠH ug
Ġele ment
Ġr ural
Ġpre par
ĠPat rick
ĠH u
Ġassist ant
ian ts
ĠSc iences
ĠTh ird
ĠZ h
ant on
ĠJ ane
ĠK r
ĠSt ra
ig en
Ġcontroll ed
T S
ĠHaw ai
iam i
Ġv ir
ĠWal ter
Ġtre es
h ard
or f
urrent ly
Ġp hen
ro t
ĠR oc
Ġtechn ique
Ġtemper ature
un c
ĠAr k
and om
ĠA C
bor ough
ĠR ound
ham mad
Ġdr ums
itzer land
Ġf estival
Ġother wise
Ġdoes n
ĠK ings
ater n
ĠJac ob
um in
Ġturn s
Ġh ydro
ĠMr s
ĠL as
Ġhead quarters
weg ian
ic i
ĠB or
ur ation
ĠD eb
Ġbrief ly
18 61
18 81
Ġelect ronic
4 00
Ġpro te
ĠB art
Ġc ore
ĠL yn
b urn
S im
Ġun f
in f
Char les
Ġsc ript
us al
Ġt ries
19 70
A D
tain ment
ĠD omin
ĠE very
ĠB arn
ol y
cher s
p o
ĠB ible
a ire
Ġre action
Ġpol ic
Ġent ertain
Ġ ign
e k
Ġliter ary
urric ane
Ġdescrib e
Ġg ang
r ings
Ġ19 19
Ġinstit utions
as ure
y les
% )
2 50
Ġcirc um
ĠAll iance
Ġver t
ĠT reat
riz ona
ĠMiss iss
Ġdisc ip
Ġcontrovers ial
Ġsh ared
w en
Ġw ins
A P
Ġofficial s
ĠD ance
Ġb iography
ĠH it
198 2
Ġy ellow
Jan uary
ard o
Ġtransl ated
od ge
18 71
ac le
Ġexpl os
ran e
ol ly
Ġa w
Ġspec ifically
ĠO regon
Ġch ance
s uch
ap es
Ġincorpor ated
ĠAff airs
ph one
Ġ19 29
Ġloc ations
ĠSt aff
B M
ĠIslam ic
ĠG ener
all as
Ġb at
y ard
ĠS eat
Ġ19 17
ic it
Ġdiffer ence
Ġocc urs
ĠOn line
l an
Ġparticip ated
Ġre ar
Ġd uty
aim ed
f its
Ġhe at
ĠLaw rence
iet ies
Ġsuccessful ly
A pril
d r
Ġass ass
Ġtem ple
Ġv en
Ġresp ond
ĠR ain
J une
d es
ĠC ape
ĠJ am
ĠOk lahoma
ĠHou ston
Ġd rop
ĠT ower
Ġmer ged
T C
Ġ ĉ
A pp
ĠP ur
Ġh am
Ġ19 34
R C
ĠReg ion
I nt
S eptember
Ġad apt
Ġcon sequ
Ġpers ons
Ġimport ance
E E
Ġpos itive
Wh at
Ġhigh way
ocr acy
ect ic
Ġwe ak
Ġs ought
ĠDet roit
Ġp ages
Ġcon vent
ĠBas eball
Ġequival ent
ĠE ag
ĠMos cow
er g
ĠB ruce
Ġv ary
ph ony
Ġconver ted
if er
Ġlead s
iv als
ĠT a
eg et
Ġst eel
Ġchall eng
Th omas
ol ph
ĠIndepend ent
R ed
iss ance
Ġmass ive
ĠY ears
Ġrail road
Ġreturn ing
I M
at us
Ġp ione
ĠOr chestra
ir med
ig g
Ġman ner
us hed
ĠMc G
ĠAm ong
ĠN ever
ĠB illy
ĠM ix
ipl om
er ts
Ġneg ot
Ġnon e
Ġsol id
Ġcontrovers y
Ġcop ies
r ac
ĠPe ters
f ather
Ġl osing
Ġ7 5
Ġs un
ĠG h
Ġtit led
ĠG arden
Ġjournal ist
Ġm ent
ograph ical
ĠF urther
U K
ĠB rand
ke ep
ag en
Ġdef end
Ġb rain
z y
ab ama
Ġa part
Ġw orth
ĠF inn
Ġsing ing
ĠMal ays
ĠRog er
ĠComm ander
An other
u j
ĠEx ecutive
Ġdec ades
Ġy ards
H en
Ġproper ties
ĠAnth ony
Ġg ar
Ġoccup ied
o j
ep age
Ju ly
ĠH ans
C al
ĠCommon wealth
ot hes
Ġmain tained
Ġed ge
Ġmess age
Ġrepe ated
Ġproduc ing
ang erous
ie val
Ġdescrib es
Ġrep utation
int end
m ary
Ġ ille
ĠB an
ĠW eek
ĠRober ts
Ġv ent
Ġthous ands
l ock
udd en
B ob
ĠLit er
Ġconst ant
Ġcap tain
ĠW y
The se
Ġinterest s
Ġoff ices
Ġwrit ers
F M
ĠEn cyclop
ĠOn ce
a ug
Ġbro ken
Ġk id
Ġstri ke
Ġb odies
Ġfl u
19 78
ĠPe ace
oc ese
Ġf lying
Ġt ask
ĠT an
ĠTh rough
ĠC ru
Ġsc ulpt
ĠReg ional
P art
Ġel imin
Ġb illion
Ġ4 8
ĠG et
Ġfound ing
ĠM ess
Ġmax imum
ic ation
Ġemploy ed
Ġopp osite
in er
Ġmusic ians
Ġdevelop ing
Ġd ies
Ġf ly
le ase
n i
ĠCommun ist
ĠPl ace
Ġad ult
ĠGu itar
g ency
ĠC ra
' ll
ĠL uther
Ġrul ed
Ġstruct ures
vel and
ĠL ieutenant
Ġag o
ĠTurk ish
ĠMex ican
Ġse lect
Ġl aid
Ġs oul
ĠFore ign
Ġinter pret
ĠHar ris
ĠL anc
ĠN ev
B iography
ĠC ow
Ġrequ ires
ĠEnter tainment
l ong
Ġt ank
or us
Ġaccom pl
Ġin form
ov ak
Ġint elligence
Ġde ploy
ov es
ĠB uck
I P
p ower
ĠC rit
r ates
Ġvis ited
ĠK a
au x
ic ts
rel ated
iction ary
o om
oc ation
Rich ard
Ġc rown
Ġuse ful
Ġw arn
Ġfreed om
ĠAf ghan
Dec ember
Ġar med
am an
Ġrem ember
ĠI mp
Ġb oys
um i
Ġsub stant
Ġmod e
Ġs ell
ĠLeg isl
ĠMin istry
Ġnorm ally
el and
Ġperman ent
Ġworld wide
Ġ19 32
ĠB ird
Ġresist ance
s ky
ĠF leet
ĠH op
ĠJ ay
o a
ĠJohn ny
p oint
r ons
S an
Ġm outh
re a
Ġth ing
Ġw ave
st ances
ĠL ar
ĠSy m
Ġs ort
Ġregard ing
ĠMont real
ate ur
mar ine
T om
ub le
Ġex ists
Ġkey board
ĠEr n
Ġed ited
Ġ19 22
Ġinstit ution
ĠC ost
Ġpass ing
s ch
ĠV ar
Ġmy ster
Ġaccom pan
Ġpar allel
Ġan ime
Ġt ell
ĠFred erick
Ġgen us
ill ery
O ver
Ġdesign ated
E m
Ġadminist rative
Ġsc enes
S ing
ĠB iography
m osp
S C
Ġ19 14
Ġoccasion ally
unn el
l ad
Ġw eather
off icial
ĠD ublin
ĠB ou
ĠBow l
ĠLouis iana
ĠPu erto
ĠI owa
ĠM ind
ĠCh airman
Ġk g
ĠBl ood
ĠS us
Ġm ig
ri p
ĠM att
Ġfav our
ĠV ideo
im ore
Ġar ran
1 50
ĠH orn
Ġquest ions
Ġcle an
P at
az a
ĠInf antry
Ġexc ell
ĠR ick
Ġc aught
P e
D P
Ġd rawn
Ġstri p
ĠL ocal
19 77
Ġg uns
Ġpurp oses
Ġstand ing
Ġplann ing
ĠT rad
Ġalong side
Ġe asy
Ġfl ood
Ġast ron
Ġdram a
ik o
en h
ĠM eg
ĠGu y
ĠB omb
Ġbatt les
Ġbo at
erson al
ĠC ook
ro c
ĠI l
Ġcorn er
ĠFor ces
Ġeduc ational
Ġm art
Ġcon ference
A c
Ġd ates
Nov ember
ann ed
Ġ19 28
Ġ19 31
Ġob tain
ruct ure
Ġpr ime
res ents
M ark
ĠL eb
ĠSam uel
ocrat ic
A ng
14 0
Ġass ociation
htm l
Ġbig gest
ins ula
sp ec
ĠMississ ippi
ĠOff icer
ĠF il
ĠA rizona
Ġd ream
Ġk ick
o oth
Ġs and
in ian
ĠK arl
Ġapp ropri
Ġche ck
ĠPro duct
og ether
ĠF arm
ĠJim my
ĠF ollowing
K ing
ĠAd ams
v ements
Ġconsider able
ĠF ather
ia h
v o
Ġb ond
Ġle ct
ĠF ive
Ġshow ing
ens is
u ous
ĠG ram
ectic ut
st ers
ĠHe b
ok es
ol o
Ġatt ached
Ġper fect
Ġ4 9
or age
ic ians
ĠSw itzerland
Ġme ters
ĠMat thew
Ġd ivers
Ġoper ate
ap olis
ĠM ission
ĠTok yo
eng ers
Ġcr iminal
is d
ĠH ockey
ĠP sych
Ġopportun ity
Ġb ra
omp son
Ġbehav ior
ĠAb d
Ġoper ates
ast e
ĠRec ord
D an
Ġaud io
ĠHarv ard
ĠDen mark
ĠRep ort
Ġf ine
Ġpro ced
ĠG ulf
Ġsw im
Ġ19 24
P eter
pl ace
c alled
ĠB ah
Ġlearn ed
ĠC hem
Ġ4 1
ĠL ost
T wo
ĠCl in
Ġult imately
ĠAir lines
Ġstat ement
Ġw itness
H ow
re nt
A A
Ġch urches
Ġinstr uments
Ġw alls
ĠK it
Ġdefin ition
ĠStew art
ĠW ing
Ġearl iest
Ġpass es
M art
Ġcapt ure
ĠAn ne
ri k
Ġun iform
Ġn ations
sc ape
ĠS el
ĠKenn edy
Ġgradu ate
ĠK am
ĠMc K
het ic
ĠG ab
ĠHot el
ĠPh ill
Ġch airman
Ġdeb ate
p ass
ĠPal est
ens es
E v
ĠA BC
Ġprogram me
ĠE ver
ĠDef ense
Ġrep resents
ĠNor wegian
S ir
ĠTur key
ur i
Ġcont ext
Ġb orough
ĠTer rit
19 76
Ġcontrib uted
uc ks
ĠCo oper
h ar
ig a
ic on
ĠF C
Ġs urre
Ġd a
Ġexcept ion
ĠKn ow
M c
D F
Ġspirit ual
ĠF ac
ĠO m
Ġ19 27
Ġin ters
ĠM and
Ġsk in
el lect
ĠM iami
id el
Ġmay or
ĠEd ition
ĠMount ains
d am
ĠĠĠĠĠĠĠĠĠĠĠĠĠĠĠĠ ĠĠĠĠĠĠĠĠĠĠĠĠĠĠĠĠ
ĠK evin
Ġcrit ics
Ġph ase
Ġgl obal
J os
oss ible
S pec
Ġc ricket
ĠR a
Ġmed ium
Ġtr uth
ĠC rown
es ter
ĠN A
ĠAl abama
ibl iography
Ġtrain ed
ĠA thlet
Ġdesign s
l ow
Ġdesc ription
ĠSt orm
ĠHamp shire
E p
ĠM unicip
19 75
ĠRuss ell
Ġdep end
ĠSp irit
ĠHon or
Ġcan cer
Ġb ed
10 9
g rey
ĠC ass
Ġ19 21
av ig
Ġm olec
Ġdev ices
Ġevery thing
Ġro utes
and o
ĠS oul
ĠGall ery
ter y
Ġdesc end
6 00
d iv
M usic
in ations
lud ed
t hen
Ġf ear
Ġasp ects
ĠRepresent atives
ple te
ĠN a
Ġs olution
Ġexp ed
Ġopp onent
ĠElect ric
uss ion
E urope
Ġa thlet
Ġf ixed
iv ate
H igh
e o
in ction
ra ine
ĠGr ant
il i
Ġc rowd
ort on
for c
Ġsurv ived
Ġbeaut iful
Ġso le
as p
Ġar rang
Ġanc est
ĠCh ampion
et a
ĠG ri
Ġcommission ed
Ġg one
ĠSat ur
ĠS ac
Ġjud ge
Ġsh ut
Ġregular ly
Ġf resh
ud get
j e
Ġout put
ĠM all
Ġc old
Ġeduc ated
Ġgreat ly
at ically
Ġs ections
Ġpain ting
Ġdif ferences
Ġrepresent ing
Ġsub jects
Ġloc omot
h o
Ġstr ateg
Ġexper i
ym n
d in
ĠAl bum
ĠFrank lin
com m
og en
ĠKn ight
id ay
Ġspe ak
Ġd owntown
ot te
ĠSatur day
Ġeng aged
Ġrecogn ition
Ġp ure
as a
Ġconsist ing
S ch
ĠG ib
s ki
S am
Ġapp eal
Ġmer ch
as ters
ĠSo ft
re te
Ġ19 25
go ing
y an
R eg
M P
ro ck
ad i
e qu
ĠSystem s
Ġp ra
ĠPortug al
Ġass umed
ĠD ak
Ġm ile
ĠC ode
Ġunivers ities
ortun ately
ition ally
ĠB ry
Ġnomin ated
Ġguitar ist
ĠD J
ĠArgent ina
Ġengine er
Ġs elling
ament al
an ch
ĠS ax
ĠTr ade
ol ished
Pl ay
ĠS et
Ġinst all
8 00
ryst al
g ate
ĠHistor ical
Ġmov es
ĠR ow
Ġmag ic
Ġst ring
Ġphen omen
P ort
Ġcour ses
S o
Ġtw elve
ĠBatt alion
Ġb ill
ĠJ ordan
h op
Ġh ill
Ġpain ter
Ġpe ak
S ources
Ġfl o
Ġ19 26
Ġ19 10
ou ver
w orld
Ġt ail
ĠPal ace
Ġsupport ing
Ġsurv ey
or ig
els h
ĠCon vention
j an
Ġt act
Ġinvol ving
ft en
Ġc ert
t op
Ġwhe el
ĠB ull
ĠD est
ĠE uro
e enth
Ġe gg
ĠGirl s
ĠOr thodox
Ġunus ual
c ription
ĠN ik
ĠCro at
Ġv ast
ĠP ap
Ġevery one
ĠMar s
Ġdom estic
Ġchar ged
b ody
Ġm ir
Ġrough ly
Ġcons ult
Ġc atch
Ġen emies
Ġb an
duc ing
ĠL iver
Ġ4 3
Ġhe ar
Ġanim ated
Ġrel ative
Ġin tern
Ġtri p
Don ald
Ġw aters
ĠSe ason
Ġj un
arch y
ĠMet ro
F ebruary
iec e
ĠConn ecticut
over s
at in
Ġut il
le te
ry pt
ĠN ag
19 74
o ons
Ġwr ong
che ll
Ġrec ip
t ure
Ġres igned
ĠM ond
M ajor
E ast
b i
Ġdr iving
ĠFin land
Ġv ide
ĠF al
od a
ĠW ard
ĠPit ts
Ġ19 23
Ġprovinc ial
Ġcommit ted
aw ay
amp s
Ġrece iving
Ġrepl ace
b ridge
E L
ist ant
ĠAtl anta
12 5
le ans
p a
ĠJu an
Ġsp oken
Ġre in
ĠG un
Ġs ter
ĠAn c
b al
Ġre nd
ook ing
ĠCamp bell
ĠMark et
le ton
rid ges
Ġpol y
os hi
Ġbroad c
Ġe at
as hed
Ġl iqu
ĠNor man
Ġbird s
Ġcomm ittee
Aust ral
er on
Ġhappen ed
Ġarg ued
Ġpass enger
Ġ5 5
b ass
ĠC art
Ġviol ence
ch a
ĠAlex and
Ġhot el
Ġ1 20
B I
ĠIsrael i
ĠY an
Ġmount ains
Ġdistrib uted
Ġsecond s
Ġbu y
Ġf illed
Ġfin ish
Ġf ram
Ġinv ent
aw are
1 19
b at
ĠD al
ĠSc ient
Ġf ired
d i
Ġte ach
ming ham
Ġdeter mine
C ap
cast ing
Ġas ks
ud a
ĠE nt
C ast
Ġj ump
ip er
ĠB ed
Ġconsist ed
b ishop
ĠL ang
ĠJ ess
Ġcritic ism
E D
os ure
Ġr um
Ġabs or
ĠS ri
ĠF alls
Ġchar ges
reed om
i op
r ating
Ġprom ote
m aster
v ey
ĠV inc
Ġc ous
200 7
ĠComp uter
Ġvol unte
ĠC atal
Ġa ware
Ġal co
il st
ĠT ol
Ġneg ative
Ġc ool
Ġ9 5
Ġph one
Ġdiscuss ion
ĠConf eder
ĠR ights
ger y
ĠCont rol
ĠCle veland
ĠSev en
ĠD allas
ĠSeat tle
Ġreturn s
Ġte en
ĠPr incip
ĠO ur
ĠDe an
Ġhom es
il er
Ġm ort
ĠVol ume
19 73
ĠG i
ick et
f are
Ġd ry
Ġal ign
ĠH um
Ġdoc uments
Ġpict ures
ĠW restling
ov ing
Ġdest ruction
ĠAss oci
com ing
Ġpubl isher
ub b
ĠCar ter
ab et
igh ters
ĠAd miral
se ud
Ġ9 8
Ġprop os
Ġgr ade
ĠAnton io
Ġex ternal
In ternational
Ġup d
ĠM ethod
ĠAdminist ration
ĠChrist opher
oc a
Ġs leep
Ġcle arly
ĠJ ose
Ġf alls
a uc
C S
v ant
Ġunder ground
yth m
ĠD anish
Ġmembers hip
ell i
Eng lish
Ġan th
Ġimpro ve
w all
ĠN HL
Ġbre ed
os opher
M L
Ġrele ases
Ġcl imb
Ġ4 7
ann on
Ġroad s
Ġcateg ory
ĠV ocals
ut o
Ġst ret
ĠMay or
p m
ĠMor ris
le vel
Ġrecord ings
Re ference
ĠR ey
Ġel se
Ġsqu ad
Ġad ap
Ġimpro ved
Ġany one
f ish
Ġunder standing
ĠT ak
Ġob vious
Ġstre ets
in burgh
Ġcy cle
ĠBl ues
M il
ĠG ary
pp ing
Ġim ag
Ġamong st
ĠS everal
Ġcred ited
ĠE mer
Ġpat ients
Ġf il
Ġacc used
he astern
ĠBroad way
ĠP a
ra ham
ag ues
ac on
Ġliber al
R el
Ġd uties
ĠF und
ex ts
is p
ĠInd ones
ĠBelg ium
Ġphr ase
ather ine
% .
g ie
Ġ5 2
Ġpre ced
ĠOr leans
A lex
ĠMor gan
Ġsched uled
Ġperson ality
Ġexpress ed
Ġac res
" );
ĠMar vel
Ġen h
m ers
U N
Ġ19 12
Ġat mosp
ĠTh ompson
ĠAlf red
ĠY outh
b ird
ĠD om
ĠIn s
G A
Ġgro wn
ur u
ĠOper ation
et on
ri el
Ġinterest ed
com p
mer ce
anc er
Ġmov ements
ag s
Ġ19 15
ĠR ap
Ġcost s
Ġs an
Ġstop ped
Ġincreasing ly
19 72
Ġreb u
Ġne ut
Ġcommunic ation
ot ional
Ġfrequ ency
ĠP ed
Ġw or
J im
Ġground s
Ġro w
Ġ19 16
ĠP as
Ġre duce
og a
Ġhead ed
ĠR ub
ĠK elly
ĠSen ior
ath y
ĠH as
ĠN elson
Ġinj ury
ĠLa ure
Com p
anc ouver
u y
ĠL anguage
Ġprofess ion
A ss
Ġjur isd
Ġenvironment al
Ġar c
10 8
Ġsever e
ĠVi enna
or ous
Ġnorth west
Ġme ets
ĠMov ement
Ġ ur
Ġ4 6
re hens
ĠN ation
ĠAr men
Ġadv oc
Ġg iant
Ġw ants
Ġthr one
Ġinflu ential
Ġretire ment
ĠMicro soft
h us
ĠB ond
or p
ĠF ried
ĠG ran
Ġdocument ary
10 6
ĠD ue
Ġsc oring
Ġbe ar
12 9
10 7
P re
Ġ19 11
Ġestablish ment
ĠPubl ishing
12 8
eg as
oen ix
ĠSen ator
os lav
ract ion
ĠF ull
f ire
13 9
ĠB apt
Ġperson nel
Ġd iplom
R uss
Ġw ars
Ġsepar ated
Ġapp oint
Fran k
Ġn ortheast
ĠBalt imore
ul us
ĠM aj
Ġfact or
Ġgood s
Ġp ric
ĠTai wan
Ġch ose
M ed
ĠStand ard
Ġcompet ed
ĠRy an
Ġpl us
d y
Ġfact ory
Ġse lection
Ġb ran
Ġsuggest s
D A
Ġis ol
ĠN eb
Ġcho ose
ĠG rey
F ollowing
ĠL l
as er
ĠE s
M ain
Ġcandid ates
Ġcol our
ĠM embers
az e
ĠL am
Ġcam era
Ġtrans form
m at
Ġcomp osition
b ow
Ġkn ew
ĠA le
ĠI an
n on
Ġstrong ly
B rit
ĠK er
d o
Ġcy cl
ĠM other
Ġdem and
Ġcar rying
Ġconf irmed
h and
ĠWalk er
ĠR ing
Ġachie ve
ĠV I
ĠCh amber
ĠP ir
Ġ9 9
f olk
ĠStan ley
Ġdec or
Ġco ordin
ant ine
Ġrepresent ative
Ġw ounded
Ġunderst and
ĠPe ak
Ġdec ade
M al
Ġ rif
ĠMag ic
ĠM aur
L ou
Ġinn ov
ene z
Ġpo em
id o
ĠE qu
Ġs now
Ġc atal
ĠMarsh all
Ġcour ts
ra f
Ġad mitted
ĠS in
ĠO range
19 69
Ġshe ll
ĠS ign
N ote
Ġent rance
Ġprincip le
ĠR est
us ing
Ġre aching
Ġimp rison
Ġst rict
ĠT el
Ġsuccess or
ĠPers ian
Ġcom ed
usal em
Ġhab it
Ġext ension
ĠUl t
ĠJoh ann
Ġcred it
Ġhistor ian
10 5
Ġr u
Ġ ).
ĠN on
ĠEx t
Ġrapid ly
f all
ĠCh ron
ĠCont in
Ġl oyal
Ġse es
Ġmod ified
and al
ĠBar ry
ĠC emetery
Ġan ch
Ġfact ors
Ġd angerous
Ġass ault
ĠIn n
ra k
ĠK y
19 68
ĠK u
c ell
ĠL ane
ĠC ulture
j amin
Ġtop ics
Ġsu icide
ĠEncyclop edia
ĠS hip
Ġemploy ees
L it
Ġste am
ĠWay ne
Ġfund s
ĠN BA
Ġdis pl
ame ter
l ie
un es
ock ed
ĠMot or
Ġco oper
ak u
Ġn aval
Ġs udden
ult an
ĠF rid
Ġem peror
Ġprom otion
aval ry
Ġl ooks
ĠMov ie
em en
ĠAust in
Ġg rid
ĠCh ile
est yle
Ġg ay
R ock
Ġsubs id
O L
ĠK az
iz er
Ġdep ending
Ġb orders
ic op
Ġrem ark
Ġsix th
ĠD ynasty
Ġlink ed
Ġb ishop
ĠN E
Ġext reme
' ve
g ow
or ia
ĠHung ary
H z
ip h
Ġc able
Ġexist ed
Ġ5 9
at ures
app ing
g reg
Ġwid th
Ġfound ation
Ġpublic ations
Ġdistingu ished
Ġann ounc
Ġphot ograph
b ach
B r
ĠD aily
Ġpr int
ĠCon stant
Ġ5 1
Ġprep ared
Ġreject ed
ĠCan al
D S
Ġeffect ively
Ġcomp onents
Ġsim pl
ĠPrem ier
ĠHind u
end ar
Ġp ed
ith m
Ġg rav
ĠC BS
ĠSt e
Un iversity
Ġin her
Ġchar ts
Ġpolic ies
on i
Ġ9 7
ĠPro p
Ġf al
edd ing
T ime
U p
duc er
ĠMod el
ro duction
ĠF ood
achel or
g ets
ĠP rom
ĠL iving
Ġconstitu ency
Ġpri est
Ġhead s
Ġsk i
Ġp ool
ond o
ĠPh ot
ĠH end
Ġconv inc
ivers ary
Ġprot est
Ġstar red
Ġadj acent
ĠZ one
ĠS af
Ġspe aking
ĠDon ald
Ġvis ual
Ġext ent
Ġover l
ĠMet ropolitan
s m
ĠF el
Ġrespons ibility
Ġa er
Ġrare ly
l on
ĠI ce
H S
ob b
ĠR angers
kn ow
z z
13 8
Ġarr ival
Ġexpress ion
19 60
Ġmat hematics
r ity
p op
y st
al ph
ĠRob inson
he w
Ġsold ier
Ġsw itch
Ġrese ar
Ġcons ervative
W A
Ġland ing
ub s
Ġf iles
ors es
B ig
Ġab ilities
m und
ke e
Ġ9 6
Ġsouth west
Ġbro wn
ĠU pper
h u
I L
p ir
ĠBern ard
Ġ eth
ĠJ erry
ĠTe le
w ers
Ġcall ing
Ġaccompan ied
or o
Ġcart oon
Ġs ale
ĠT am
Ġpurch ase
Ġopin ion
Ġinv ited
ĠN atural
ĠGra ham
13 6
ĠAuthor ity
ĠSt ars
Ġto ols
Ġaff airs
the less
ĠEn vironment
Ġmed icine
Ġg ather
Ġ19 13
Ġ1 000
ĠAnt i
c ks
ch i
Ġp arent
Ġext ens
Ġw orship
ĠR ud
Ġh ired
Ġafter wards
Ġcol lected
Ġuns uccess
Ġst ood
Ġpl ate
C are
r m
Hen ry
ĠC P
ĠB eg
Ġmach ines
ĠMer c
ĠS uch
Ġdec re
Ġmod er
Ġcount ies
Ġf ranch
Ġv ision
on us
Ġv eget
D ou
Ġsuff icient
Ġz one
ing ham
I R
ĠN BC
M od
Ġr ivers
Ġappear ing
Ġinter ior
ĠBir mingham
Ġhundred s
ĠCo le
Ġstr ate
Ġd ress
ĠC ricket
Ġpass engers
oth y
Ġfac ulty
ig s
O M
inem a
ang ed
' d
Ġgen re
at che
ĠW oman
Ġres idence
ĠF ern
Ġparticip ate
Ġstrate gy
ĠW right
ĠInd ians
Ġcar bon
Ġschem e
he red
Ġrequire ments
Ġvis ible
O ut
S aint
ĠComm unications
umn i
ĠC old
Not able
elt a
ach i
ie ge
ĠW ol
ish ment
T im
ĠMar io
ĠB aker
Ġth ick
L ife
r n
ĠM ap
b ut
om on
Ġsuper ior
ĠPitts burgh
ĠPolit ical
ĠBrig ade
ĠUn it
ĠR ight
os aur
ĠC her
c ons
Ġfoc used
Ġjoin ing
anc ell
ĠLiver pool
ĠEd inburgh
forman ce
Ġs ust
Ġref uge
Ġweek ly
Ġprin ted
Ġst yles
Ġm ental
ĠW elsh
p ur
Ġcon vention
ĠMed icine
Ġaff ected
Ġinvestig ation
od ore
Ġexperi enced
Ġv oted
Ġb ot
Ġcr ash
E P
or er
Ġus age
ist ical
Ġ18 90
ĠN ash
7 50
ac re
Ġsur f
ĠE vent
Ġmiss ions
ĠApp le
ĠHeb rew
ĠA ction
Ġv ice
13 5
ĠMur ray
Ġprocess es
ĠColon el
st an
ĠD ays
Ġr iding
12 6
ĠProt est
Ġthous and
G o
Ġra in
ĠSup port
se a
ĠB eck
Ġs end
Ġv eter
ĠNov a
ĠAfghan istan
ĠG ot
7 00
ĠS id
Ġprem ier
Ġinvol ves
Ġcirc uit
Ġ190 8
Ġfl ed
ĠSing h
Ġact ors
ct ic
Ġb atter
ĠPlay er
ĠA y
ĠO ri
m o
ĠHun ter
ew here
Ġres ign
ĠLe ad
f e
ĠH old
Ġdiv isions
iz ard
Q ue
Ġsign s
ĠTreat y
ĠE ner
ri or
Ġint ellect
B el
ĠM ult
ill es
Ġhost s
it i
ĠC ase
De ath
L P
ĠĠĠĠĠĠĠĠ Ġ
Ġm anga
ĠN orm
Ġsignificant ly
ĠF act
ĠV ancouver
Ġwear ing
Ġelect ron
Ġauth ors
Ġgu ide
J ust
l ist
Ġm obile
Ġal ien
ill o
Ġb es
ace ae
ĠCharl ie
% ,
ĠMic hel
Ġs outheast
riev ed
et ch
ĠP il
n ed
ge on
ĠB ase
ĠJer usalem
F ilm
ĠNaz i
v i
Ġchang ing
ĠAg ency
G reen
S O
Ġret ail
ĠOper a
ĠSpe ed
Ġrank ed
Ġf at
il arly
ĠUp on
ĠS ig
ĠEx per
in ch
ĠF A
A g
Ġh app
Ġoffer ing
Ġs ed
ĠL ith
ĠK o
Ġval id
. '
Ġunder t
Ġres erv
Ġcover ing
Ġenc oun
Ġw rest
Ġn om
ĠMe an
ol id
Ġobserv ed
Ġ ?
Ġpubl ishing
ĠT ob
k ed
op les
ĠR and
Ġj ourney
Ġal leg
ĠMarg aret
Ġrest ored
ĠCh ampions
ĠRes erve
Ġw arm
Ġorgan isation
Ġf ighter
Ġresc ue
Ġr andom
b ound
h ill
Ġappro ved
ind ing
Ġsw ord
roll ed
ĠG a
Ġown ers
Ġexec uted
Ġt ropical
iv an
ĠM ack
Ġsat ellite
Ġcol ors
uk a
Ġshop ping
Ġsynt hes
p ent
ĠBill board
Ġman if
Ġpri ze
Disc ography
Ġteacher s
Ġg al
ĠSh ah
c i
Ġbene fit
om ar
ĠQueens land
olog ists
Ġexper t
S ub
Ġdiv or
P ol
ig o
Ġs ession
ĠDak ota
ĠMar ie
ud son
Ġsup erv
P op
Ġtest ing
Ġneigh bour
16 0
Ġt urb
ram a
Ġstr uck
Ġb anks
ĠRe f
onst ruction
19 67
Ġens ure
10 2
ĠY ug
Ġf ishing
ĉ Ċ
Ġfind ing
Ġdom ain
M C
ĠLim ited
Ġcompet e
Ġbeg un
Ġinterest ing
m m
R ev
s ec
Ġdet ailed
ĠAnd y
Ġchall enge
Ġfrequ ent
Ġsaf e
ot ten
ĠCat hedral
ĠG ray
Ġp itch
Ġcover age
r ast
Ġ190 5
ĠCol omb
Ġdeliver ed
ush ing
te enth
Ġw ine
u art
ĠSt eel
Ġnewsp apers
ĠIn stead
ĠL P
ter m
ĠHe avy
A ir
ens on
ĠPok mon
Ġmunicipal ities
Ġsee k
U nder
al ia
ul ating
Ġmiss ing
Ġbran ches
A ct
ĠPri x
Ġdep th
ann els
h att
ĠR ace
Ġd ynam
ĠGl as
Ġinst alled
ĠS ud
Ġro oms
m ate
Ġconcern ed
ĠPat ri
Ġg arden
Ġceleb rated
M ont
ĠMag n
ens ed
ĠEp isode
L et
Ġf aced
Ġrest rict
aster y
ane ous
Ġbe ach
Ġne ither
Ġprincip les
Ġdam aged
ĠR ena
Ġagric ultural
Ġh ope
ug g
ell ion
ĠSc out
Ġag ency
C ons
Ġmark ets
Ġcharacter istics
ann er
g on
ĠEx pl
Ġ5 4
Ġtrib es
Ġst ages
Ġcomp uters
Ġrepresent ation
ro se
ĠJ ason
Ġform ing
og s
O ld
ĠP un
ich i
ĠV ik
13 7
n ew
Ġm and
Lit tle
s he
ĠRich mond
ij i
ab led
qu is
Ġinj ured
Ġoccup ation
ĠB enn
ĠChristian ity
Ġ190 6
ĠComm ons
B ut
ĠAlbert a
Ġans wer
E lect
c ore
J ack
Ġcol ony
ĠT erry
Ġindic ate
Ġro ots
Ġassist ance
ĠWar ren
ĠRob in
er ted
d is
om ic
ul u
ĠTra il
Ġind eed
ĠA T
Ġphil osopher
Ġb oss
ĠSh adow
ĠCl ar
Ġlaw yer
orks hire
f oot
ĠL arry
Ġtrib e
ĠTre k
Ġresident ial
19 66
Ġnot ice
ĠM S
Ġfr ag
ow ed
Ġarran ged
ok o
Ġess entially
ĠGri ff
ot ype
l ik
Ġdrug s
ĠA P
Ġfootball er
ĠSm all
op es
Ġfr ame
Ġpract ices
r g
ĠAust rian
ĠInter state
ĠD ub
Ġappropri ate
S er
Ġexp ensive
ĠS i
Ġturn ing
Ġsup porters
ul um
ĠMalays ia
ine a
og an
Ġsurround ed
ĠPrim ary
Ġjust ice
ask etball
Ġcous in
10 4
Ġread y
ank a
ĠHung arian
Ġbring ing
Ġf ame
Ġcolon ial
Ġphys ics
F urther
Ġmer ely
ĠColl ins
Ġille gal
Ġsh ore
Ġexcell ent
Ġs ight
ĠV o
ĠS ide
ĠB orn
Ġcomp ilation
Ġas c
ĠL ud
Ġchap ter
Ġde leg
an on
ap ped
y ll
ĠSp rings
Ġtre ated
ĠL en
Ġarg ument
ĠY u
I SBN
Ġrepl acement
Ġcred its
as ant
enc ing
A f
Ġacc ounts
in ated
ĠHar bor
ĠPh oenix
Ġg ram
ĠR ico
Ġdis miss
ĠHol land
Ġelect oral
ick ets
G old
10 3
ran ean
Ġpro hib
over e
ĠO d
Ġw ire
ĠPark er
Ġconf used
ĠD NA
M et
ust ed
ou stic
ten ance
Ġsat isf
Ġinstrument al
ore n
Ġfl ows
ab ilities
hemat ical
ĠArab ic
Ġcontrib utions
Ġb aby
ĠB aby
ax y
Im age
ĠC A
ĠTr ack
ĠUn like
rib ed
ĠR at
ĠL ower
ok u
ĠF reedom
u its
ĠN eg
Ġlegend ary
W ar
Ġgr ant
Ġin ternet
Ġexact ly
Ġlegisl ation
ĠB eng
Ġseem ed
ows ki
Ġpresident ial
ir i
ĠV erm
Ġident ical
ĠA ld
ĠBrazil ian
Ġ5 3
ĠVers ion
Ġh ip
ĠPear l
Ġpre t
Ġr ugby
ĠMu hammad
c ussion
Ġpre st
es is
19 64
Ġag ents
Ġdr um
st yle
Ġ5 6
re leased
Ġshe l
M at
arri er
p ers
Ġal gor
Ġexped ition
Ġtrad itions
Ġ190 7
ur st
ĠF itz
Ġmin ute
Ġlong est
Ġlat est
ach t
ĠN et
ug s
d oor
av el
Ġd ub
ĠS now
Ġro se
ĠRoman ia
e lection
Ġentertain ment
Ġmeas ures
o ks
Ġchild hood
Ġstay ed
Ġ190 1
ĠJ azz
ĠMit chell
are st
Ġaccom mod
Ġs ail
Ġid eal
ac o
Ġrestaur ant
ber ry
ou ch
ĠM ong
Ġret ained
Ġeven ing
Ġarch ae
Ġproduc es
Ġ2 50
ĠC ad
Ġsur pris
iv ation
ĠR ic
ĠTrain ing
ay an
ect ors
l ater
Ġoccas ions
ĠCarl os
ĠP ast
ibb ean
Ġst orage
ĠH orse
O C
Ġpo ems
Ġl ists
Ġbusiness es
ir k
Ġdesign er
ĠY ellow
c at
Ġin ner
Ġm ine
ĠG rad
Ġopt ion
Ġun like
ĠOtt oman
Ġdef ensive
Ġconcern s
ĠT erm
Ġtest s
Ġthe ater
ex p
ĠUnivers e
Ġseg ment
ĠIs a
ud es
c ing
ag ons
ĠAt hens
Ġpract ical
19 65
ĠD ictionary
ĠRet urn
on ian
ĠPr inc
Ġnet works
f ly
L eg
ĠD atabase
let t
Ġh at
Ġtrans mission
iv ated
ĠL ear
ĠDr ive
ĠSym phony
N or
Ġal ive
ĠJud ge
ĠOrgan ization
18 0
ĠReg ulations
Ġvis itors
Ġso il
ar u
Ġw ides
enc er
itar ian
ĠS P
Ġth irty
Ġacc l
ĠNor folk
Des pite
a ired
ĠL ad
Ġf ruit
H E
Ġdev oted
Ġf ill
Ġimp ossible
ĠPlan et
ĠCol lection
Ġr ide
Ġd ynasty
Ġ190 4
ĠC arm
Ġprom pt
L ive
Ġser ial
Ġsecret ary
Ġemp ire
B en
Ġc od
Ġportray ed
Ġmed ieval
ĠBroad casting
ĠB ud
ĠO t
Ġstrugg le
ĠP ont
Ġrec re
Ġgovernment s
born e
ĠStud ents
iss ue
u is
ĠF ly
pt y
Ġadop t
augh ters
cl usion
l en
ĠG host
Ġequip ped
Ġn eck
ĠEx p
Ġbound ary
z h
ĠB ranch
Ġoff ensive
Ġ18 80
oin ts
Ġex cess
s ong
h aw
Ġdoc tr
Ġd atabase
Ġto ol
Ġsh ares
Ġinc hes
ĠHawai i
ĠL ib
30 3
Ġ190 9
iz z
Ġpro port
Ġp apers
Ġcorpor ate
Ġvol umes
Ġ190 3
Ġb udget
ĠA qu
ĠPier re
Ġw arri
Ġperiod s
Ġpart ly
ĠR abb
Ġd ating
ĠFor mer
Ġgrad ually
og le
grad uate
ĠW as
Ġin put
Ġexpl an
Ġkeep ing
ĠUt ah
Ġrec ru
ĠFinn ish
Ġlast ed
ĠD ata
B ill
ĠL ion
p read
Ġ8 8
ol ia
ĠDig ital
Ġdiscover y
ow ell
Ġr anks
intend o
ĠAl aska
Ġthe ories
ĠK an
ro v
Ġthem es
a os
f ers
ĠCh and
Ġm ob
Ġconf ront
ĠS r
Ġmat ters
Ġtradition ally
ro d
Ġadap ted
az ines
ĠT ig
Ġpartn ership
O T
Ġenjoy ed
ĠP ic
Ġshoot ing
ĠSar ah
ess ions
12 3
Ġro of
Ġh idden
Ġ9 3
ĠStud ios
it als
ĠSw iss
Sup er
Ġl ose
ear ing
ĠSal v
Ġhe nce
osp el
ĠS port
Ġcomp lic
ĠY orkshire
em or
ĠBrook lyn
S l
Ġfund ing
enez uel
un ct
ur ers
Ġcur ren
Ġwind ow
Ġl ingu
Ġfair ly
Ġjun ior
ĠM aine
ap se
S al
ail and
ĠA er
u able
Ġent ering
Ġsound s
Ġover se
ĠT ype
Ġslow ly
c ut
Ġgr ass
Ġnickn ame
inc inn
Ġapp ly
Ġinit i
Ġp unk
ren a
Wh ite
ĠK id
Ġorig ins
Ġcerem ony
Ġcl imate
ĠEv ans
Ġs ector
ss on
Ġwas n
ĠAn na
Ġlic ense
ĠN ord
ĠI N
row s
Ġbroadcast ing
Ġdel ay
ĠS ay
ir ation
ĠDe ep
Ġb en
L ove
Ġ5 7
ĠM uch
ĠAg ric
ri pts
Ġinvol vement
Ġcircum stances
Ġus ual
U R
et ry
ĠJ enn
Ġsoc cer
ĠF antasy
ĠH ad
17 0
b r
Ġ6 6
l s
Ġdes ire
ess ed
ĠFl ight
ĠHer itage
Ġr ates
Japan ese
ĠArk ansas
ot ton
ĠGl obal
ol ar
ĠBapt ist
ĠP ack
Ġb right
rehens ive
ĠM ak
Ġb ronze
sc ar
n ia
r aska
hel m
Ġcarri er
Ġmin ing
d ers
Ġwhere as
Ġprovinc es
ĠCap ital
Ġalco hol
rist ol
Ġreview s
ĠF isher
Ġo dd
19 50
ĠM ans
ous es
Ġscient ists
Ġsound track
ĠS yn
Ġdec ides
ĠSt re
ĠRog ers
ĠT on
Ġsp in
Cl ass
ix on
w ig
ĠM ut
Ġelect rical
Ġ9 2
L ater
off s
ancell or
Ġdr ummer
Ġinvest ment
Ġm ac
it ars
Ġcross ing
incinn ati
hatt an
im on
ang le
emb le
Ġtrad ing
Ġimp ress
Ġra ise
ic ate
C he
Ġw ings
Ġdec line
Ġvict ims
ĠT ag
ĠKe ith
ĠIn v
Ġcr ater
Ġcirc le
ĠN umber
Care er
S k
Ġprison ers
Ġper ce
av or
Ġmanufact uring
ĠEgypt ian
Ġadvert ising
em on
onom y
ĠP ad
Ġch air
12 2
Ġ190 2
ge bra
Ġdist inction
O h
b rid
Ġadd ing
ke ley
ĠKir k
Ġpat rol
C ity
Ġcom ics
ĠCub a
Ġattract ed
for ce
d est
ĠFriend s
Ġch annels
M D
c ia
ĠGlas gow
ock et
ĠF u
Ġn inet
ic ious
F rench
ĠSer ge
rupt ion
Ġpaint ings
ĠSp ider
er k
ĠT u
M ad
Ġwrit ings
ĠThe ater
ĠN ature
Ġpat ient
Ġch amber
arm a
ov i
il it
iet h
ĠIn vest
F red
ĠEner gy
Al so
ĠMar x
wh ite
Ġass ign
Ġdr iven
Ġclass ified
Ġint ent
Ġtre nd
Ġcontinu ing
Ġsec ure
ĠH ab
e ast
B et
Ġcl in
ĠF I
Ġstat istics
Ġtal ent
ĠV el
ĠFrid ay
Ġreg istered
Ġrelationship s
re ck
ĠC er
Ġstep s
au ge
Ġsurv ive
Ġ18 70
Ġcon j
Ġc risis
ĠY am
ĠMan it
Ġ5 8
Ġabs ol
ĠEconom ic
ĠM orning
pro fit
Ġmiss ile
ĠE ug
Ġl es
ling ton
unn y
Ġleg s
p at
Sec ond
Ġw inners
av an
Ġadv is
Ġsh ield
Ġc up
nt il
ĠAl ice
Ġview ed
C arl
Ġt ape
ĠT ree
Ġcustom ers
ĠN i
Ġsub st
g un
bre ak
ific ial
Ġrel ation
S oc
oo f
S D
ĠCl ay
Jos eph
Ġprot ected
m ates
R oman
ew ork
Ġhelp ing
d ef
ĠJon athan
Ġliqu id
v y
Ġsh r
ĠH ope
36 0
Ġmarket ing
aj a
ĠP ay
R T
Ġel der
ro st
ĠL oc
ab ad
Ġsub marine
ript ions
Ġcent ers
Ġ8 5
Ġexpl o
Ġfavor ite
Ġwides pread
Ġt ennis
ĠSocial ist
ra it
ĠC ond
Ġexper iences
ĠGro ve
Ġwh ilst
C onn
ed a
Ġdraw ing
Ġpen al
Ġf ur
Ġm aps
ĠArt icle
her s
ĠSh an
9 00
ic ular
ĠCE O
z i
if ies
St ate
M ore
ty pe
Ġor chestra
ĠW or
Ġrem ove
Ġpro ve
Ġposs ibility
ĠHe aven
M ike
Ġpers p
ĠHit ler
es ley
ab ul
ĠDep uty
ĠV iew
Ġexperiment al
Ġfal se
f ortunately
P resident
Ġsent ence
Ġre un
Ġev al
ĠBen jamin
t ains
Ġsk ill
th a
ap pe
R ob
Ġre ven
ĠNich olas
ĠB urg
12 7
ict ions
Ġopp onents
ĠTh under
Ġdown load
ĠShe l
Ġdr ink
ĠBy z
ĠCh all
it able
Ġcomp onent
Ġcl ock
ett a
Ġs ure
ĠLuther an
ĠG ay
ĠMach ine
Ġs aved
ry s
Ġcl an
pe are
Al bum
ĠLegisl ative
ĠOtt awa
ĠClin ton
p age
ici ency
f eld
Ġr id
ĠAn y
ĠN otes
ĠP ra
ĠSoft ware
13 4
ĠGl en
ic ip
Th at
Ġrad ical
Ġf old
iter ranean
Ġvict im
Ġcommunic ations
ĠBarb ara
ĠPro file
ĠCar ibbean
Ġsp aces
ff ee
ĠH udson
ĠW onder
ĠE ld
ĠAct or
os exual
Ġbelie ves
ond a
ĠMas ters
Ġsynd rome
r us
ĠQu est
Ġprocess ing
am ents
s or
ĠAl t
L C
akes peare
Ġt exts
Ġfor th
um ps
b us
P olit
Ġform ally
Ġsw it
j u
Ġexpl ained
Ġrul er
ĠChrist ians
Ġthink ing
45 5
Ġphot os
str ong
M iss
il ty
Ġconcern ing
Ġjurisd iction
ĠO S
Ġsh if
Ġaltern ate
igen ous
ĠBob by
ĠMuslim s
ut or
26 0
ip ped
Ad d
Ġcas ual
12 4
Ġmain stream
as i
u ated
ov al
Ġsum mary
ol en
19 63
ĠB ald
Ġcan c
ĠBet ween
Ġt ort
Ġimmedi ate
Ġdep os
Ġviol ent
U SS
Ġreg ime
ĠPl at
ĠF uture
Ġreg iment
Ġclaim ing
Ġpain ted
F orm
T op
ĠP y
Ġoper ator
Ġwithd raw
Ġ18 98
our se
ep s
ick en
19 62
ĠR ugby
Ġemer gency
Ġac know
Ġbl ocks
Ġc oun
Ġun less
Ġtrans mit
b ie
Ġw ww
ĠD ennis
ĠJeff erson
Ġvide os
Ġsee ing
st ad
ĠK le
Ġclos er
Ġown ership
Ġinv ented
Ġmil it
ĠJ oy
Brit ish
m ail
ĠAss istant
Ġkid n
ok er
Ġden ied
it is
ed ed
g color
L ike
Ġvess els
Ġfranch ise
ops is
Ġo cean
p y
Ġa head
ob by
Ġsurv iving
ĠW a
Ġint ention
Ġpred ecess
ĠAnc ient
Ġpossess ion
Ġad min
ĠLl oyd
ph abet
ĠJos h
M I
Ġfund amental
ĠWar ner
Ġexp ect
Ġfilm ed
Ġt ied
Ġliter ally
er ia
u in
Ġsim ult
ovak ia
ed ge
Ġconf ig
ane ously
Ġliter acy
ĠR io
in ist
Ġg olf
Ġ9 4
Ġlo an
am o
Ġmount ed
iss a
ĠL an
Ġtransport ation
ĠCra ig
ĠM A
Ġhe ir
B as
i ens
ĠAr c
Ġtem por
ĠP ul
CA A
Ġcoast al
ĠN iger
al ysis
Ġr ig
onym ous
ĠPort land
Ġst ress
ric ted
Ġtem porary
Ġmin imum
cast le
Ġadv ice
Ġthreat ened
Back ground
ĠStud ent
T oday
Ġfall ing
Ġmechan ical
R I
ĠSh in
Ġtra il
Ġmag azines
Ġsubstant ial
i our
ĠGerman s
ĠChap ter
ar us
G en
ĠThe ory
i ors
ĠPl ant
Ġm oral
ĠOl iver
ĠG on
Ġrat io
est ed
27 0
ĠVinc ent
Ġ9 1
ĠHe at
ok a
Ġ18 99
Ġinter pre
ri en
Ġcl othing
Ġsuppl ies
ĠG round
oph one
Ar ch
Ġcons ecutive
in ite
ĠM ort
Ġr ub
ad ian
Ġev olved
Ġ ib
ro us
ro ph
Ġwood en
ĠK il
Ġori ent
Ġm or
ag ram
Ġcab inet
13 3
erson nel
Ġattempt ing
Ġmin i
ĠA S
Ġ6 00
ent le
ĠL ink
ĠAdvent ures
Ġhard ware
oot s
C urrent
Ġw ish
ĠB ot
o i
Ġdi agn
14 6
Ġmart ial
L ondon
Ġsup ports
Ġcontinu ous
h um
Ġtreat y
ĠW here
Ġd ual
Europe an
. ),
Ġminor ity
port ed
G ame
ĠG oth
13 2
Ġw orn
d ess
E very
D D
ĠPr uss
ĠEd die
16 6
ĠB ey
Sp ace
ĠLiter ature
ĠS aints
ĠK ill
Ġlook ed
14 9
Ġres erve
Ġpro cl
Ġconvent ional
es ar
e ing
ĠClass ic
ĠB orough
Ġhel icop
ĠAl pha
Ġam ateur
st own
Ġre porter
Ġ18 96
Ġbal ance
em ale
ĠYug oslav
b ane
ok ed
ĠDev il
f ront
g om
ĠDef ence
ĠTurn er
Ġesc aped
Ġcons cious
Ġtw in
ĠR idge
ĠH ear
Ġ10 1
ĠMan hattan
n ik
ĠHar rison
Ġinf antry
Ġlim its
ĠR ab
28 0
ĠD elta
B BC
Ġencour aged
stit ute
Ġatmosp here
g s
ar ant
Ġd im
il ia
ĠF le
our t
10 1
Ġcomplet ion
Ġexclus ively
38 0
as ia
Ġm eat
ĠN am
ĠMet al
Ġcolle ges
min ster
ĠCamp aign
B ro
ĠK on
Ġdomin ated
ĠC incinnati
av ia
ĠLe o
Ġent hus
M e
y gen
ĠS ad
Ġag ree
ĠG ang
Ġpre gn
he ro
Ġkil omet
ĠV egas
B attle
Ġdeath s
Ġpass age
Ġinterpret ation
ĠM i
former ly
ĠCh i
ĠNap ole
Ġdoll ars
G rand
ch t
Ġun cle
Ġ18 95
Ġbre aking
Ġy ield
Ġag ed
Ġscient ist
ome ters
ĠO ct
ublic an
H ol
im ir
Ġstud ying
19 58
hol m
Ġsh ops
qu ir
est on
ĠS ic
ĠH ugh
ov o
ull ivan
ĠIsland er
cel and
Ġhy per
ĠI ss
P G
Ġrel ief
ĠTh or
ĠLeg end
ĠT oy
ĠC elt
am er
Ġpro fit
C H
ĠNeb raska
ĠProv inc
iven ess
19 59
Ġdec lined
Ġfin ishing
ĠH em
ĠSt ill
os ph
ĠNob el
Ġexpl ains
Ġpric es
red ited
37 0
Ġg ene
ort ion
ip per
ah a
ĠOrig inally
Ġz ero
Ġp seud
ĠL ov
Ġres olution
Ġpres erved
ĠSt ein
et e
Ġ18 60
uns wick
ev a
Ġr it
ĠB ert
act ions
Ġman usc
ie v
ple x
Ġass embly
e lect
Ġform ula
ĠO pp
ela ide
Ġind ex
Ġ els
ĠS or
R S
ĠLe ader
ĠTh ailand
Ġh al
Ġh orses
or ious
op y
um er
Ġf urn
Ġprote in
Ġfl ash
Ġdisp ute
ish ops
Ġess ential
ĠF at
M ac
n ers
ĠN intendo
ĠP in
Ġpick ed
Ġconc erts
Ġattrib uted
Ġ error
d ied
et he
ĠManit oba
t rans
Ġ7 2
ĠI van
Ġcommand ed
ĠS oon
ĠMed iterranean
19 45
Ġdivers e
ight ing
un ning
P ublic
St ud
Ġst ick
ĠC N
ĠFl ore
Ġsp ell
ĠAm az
ĠB uch
19 57
29 0
M ount
Ġsp ir
Ġf aster
ĠA x
ĠY e
ĠAnd re
Ġmyster ious
id ad
forc ement
Ġvess el
ĠB our
el ia
over y
ĠĠĠĠĠĠĠĠ ĠĠ
ĠD anny
en berg
ĠS T
ab ric
Ġtele phone
Ġn avig
ĠEvent ually
Ġhon our
ĠF if
G reat
V ol
qu er
N orthern
se ason
Ġdomin ant
ab a
Ġcritic ized
ĠUnivers al
ĠNe il
Ġc ited
ĠD iamond
Ġdistinct ive
Ġra b
Ġv oting
Ġ6 2
Ġwrit es
Ġforest s
H istor
Ġacc ord
ĠEag le
Ġm al
p in
Ġrul ing
ĠW alt
it ter
rap y
Ġdef ence
Sc ott
14 3
ash a
Ġfamil iar
Ġro ot
Ġpart ially
Ġpred omin
Ġfor g
ĠBe aut
ĠPri or
ĠAr nold
ĠP le
Ġg at
osoph ical
ub a
z es
Ġl ie
ĠSh akespeare
S chool
14 2
ĠS ak
P al
ĠR alph
Ġpro of
Ġsuff ering
D C
ĠN ame
Ġemer ged
o ids
Ġren owned
Ġtr uck
ĠInt elligence
ĠAbb ey
Ġcivil ian
Ġrestaur ants
ĠProtest ant
im m
Ġels ewhere
Ġman ip
ĠN av
ĠRo om
ĠOrig inal
Ġcompris ed
ĠPict ures
vel t
ĠJ ava
ĠMc L
ĠBer keley
E c
Be fore
Ġt anks
Ġbene fits
ĠAng lo
ĠArch bishop
ĠW inn
ĠMil an
Ġpo ison
ĠV ic
ĠThere fore
M ary
Ġtour ist
Ġ1 30
ag ar
Ġo uter
rain ed
Ġc yl
he nt
ĠJ ar
ĠKn ights
ĠS ask
Ġmanufact urer
ĠC arn
ĠWall ace
18 8
Ġal ter
ok ing
op al
id ency
ĠO z
L ong
ĠGu inea
ic ism
Ġbound aries
b ul
Ġag encies
Ġterrit ories
D E
ĠS alt
ĠF ell
ĠG ate
Ġdisplay ed
Ġhe aring
15 6
Ġmanufact ured
Ġtheore m
Ġex ceed
s ur
ĠH ig
Ġh ole
Ġorigin ated
Ġremain der
ĠS ultan
Ġhor iz
ĠSc ar
Ġf est
ĠG or
ĠV II
ĠC urt
et ary
ĠIndust rial
ĠA N
lud e
g roup
ĠBat man
if fer
H on
ĠB ristol
Ġcou p
Bl ue
ĠTom my
Ġthe at
Ġ6 8
Ġob lig
Ġcreat ures
Ġsevent h
Ġab st
Ġexec ution
14 7
ĠS ah
Ġ18 97
Ġabs ence
e or
ĠS ug
ĠP el
Ġmar ks
ĠBuff alo
S en
ĠMin or
appe ared
Ġren ew
Ġ1 59
W omen
imens ional
ĠFor um
ĠF aith
ĠT ib
d isc
ack ed
Ġb id
Ġgener ated
ĠAll ied
2 20
G B
t i
Th ree
Ġsol ar
Ġsee king
ag i
an ne
ac les
Ġgen etic
2 40
l ia
ĠComp et
ĠMes a
Ġs ung
Ġpublic ly
Ġf antasy
Ġschol ar
est y
Ġw at
Ġ18 85
J ean
ĠP ant
ĠF eat
ĠN ext
Ġk it
Ġdec isions
ĠH erman
os c
ĠAn im
ĠArch itect
ĠGre ater
Ġinst ruction
ott o
Ġall iance
Ġtouch down
ĠDr ums
as ks
ric ks
Ġt elling
B E
r ish
Ġjob s
amp ire
Ġass emb
ĠBr unswick
Ġmain tenance
ĠSt ri
M el
Ġt unnel
ĠV enezuel
ĠSt uart
ĠB ris
ĠUk raine
47 0
Ġinteg rated
ĠM ig
Ġind icated
ĠZ e
ĠK el
Ġv ow
at ar
Ġexp osed
Ġrepl acing
Ġart istic
Com m
Ġdec ide
Ġd rew
ĠC H
Ġst able
ĠA R
Ġc ul
ĠL ock
Ġincre ases
ate ver
ind a
Ġm oon
19 56
ĠY ale
Ġam ounts
ĠCirc le
Ġsur gery
3 50
act or
ĠB asketball
ĠSh op
Ġrece ives
st and
ĠO il
15 9
ric ke
w ald
ĠM ann
Ġlay er
ar r
Ġproduc ers
Ġill ness
ĠHar old
ĠHer bert
37 5
ĠHarv ey
Ġact ed
Ġinter face
Ġreve als
ĠC hen
U s
Ġh a
Ġmyth ology
Ġrem ote
Ġ6 3
Ġmurder ed
Ġhel ps
ĠEnter prise
V al
48 0
ĠTerrit ory
ĠL ate
Ġ1 58
ier ra
Ġcollabor ation
O per
Ġser ver
Ġap artment
ĠR AF
Ġstat ue
Ġeff icient
ĠConfeder ate
ĠLe ft
Ġexpl ain
Ġ8 00
r ade
Ġphot o
ĠProduct ions
3 20
Ġindust ries
s ub
16 7
ster dam
ĠIndones ia
Ġpers u
ĠBuddh ist
ev en
G M
Ġ1 56
b es
Ġher itage
ĠRoman ian
ĠPar ish
ic ity
Ġ18 92
ie g
on c
uck er
Ġmeet ings
ĠS onic
B ecause
ĠT amil
Ġyoung est
L iber
ist ance
Ġkn ows
em pt
ra ve
Ġair line
O s
46 0
Ġin sc
Ġconn ections
ĠS ex
Ġdi ameter
Ġasp ect
au er
ĠPen insula
Ġspons ored
Ġre aches
14 8
. :
Ġbo ats
Ġ8 9
al though
Ġc raft
39 0
Ġp ul
aw s
Ġsy mp
w right
Ġpattern s
ec raft
Ġge omet
Ġsett lers
Ġgraph ics
gom ery
ad ows
Ġ18 94
ĠD h
ent on
Ġcoal ition
orn e
ann i
Ġsequ el
Ġc rop
Ġw restling
Ġcharacter istic
Ġcarri es
Ste ve
Ġst ead
ose velt
p son
Ġpl astic
Ġs am
ĠUr ban
anc he
Ġtrans ition
ĠO cc
est one
O P
Ġord inary
Ġlog o
Ġb onus
14 5
cent er
ov ich
as m
ĠStud io
Ġbeaut y
ĠS old
Ġacc eler
Ġf ix
St ation
ĠNew ton
Ġpe oples
16 8
ĠM ills
ĠA rena
Ġinflu ences
Ġret reat
Ġg host
Ġpal ace
Ġin aug
Ġadapt ation
t ical
v as
ubl ished
Ġcar go
Ġmechan ism
Ġexpl icit
ĠR ou
ĠB ear
ĠTr inity
Ġrefer ring
Ġvis iting
bor o
Ġwalk ing
ĠMond ay
ĠPhil osophy
atche wan
ĠAb raham
ĠHe ights
Ġremember ed
Ġ7 6
ĠAc cess
ĠPal omar
Ġres ort
Ġconce pts
16 9
b el
ĠPer formance
Ġ18 89
Ġcollect ions
Ġt ons
Ġparliament ary
rast ructure
f ree
u ction
ah o
ĠGr ace
raz y
ĠDen ver
Ġcateg ories
ag ger
Ġexerc ise
Ġemphas is
ep hew
ĠF ighter
Ġhun ting
fl u
Ġinterview s
ra h
ĠB ron
Ġt one
orpor ated
Ġ7 7
Ġtro uble
Ġconcent ration
Ġch ron
om i
le e
ĠPhilipp ine
Ġident ify
ĠH MS
Ġvar iation
ĠReg ister
Ġsched ule
Ġd aughters
Ġ1 25
Ġsuit able
S om
Ġann iversary
enn ial
Ġ18 93
B er
ol ve
ĠS C
ĠR ivers
ir ts
ue z
ĠIndepend ence
ĠS ection
17 9
ĠM aced
Ġnob le
c ase
it ure
lud es
Ġh orn
Ġland ed
id al
qu est
ĠSh a
ĠM ason
fect ure
ĠOb serv
Ġbl ind
Ġterm inal
ĠVictor ian
Ġ18 61
Ġcr imes
am ine
A wards
ĠStev en
oc c
Ġloss es
Ġc ash
Ġ1 40
ĠBul gar
ĠL ex
Ġexper iments
Ġlin ear
ff ield
Ġneut ral
at on
ĠCr ime
c over
Ġor bit
ag ers
Ġfl owers
Ġmon itor
w yn
ĠA round
ĠH at
ĠBe h
ĠCharl otte
ĠSong s
18 9
Ch ris
Ġren ov
Ġpr ince
15 5
Ġterm inus
ĠLin ux
ĠE ff
Ġindic ates
Ġins urance
Ġdram atic
Ġunsuccess ful
Ġ7 8
ĠEth iop
Ġm o
ĠV lad
ĠB rew
Ġs ample
ĠHug hes
Ġdifficult y
Ġdefeat ing
ĠG am
ĠK ay
Ġdep icted
ru ly
ĠT ax
ĠM ol
R ay
ĠP A
Ġcl ient
g ame
Ġk ings
g i
Ġconst antly
l og
Ġdesc ent
Ġlog ic
ib ilities
b ot
ig ion
uc lear
Ġv el
Ġsitu ations
Ġd ict
Ġspe akers
s a
ch ing
ey er
Ġpat ron
ĠBut ler
ĠR acing
Ġ18 00
Ġdis aster
ĠMad rid
Ġ8 4
ĠC reat
ĠNorth west
ĠDes ert
Ġsp ac
Ġst eal
ang o
M ah
ĠR ac
19 55
Ġback ing
Ġcon ven
oll o
Ġed itions
ĠP ent
ĠL anka
Ġcamp s
ĠEd wards
Ġmer ger
M o
Ġbl ow
Ġvar iant
Ġr ising
ĠHe in
Ġarrang ement
Ġextens ively
g am
ĠP ink
ĠL ords
Ġfriend ly
Ar thur
Ġagric ulture
ĠT ed
ĠNev ada
Ġdog s
on ies
Ġann ually
Ġwealth y
P ost
af e
2 26
ces ter
Ġbelief s
ĠR ange
4 50
49 0
ĠQu arter
ĠF ine
F amily
ĠB right
ĠJ e
Ġth in
ĠF a
om ber
hem atic
Ġnovel ist
Ġvirt ually
ĠH omer
ri ft
Ġvar iations
ot yp
ic us
Ġarg ue
15 8
ab el
ĠPol icy
ĠE sp
E st
Ġl ights
Ġpar ody
Ġactiv ist
ab e
ĉĉ Ċ
Ġs alt
ĠF oot
ĠTro phy
Ġcomm emor
Ġgrad es
ĠCons erv
Ġp ir
ĠD ale
Ġhand le
f ast
Ġdepart ure
Ġanim ation
m its
Ġequ ation
Ġt ie
Ġvar iable
Ġ6 1
Ġmem or
ec ution
ounc ill
ation ally
Ġappoint ment
ock ing
ĠS eb
Ġ6 9
ĠSus an
ĠEx change
D ef
ĠB ath
Ġatt orney
ĠF un
L S
Ġrob ot
ĠCare er
Ġm ines
ĠW r
ĠTrans it
ĠFin ally
ĠScot ia
ĠM TV
ac ters
Ġm arch
C P
is ch
ĠTh ose
ent e
ĠI celand
at ra
Ġprop ag
ĠF ish
i ability
v ar
Ġm ail
Ġcreat ive
Ġpercent age
Lou is
ed i
ĠInter view
Ġ( #
Ġr anging
Ġsurv iv
Ġswim ming
G ood
ĠIsa ac
Ġs we
Ġc a
Ġ1 57
en burg
Ġ u
ĠAdd itionally
Ġre nt
ĠD in
ĠL uke
C amp
Ġs ailed
ĠF an
Ġ6 7
medi ate
ĠL isa
ĠT alk
ĠC hel
ring ton
Ġass um
Ġsk y
D irect
Ġrecover ed
Ġtrib ute
ĠH ur
Ġ8 6
w ord
Ġcontrib ution
Ġsug ar
as hes
em ed
ĠT iger
b ian
Ġcomp rehensive
fil m
keep er
Ġno ise
ĠH unt
R et
ats u
ad ers
Ġ18 91
Ġnuc le
n amed
Ġloc ally
od ed
ĠCr us
ia o
ĠC ou
Ġup grad
onn ie
Ġt ur
Ġt ube
enn ium
Ġdes ert
oc ent
in ent
ath a
Ġent ers
M ax
ĠSerb ia
Ġart illery
Ġb ath
art ing
ĠMur phy
2 25
ĠTechn ical
Ġw el
ĠG ene
ish i
Ġb rig
ĠPar ad
p ost
Ġprest igious
Ġd ated
Ġs urn
Ġf asc
ĠS weet
ĠC ut
17 6
ĠCo al
Ġcontrol s
ĠAd elaide
17 8
ĠN ear
Ġegg s
M er
Ġb anned
Ġab use
Ġaccur ate
Ġt ens
Ġang le
Ġround s
s om
ĠG ill
ĠW u
Ġcal endar
Ġdet ail
ĠV iol
18 6
ĠTransport ation
v et
Ġfollow ers
ĠB og
ĠE ye
Ġfe ud
ĠP rice
Ġaim ed
Ġele ven
G od
Ġn a
duc es
ĠRay mond
i ology
ĠA ber
Ġ18 50
un ar
em ia
Ġlist en
An n
Ġop ens
Ġim perial
Christ ian
ĠAr ms
ĠT ogether
om orph
end a
ĠGil bert
f r
s is
f eat
Ġopportun ities
Ġst im
ĠUn fortunately
Ġto mb
il ian
found land
/ ;
W al
Ġcom mentary
ĠV isc
Ġsym pt
ĠAdvent ure
ĠSh aw
Ġsup press
ĠH ann
Ġinj uries
19 40
rel s
ĠM alt
ĠBelg ian
ĠPer ry
ĠM ust
Se ason
Ġro ut
ĠMan ager
m id
ent ieth
J eff
m other
ars on
Ġpar ks
Ġrif le
ĠN ine
19 49
ĠDel aware
R E
Ġp ist
Ġthan ks
Ġcompet itive
ĠLiber ty
Ġconvers ion
ĠSe an
V ill
e lected
M embers
B o
ĠC urrently
3 40
Ġcult ures
ĠL ux
it ime
ĠForm ula
Ġpersp ective
ĠStud y
Ġdo ors
Ġwill ing
onom ous
Ġ8 2
Ġco at
Ġm ph
Ġkilomet res
Ġj unction
ĠEv il
Ġcharacter ized
Ġesc ort
ym e
d ark
Ġh p
ĠI BM
ĠC ob
ab il
it ially
ĠDemocrat s
Ġvo iced
ĠRo osevelt
t ors
Ġexclus ive
17 5
Ġaffil iated
a ude
ro x
is ations
Ġto uring
ĠK ap
Ġpenal ty
Ġmer c
it ol
Ġh appy
Ġt ight
Ġv ul
Ġdoub t
19 6
Ġab road
ĠMunicip al
h ow
14 4
Ġfac ing
Ġsp end
Ġhistor ians
P M
Ġsent enced
ĠN eed
ul ator
Ġman age
Ġrepresent atives
J ul
ar in
15 7
ĠW ang
Ġg ard
ĠO w
Ġconc rete
Ġparticip ation
Ġp y
Ġcorrespond ing
Ġconstitution al
Ġbas es
Ġrock et
ĠPet e
rup ted
ĠG olf
Ġfl ower
ĠO wn
ach ment
ĠD ra
ĠM ath
ĠU C
Ġmon astery
unic ation
Ġcreat ure
2 30
v ia
Ġal phabet
b in
Ġb are
ra pped
Ġal gebra
our g
Ġcan on
ĠH us
Ġb ars
ĠE sc
ĠJ ama
ur ring
art ed
Ġlab our
Ġpl ain
or ient
Ġfeel ings
Ġbi ological
el i
ĠAl ong
Ġaff air
ĠRe ed
Ġimmig rants
Ġbroadc asts
Ġconvinc ed
ond e
p ose
ab out
om ed
Ġrad iation
ĠM az
ĠL amb
ont in
Ġpower ed
ĠR ot
Ġin duct
Ġto ured
Ġh ills
ac a
act ic
Ġorient ation
2 38
19 39
ĠC O
end ers
Ġp ip
ag ic
ĠD raft
Ġfl ights
Ġcompet itions
ĠIran ian
Ġre cept
ĠAl tern
2 39
Ġbe er
ĠO scar
om o
Ġchampionship s
Ġtalk ing
Ġincre ment
ĠV oice
ar is
im ates
Ġm asc
sc ale
Jo e
M us
ĠC ultural
Ġsc ores
Ġro cks
Ġmar ry
Ġpropos al
Ġb acter
19 48
Ġs oph
ĠT ourn
F ort
im o
Ġver se
28 6
Ġlegisl ative
Ġkil ometers
19 54
ĠPolit ics
Ġpurs ue
3 30
17 7
Ġ8 7
ro e
ot us
ĠPrinc eton
ĠBr un
Ġc ook
au kee
ĠMo z
19 53
Ġdial ect
h in
g us
ĠĠĠĠĠĠĠĠ ĠĠĠĠ
Ġarm ies
T ur
ĠC atherine
ĠW atch
rain ian
Ġd iver
Ġconv icted
ĠPr ivate
ellig ent
Ġdec k
ĠSp ac
re ated
B ibliography
ĠPro gressive
Ġrom antic
h al
29 9
ĠRe form
Ġw edding
Ġthere after
D ist
R adio
19 52
ĠL ess
18 5
Ġre ct
Ġper cussion
Ġcoin s
Ġcanc elled
Ġor b
Ġemploy ment
l ights
Ġsub div
ĠL em
ĠMean while
Ġre vers
ĠGu ild
Ġland scape
ĠS urre
ames e
aud i
il ogy
p erson
ĠT ong
em ark
ch o
f irst
Ġattack ing
agon ist
ĠVerm ont
com mon
Ġob sc
ĠAm endment
it ting
is en
Ġpop ulations
ĠV as
ĠD oll
Ġpro l
Ġ7 4
Ġover s
St ep
Ġenc l
ĠA ges
ĠG ust
Ġass ess
Ġexplan ation
h all
ĠN CAA
27 9
ĠT as
ĠK itt
iel der
ter ior
ch ild
ol and
Ġne uro
atur ally
l ades
ne ver
re v
Ġperce ived
ĠL is
15 4
Ġreported ly
Ġpan el
ĠGreg ory
Ġprefer red
Ġ18 62
Ġeas ier
ah l
Ġc odes
ĠV ent
ĠCommission er
Ġce ased
um ph
Ġintellect ual
28 9
19 5
ĠCamp us
re ts
I G
Ġcond em
Ġarr ives
Ġlo op
ĠSom ers
umber land
am pton
Ġconn ect
S y
Ġcampaign s
Ġib n
Ġb ay
T or
it an
ĠGard ens
ĠWith in
ĠH il
ra ud
B ur
Ġ8 1
ibl ical
up t
um m
t wo
ĠAtt orney
Ġf lex
ow der
amp a
ĠQ ual
ĠEd itor
Ġout standing
* *
ĠRh odes
cel ona
Ġf ate
D ay
ĠPal mer
ĠTra vel
N ow
Ġbel t
Ġrecomm ended
19 7
19 30
H el
ĠA way
al bum
ĠPublic ations
Ġdeal ing
2 35
ĠFac ulty
Ġ18 87
ĠIm m
ĠCar r
ĠC ome
m aking
Ġst ating
Ġsub sc
Ġsc en
Ġgu arant
Ġval uable
Ġphotograph s
p el
ran o
ĠPict ure
al ks
ĠG iants
ern ess
K n
M or
Ġimplement ation
l ived
Ġart ificial
Ġconc luded
sequ ently
Ġproduct ions
ĠOper ations
Ġso ap
Ġrev ol
16 5
ĠChe ster
ĠN ote
Ġcom fort
art et
. -
Ġf er
ĠR us
ĠSt ories
Ġqu iet
at tered
Ġch ampions
Ġrebu ilt
ĠAct ress
ĠRel ations
ĠCom edy
Ġsh arp
ĠTre as
op l
ĠHer o
ĠMy ster
ĠR u
ĠK ur
Ġp ian
ack er
18 7
B O
ĠPer u
Ġn am
ĠV ict
15 3
S ource
ĠF ras
Ġunivers al
Ġmon ster
s f
Ġphenomen on
ĠS uz
Ġlegisl ature
ant i
Ġcon gress
b one
Ġs in
Ġcan al
Ġproced ure
ĠO pt
ĠP resent
sh aped
ĠH av
ath on
Ġown s
Ġ18 88
U l
ar an
Ġeconom ics
ĠSur vey
ĠColumb us
ĠPro duction
ĠL ag
en os
Ġqu ar
ant o
F our
aid en
ĠWat son
u er
__ __
Ġburn ed
Ġacknow led
ĠB M
on ly
Ġrh ythm
Ġ18 63
Ġs overe
ĠI T
Ġst range
ĠRena issance
ĠW el
Ġox ygen
Ġprogress ive
ĠCard inal
ĠL ie
Ġ err
E ducation
Ġ18 64
ĠSim pson
Ġd anger
ĠLu is
Ġper mission
Ġdescend ants
i ast
Ġc ow
Ġcon greg
Ġrest ricted
ĠEss ex
m ill
ĠFran ces
t ic
Ġdem ands
Ġcoll apse
ĠSt age
Ġsac rif
Dan iel
Ġatt ending
ris e
! !
Ġarr ive
Ġmon ument
ĠR av
Ġstrateg ic
g rim
ters hire
ip her
Ġunderst ood
Ġdiscuss ed
ic he
k ov
ol ition
ĠJ a
us ually
Ġ18 65
ic ing
Ġl b
ĠO g
Ġbusiness man
Ġmagn etic
Ġtravel ed
ĠSecond ary
Ġfriend ship
Ġchar ter
ĠS ut
Ġanch or
Ġmix ture
ĠBre ak
ĠByz antine
Ġrep air
le ft
Ġlab els
j ab
Ġwar fare
Ġgu ilty
Ġ1 10
ĠF lying
w ind
orm al
Ġtar gets
Ġplatform s
f red
ĠA L
Ġob st
ĠWork ers
Ġk W
ĠN at
1 000
Ġqual ified
Ġexhib ition
ap ing
writ ten
ĠPed ro
Ġoper ational
Ġhor ror
Ġparticip ants
ĠAm sterdam
Ġbeh alf
Ġ18 67
Ġmem orial
ĠC urrent
Ġst ored
Ġpre v
Ġf ert
Ġtravel s
Ed ward
c ott
ar c
W estern
48 6
ĠGuard ian
ĠPhill ips
Ġvert ical
Ġth ir
Ġexp osure
Ġt ies
Ġaccess ible
Ġfif teen
46 9
Ġsl ave
p ace
Ġint ense
ĠIs le
Ġgrand father
Ġel dest
s l
ant om
Ġpron ounced
2 36
ĠĠĠĠĠĠĠĠ ĠĠĠ
er as
Ġcross ed
Ġem ig
s outh
ĠP ain
i u
rib ution
W il
ĠMont gomery
or rect
V A
ĠG and
Ġp od
27 8
Ġconn ecting
O W
ĠC row
Ġche st
Fran ce
Ġdr ivers
ĠT ales
Ġnomin ation
ĠIraq i
Sc ot
Ġgod s
Ġsm ooth
Ġw aves
Ġquant um
Ġdoctr ine
ĠT rav
Ġdr inking
ac ular
ĠEconom ics
D o
ĠE ight
Ġcom ments
Ġimplement ed
Ġinsp iration
Ġb gcolor
Ġsur prise
ĠHer ald
ĠN ep
Ġad ults
29 8
w aukee
ier re
Ġen orm
Ġsubsid iary
Ġcreat or
4 40
yl er
Ġdirect ors
Ġt y
ĠB av
ĠWil helm
Ġrad ar
Ġw ait
ĠVen ice
ĠSp encer
28 8
Ġt rick
Ġsuccess ion
Ġ200 8
ign ated
Ġbirth day
Ġev ac
Ġfeel ing
ĠN athan
Ġit em
elf are
ĠG und
Ġpil ots
ĠP rad
Ġ18 86
6 25
ĠT yp
lev ard
Ġcompar ison
ĠRabb i
. ).
W orks
sp an
Ġvir us
ĠS ullivan
all ing
yl on
ĠN an
Ġg ift
Ġcut ting
B re
Ġoverse as
Ġcon fess
ie ve
C y
ĠK os
ĠW ik
Ġv e
Ġsp ending
Ġsign als
Ġall ies
c ano
ĠM ul
Ġcomp ens
Ġestablish ing
m aker
app a
Ġdesign ation
ĠArt ist
bro ok
pl ed
orig inal
ĠP ut
ting ham
ĠMus ical
ĠBer g
ro oms
Ġare na
Ġqu een
Ġmain land
ĠAng els
ĠPhys ics
ĠPl aces
D en
ĠHel en
Ġsudden ly
C W
t es
Ġpull ed
ĠMad ison
Ġproper ly
ĠSl av
Ġtrav elled
Cent ral
3 25
i em
ĠP oll
ĠK or
Ġgu ests
ĠL or
ĠCom merce
Ġdis band
ung le
Ġs iege
Ġmil k
n an
Ġbl og
ĠDou ble
ĠAthlet ic
o an
bre v
Ġpl acing
amb ig
M ur
ĠProfess ional
Ġper mitted
ĠT odd
Ġd iet
C rit
ĠMun ich
E A
c ard
Ġf iring
Ġobject ive
ab l
ĠS ony
g ary
4 20
oy age
Ġdeploy ed
B us
ĠS A
49 9
Ġenc ounter
ĠLeb anon
arm s
ĠS z
Ġg auge
B irth
ĠW ald
ĠF ab
Ġcre ates
Ġorgan ic
S em
Ġreal ized
Ġaff ect
ĠW ag
str ument
Ġp orn
Ġcomp ound
ĠWith out
Ġhom epage
ĠSh ar
19 47
Ġlocomot ives
Ġ18 82
Ġaffil iate
Ġanal og
ĠR ush
Ġwor st
Ġalgor ithm
Ġcon clusion
ans k
Ġbreak s
B rian
Ġdis k
Ġarm or
39 9
pir acy
Ġpoin ted
ĠClar ke
Ġcertain ly
F inal
v ision
w inning
ĠF err
ĠH ob
Ġelectric ity
S W
ĠShe ffield
i w
Ġrep ro
ĠWood s
27 5
ĠVal ent
ĠB ak
Ġcitiz en
r s
Ġfl our
L uc
al in
Ġhol iday
Ġrem ix
Ġsit ting
Ġinters ection
Ġre verse
ĠF oster
ĠArm strong
ĠIndust ry
ĠTh r
Ġspecial ized
Ġput ting
Ġbe ings
ĠGo ogle
Ġ18 84
oir s
ĠJo an
Ġstrong er
Ġopt ions
29 6
ĠComp an
Ġb orrow
Ġ8 3
37 9
Ġsl aves
ĠK iss
Ġmat hematic
Ġsusp ended
Ġelimin ated
Ġs weet
ĠH az
ĠSask atchewan
ĠI b
E ach
m ath
Ġab oard
h uman
2 47
Ġwa iting
Ġfif ty
ĠBulgar ia
Ġmon arch
Ġbus es
Ġn ephew
Ġsettle ments
Ġdemonst rated
Ġwas te
add ed
ĠJud a
3 26
Ġconsum er
ĠH alf
ĠRon ald
Ġt ag
Ġde als
Ġel abor
Ġdel iber
Ġsimult aneously
th at
ĠH urricane
Ġw et
Ġs ick
Ġtechn ologies
Ġs le
Ġassoci ate
Ġtor ped
Ġmain tains
ĠSup erman
ĠAgain st
Ġcompet ing
U C
Ġs essions
ĠDel hi
ĠStan ford
Ġele mentary
Ġplan es
Ġcr uc
ĠP ep
Ġdeliver y
Ġtal ks
Ġstat ements
ĠC and
Ġnecess arily
n otes
Ġkill s
Ġimprison ed
d s
37 8
iz a
Ch ina
Ġ7 9
ĠP ath
ĠCelt ic
ĠP rison
ĠSoc cer
ĠH aven
ĠL enn
Ġass ets
din and
Ġvirt ual
ent ry
Ġpat ent
ĠErn est
E nd
R em
Ġbehav iour
Ġ7 3
Ġprov ision
48 8
Com mun
ĠT un
Ġj et
om es
ĠB od
Ġtr ig
et ics
spe aking
ĠL ac
Ġind igenous
27 6
ĠLeg ion
O l
ĠRet rieved
Ġb one
" :
ĠHar per
th lete
Ġg ear
Ġrun ner
Ġsqu adron
board s
ark ed
Ġhy brid
ĠMont ana
th rough
38 9
Ġcap s
F O
S ur
Ġs ax
R oyal
b eat
Ġtrad ed
l isted
up s
Ġpart ial
Mart in
Ġbe am
ĠX X
Ġt ub
Ġext end
Sh ort
ĠP rest
Ġs ending
ĠFried rich
r ag
Ġf aces
Ġdepart ed
Ġisol ated
ĠNew castle
Ġterm in
S everal
Ġcoll aps
Ġt ruly
ĠG T
Ġt el
Ġ7 1
Ġdec e
ĠD uc
ĠW ells
Ġext inct
Ġb ats
s up
Ġ18 81
Ġv ector
ĠAb u
Ġview ers
Ġs ang
45 8
ĠD id
ĠCor p
Ġrecomm end
Ġfor b
Ġlic ensed
Ġ @
Ġa ster
ĠI C
Ġdeb uted
ic ia
k ar
Ġst ops
tern oon
ĠVir t
ĠM end
ĠI P
Ġatt itude
Ġconf usion
I ts
Ġreb ellion
ĠGe off
h y
it ic
19 46
Ġdu o
Ġpartn ers
Ġmerch ant
Ġfor ty
Th rough
Ġpre mi
Ġread ers
ĠE yes
ĠChap el
Ġbe ars
Ġmeas ured
i ya
Ġb le
49 8
ĠFin ance
Ġkind s
Ġrecip ient
Ġsp oke
ĠL akes
um ably
Ġsuburb s
g ray
ent o
Ġte a
ĠNA SA
J ac
Ġgirl friend
Ġsol utions
t urn
Ġexplos ion
11 1
sc he
Ġem pty
Ġres ource
Ġm all
Ġsoc ieties
ĠOther s
Ġdis appeared
ĠS oph
em a
Ġc osm
ĠJac ques
Ġdise ases
ĠLeon ard
Ġc avalry
H ouse
Ġ18 76
isher s
ĠC red
Ġencoun tered
Ġfall en
Ġess ay
Ġpres ents
Ġclass ification
ĠHol mes
ĠL on
ĠPeters burg
os er
27 7
Ġphot ographer
Ġmat rix
Ġbr ings
yl an
Ġvol t
Sm ith
Ġfit ted
vious ly
Sc ale
ĠV III
ĠW ed
J on
Ġjud ges
U P
Ep isode
m ons
29 5
iv ic
Ġexp and
M a
ĠW ord
Ġwind ows
Ġstreng then
Ġfin als
Ġer ected
Ġdepart ments
p her
al is
ows hip
Ġret ain
Ġex ha
Ġf ee
ĠFour th
38 5
Ġrevolution ary
Ġf ulf
ur ai
Ġn ut
ĠN ad
Ġfle w
Ġcl oud
ĠBe ast
ĠAp ost
u ber
15 2
Ġre duction
ount ry
Ġbl ues
ĠLuc as
ĠIn sp
29 7
Spec ial
S M
ed e
ĠBro s
38 6
E M
S ong
h m
Ġdevelop ments
ĠPal m
ĠBen ed
Ġweek end
Ġelev ation
ĠBeat les
Ġattract ion
Ġn it
Ġspe aker
Ġl ibr
ĠBro oks
Ġann ex
Ġcolon ies
ĠRevolution ary
Ġv ic
ĠFl ash
Ġdifficult ies
37 7
ĠT ake
V ictor
ĠK ath
g ence
ol in
ar at
Ġn g
ĠB achelor
Ġm ad
ĠCont emporary
Ġgold en
ĠBenn ett
Ġth rown
ĠJ en
ĠBris bane
ol ine
Ġ10 5
46 8
oc co
Ġfac ilit
oun ce
Ġgradu ating
p iece
48 9
35 7
Ġdestroy er
Ġpit cher
in ja
Ġt orn
ĠH amb
Col ors
ov an
et o
Ġtrans c
Ġmat hematical
ess e
Ġbomb ing
ĠF iction
Ġ18 68
28 7
Ġmanufact urers
Ġf oss
Ġdeb t
ĠPer th
er i
am on
ĠTest ament
D ep
Ġf ib
35 9
Ġconsider ably
em pl
r int
Ġleg it
Ġsignific ance
Ġr ating
r age
Ġ18 71
Ġco ffee
ie u
D el
Ġcomed ian
Ġpar ad
Ġjud g
Ġcoin c
Ġlow est
h igh
t ar
28 5
ĠS ource
ĠCol lect
epend ent
Ġfarm ing
Wh o
Ġsign ature
Ġrat ings
ĠCom bat
ran k
Ġclos ing
ĠPop ular
Ġf ighters
Ġwid er
r h
AT O
4 25
Ġ18 78
Ġs isters
ĠS ox
ĠAnn ual
here nt
Ġautom atic
F S
Ġth orough
ĠW ant
it us
Ġb ull
ĠH erm
20 6
E G
Ġfocus es
s oc
ĠFI FA
ĠG n
ĠM obile
ĠR oth
rg b
Ġex ecut
Ġchem istry
ĠC ox
oy le
Ġdest ination
h our
ĠR aid
ĠC ust
Ġclos est
Can ada
av ian
ab lished
Th ough
Ġflu id
Ġpione er
Ġman ages
oc ity
ĠBar celona
Ġb in
bor g
m ade
cy cle
Ġac oustic
Ġsymb ols
Ġs av
35 6
d al
ĠM C
ing ers
Ġpro x
H A
ĠD rama
ard ed
Ġaccompl ished
ĠMethod ist
Ġch rom
ĠR ice
add y
Ġl aser
bar ra
ĠT error
at ible
18 4
Ġinf rastructure
Ġimpress ive
ĠFlore nce
lades h
ĠHen ri
19 20
ĠB es
ĠAv iation
ĠGener ation
b en
18 2
Ġcurren cy
an ic
Ġment ions
Ġdescrib ing
A v
ĠNapole on
Ġprepar ation
Ġconsist ent
ĠF ig
ist ent
Ġmag ical
G re
ĠPr act
Ġintern ationally
17 4
ĠRepresent ative
Ġhyp othes
ĠSp art
Ġgall ery
Ġph on
Ġdep uty
Ġis n
Ġserious ly
Ġst olen
ĠSing les
A tt
ro at
ĠS ter
ĠP M
ust rated
he ld
Ġon going
33 3
Ġearth qu
ĠE U
w alk
ĠB rid
ĠH arm
16 4
ĠPlay ers
B u
G r
Ġche ss
Sp anish
37 6
30 6
Ġpack age
47 9
Ġav o
ĠM idd
ĠCo ach
ĠB ach
ĠB ag
ra ble
ĠLe eds
Ġc ave
Ġab olished
36 8
ial s
ij ing
30 8
ed o
Ġdiscover s
Ġprogram mes
col m
Ġpartic les
g arian
Ġex ile
on ica
Ġab brev
ĠC ant
Ġport ions
ic ist
Ġcon vert
ĠP ick
Ġappro aches
ĠWest minster
Ġequ ally
45 9
Ġvocal ist
av ier
ess a
Ġdem ocracy
o il
Ġdist urb
l u
Ġg ate
Ġg ender
cent ury
Ġfarm ers
ĠSerb ian
ur se
ec a
Ġin fer
play ing
Ġr ational
ĠSing le
war f
ip edia
46 7
Ġpredecess or
ĠR if
ĠE lection
Ġreven ge
Ġh ier
ĠB ody
ond uct
Ġphys ician
ĠHaw k
Ġvill ain
um ped
uls ion
Ġg if
ĠH ood
Ġf abric
ĠRob ot
O pen
ĠG as
Ġinvol ve
ON E
ĠOak land
over ed
Ġk ids
Ġden omin
on ing
ĠK in
Ġsub t
on ge
45 6
Ġdev ast
ĠNE AT
st e
ĠStat istics
19 2
Ġ18 48
Ġ18 79
Ġassist ed
ĠMan uel
-------- --------
Ġf iled
spe ed
ĠUk rainian
if ier
uch i
? ?
Ġqu oted
Ġtax es
Ġam pl
Ġn urs
ĠH im
Ġmus cle
Ġinn ings
Ġin ject
pr us
ĠOtt o
ĠD od
Ġappro val
ĠSh ir
ĠM om
sec ond
ĠRem ix
Ġrev ival
erv es
Ġkeyboard s
x x
Ġto ler
ĠTh om
Ġtemper atures
49 6
ĠRe ich
W ood
Ġcust omer
b oys
46 6
ĠConst ruction
S yn
Ġpro sp
h anded
Ġc attle
Ġent ity
36 9
Ġprom oting
ĠD awn
ble m
Ġe ating
26 8
I X
Ġto urs
Ġp ounds
out heastern
Ġfort ress
ĠD aw
46 5
D et
C R
ĠCru z
ar re
Ġadvent ure
ĠH ave
ot ions
atern al
16 3
Ġsign ing
Ġor ange
e u
Ġrele vant
ĠEngine er
Ġh ang
Ġmoder ate
ĠK ra
48 5
Ġviol in
Ġa ka
an ese
ĠFurther more
Ġpriv ile
an ian
ĠCh ancellor
ĠTr uth
ĠM ob
gr ade
ro id
Ġvis its
Ġrespect ive
D oc
ere k
Ġmed als
ĠGab riel
ĠTib et
Ġ18 73
Ġreg ulations
ord ed
Ġask ing
ĠE ve
ĠNew foundland
Ġpass ion
gh ai
Ġpost ed
Ġrel ating
ĠF olk
uss ex
Ġten ure
Ġsh orter
Ġun w
Ġthere by
Ġtrans formed
19 35
ĠDun can
Ġsympt oms
ke es
ĠV ern
30 9
19 44
ĠRe ference
ĠX V
Ġt icket
in ery
Ġcomp act
Ch inese
L aw
by ter
Ġinher ited
ĠChall enge
19 4
ack ing
Ġsc iences
it udes
ĠBl ock
Ġthe rapy
ĠT ang
ĠN y
Ġal umni
ĠG az
ĠR an
Ġsc andal
Ġdraft ed
Ġrepeated ly
ĠK un
D R
Ġf ier
Ġd ying
Ġ18 74
Ġpun ishment
ĠTourn ament
38 8
ir ms
Ġstri king
Ġre ward
Ġacqu is
ĠBou levard
r ina
ass es
49 5
Ġanth rop
Ġven ue
Ġag es
Ġrecogn ised
ĠK ate
47 6
Ġinit iated
ĠCost a
Ġcl ar
ĠJun ction
U T
Ġthe rm
nt on
ĠS aw
ĠStev ens
b acks
Ġor chest
26 9
19 37
ĠS elf
35 8
ĠO wen
Ġdef ine
ĠC ore
20 8
L ord
h aus
on so
ĠC rystal
ĠAdv anced
Ġprison er
ĠK ash
ĠTr ue
h is
Ġb rew
Ġdis order
Ġsever ely
Ġdr ag
ĠS eg
ĠB eth
Ġapp rec
al ian
Ġbelong ing
Plot Data
Ġalleged ly
ĠR ut
light grey
ĠC raw
Ġchar ity
ĠSomers et
ĠSw an
or um
ĠV in
38 7
ĠLabor atory
Ġterror ist
Ġoccas ional
Ġsh ock
M ic
ul i
47 8
Ġpsych ology
Ġg rey
Ġhero es
ĠB elf
ĠRe ading
Ġp ushed
Ġprin ting
H ung
Ġh ide
Ġfac ts
ĠLi u
Ġfor um
ĠE t
Ġ18 40
ĠCh an
18 3
ĠT ech
17 3
ĠCy cl
ĠP iano
ĠSp ect
Sing les
T ony
Ġd in
ĠF BI
P R
ist ration
l ain
ĠAir craft
Ġhom osexual
U r
ĠEd mund
so le
ĠFl ag
ĠSt rat
ĠFran z
Ġst em
Ġ18 75
Ġh urricane
Ġconduct or
Ġvo ters
Ġt ale
48 7
u ania
Ġdestroy ing
n ic
19 38
Ġ18 72
Ġto ll
ĠE in
39 8
Ġswit ched
ĠPar ks
s i
od ing
g art
Ġe ighth
uc ed
Ġd ancing
ĠS ent
19 41
ĠC S
ric a
ĠGon z
Ġsupposed ly
Ġg aining
ĠR uth
Ġtempor arily
em e
im us
Ġwind s
ĠLe vel
For mer
ĠGib son
Pro fess
ec ca
os l
Ġbut ter
Am ong
Ġfoot age
ing en
Ġpat ri
ĠProvinc ial
Ġl akes
ĠTig ers
Ġvar ies
ob iography
.. ."
G C
Ġmess ages
z ed
Ġgu itars
ĠMy th
49 7
Ġgrid color
% ;
Ġdep ression
b ase
ĠM ik
imens ions
dark grey
16 2
26 6
Ġvar ied
W here
ast ed
Ġrev ised
ĠNever theless
ID S
k u
56 0
Ġpolit icians
Ġunc ertain
ĠN ancy
M id
ĠJuda ism
ĠA F
Ġdr ives
uck land
ip eg
19 3
ĠP eng
mission ed
ĠD y
36 6
Ġautom atically
Ch arl
he el
36 5
Ġgener ations
ĠCroat ia
any on
Ġarr iving
ĠA aron
ĠMil waukee
Ġhuman ity
Ġl ieutenant
G reg
op ened
ac co
Ġoper ators
f our
Ġto x
ĠS earch
F ore
ĠBut ter
ĠRes ources
ĠK ids
Ġpros per
ĠCompet ition
Ġre ducing
ĠG ospel
ĠB irth
Ġbe ating
Ġreport ing
Ġs amples
ĠHigh land
pre ne
Ġdis ag
Ġtrib ut
Ġcur ric
Ġs oci
Ġm amm
Ġlocomot ive
v ol
sf ondo
Ġnegot iations
A rab
ai ro
ĠDur ham
rib le
Ġrest oration
Ġ18 83
reg ular
Ġb ridges
Ġdisc ontin
19 42
ĠMarc us
Ġt aste
Ġpo le
W rit
Ġb io
Ġpr ay
D iv
qu in
ĠS ou
Ġp ap
and ra
ĠVenezuel a
Ġcor ruption
ĠRom ans
ĠJ edi
Ġdr agon
atern ity
s ion
w ent
ĠT all
ig ation
Ġtri als
leg iate
Austral ia
19 18
for ced
Ġburn ing
) -
et own
Ġ18 77
ĠTe en
Ġgra ve
ĠPro cess
inn ed
ĠCab inet
l ength
ĠJ in
Ġsp l
ĠSh i
ĠBurn s
B ook
L es
Ġfun eral
Ġalt itude
orient ed
ĠFin ancial
Ġb read
Ġin ch
Ġp ill
ĠS audi
ull ah
n amese
Ġgard ens
ĠBaron et
Ġhapp ens
ĠT ab
Ġob ser
Ġprot otype
Ġpe er
Ġhistor ically
ĠIn g
Ġmin istry
v or
45 7
Ġt ip
ĠD uck
P ersonnel
G S
re prene
az i
Rep ublican
ĠWar ri
ĠProt ection
ĠPro ducer
Ġmet ropolitan
Ġcop per
N et
Ġunder graduate
ĠDou g
Ġsurn ame
ĠJ oint
Ġv ital
F ree
Ġcopy right
ĠHom epage
Ġb alls
ĠP S
ew atch
ĠJul ian
th is
Ġcor ps
ĠCa esar
Ġaccl aimed
Ġst eep
Ġhop es
ĠArab ia
G er
ow ing
47 7
L and
Ġenorm ous
ib a
ĠK rist
ĠFran co
Ġgraph ic
ĠS R
At l
Ġle af
im er
Ġcl othes
ambig uation
Ġp orts
Ġrank ing
Ġdem on
5 50
ĠC hes
ĠEd ge
ĠY ang
tt o
ad os
ri pp
Ġdispl ays
ener ation
g irl
ĠAndrew s
ĠO bl
Ġreform s
isc opal
ĠIn st
Ġstud ios
ĠAd vis
Ġgrand son
ĠCh in
Ġse ed
ik er
Ġem otional
Ġr anges
les h
Ġcor poration
ĠFil ip
ĠNash ville
ĠN AS
ĠAir ways
26 7
Ġappro ached
ph is
Ġfor cing
ord inary
ĠR ever
12 1
l ive
Ġreve al
og g
36 7
Ġder iv
' ;
ĠM echan
ig i
Ġjoin s
Ġdem ocratic
Ġtrad emark
Ġprob ability
58 0
Ġcommun ist
Ġabsol ute
V ir
ĠP aper
us a
Ġresear chers
ĠB anks
ĠE ston
Ġj ew
an z
Ġgat hered
ĠW orth
ĠH ir
Ġsurre nder
Ġp in
ĠCroat ian
Ġnam ely
I F
ph ant
ĠWell ington
Ġm ask
20 7
17 2
ĠM t
Ġre ver
Austral ian
Ġhand ed
ĠL il
T R
le an
Ġrem oval
ĠC yr
Fran c
ĠK um
39 3
Ġmaintain ing
ĠM ade
ĠK urt
) ";
ĠR A
Ġsh ots
Ġenc omp
Ġmiss iles
ĠM ine
ah an
p ath
Ġj u
Ġinter action
Ġact ively
ik es
Ġsec ular
ĠParliament ary
B ul
ĠBuff y
Ġfest ivals
ell ers
ĠColomb ia
Ġar bit
Ġaccess ed
ĠHeavy weight
39 7
Ġremark able
Ġdistingu ish
Ġdon ated
Ġdial ogue
ĠUnder ground
mont on
Ġel ite
onst ruct
O f
ear ance
Ġsum mon
ĠTh ing
ĠYugoslav ia
ĠCh ase
Ġqu ad
ĠAtt ack
Ġh yd
Ġinter change
ĠAm bass
T otal
ĠM Hz
39 6
Ġrespond ed
J ud
p ine
Ġsym met
ĠMaur ice
W eb
Ġthe ology
Ġhand ling
J ew
Ġloc k
Ġdes ired
26 5
ĠWars aw
Ġt asks
V P
ocol ate
ter min
hib ition
Ġwarn ing
Ġveter an
Ġb icy
Ġsh aring
30 7
ĠPan ama
Ġhoriz ont
M u
ĠD ol
Ġte eth
Ġcomple ting
Ġpark ing
ill on
ass y
Ġupd ated
Ġpr ayer
ĠB ru
Ġadj ust
Ġhydro gen
ĠM s
L ake
ag ne
osp itals
39 5
22 4
m us
ĠPot ter
an ie
Ġy ard
Ġ18 69
Ġ10 3
ad ier
Ġprep are
29 2
C or
). ;
ĠSpac ewatch
et ing
ĠG at
od or
Ġ `
f urt
35 5
ĠWarri ors
ĠS ierra
ri er
ĠBuddh ism
ĠPro per
N S
isc he
p it
Ġ18 66
emb ourg
u um
z ig
Ġt ong
em ploy
Ġopp osing
Ġlif etime
Ġl ying
19 00
pl ane
ĠEx amples
ĠDer by
Ġman ual
ĠW is
ĠCh art
Ġext ends
B ad
c ap
ĠMat hematics
Ġfunction al
ĠEag les
Ġmar ine
28 4
Ġf ights
Ġwh atever
Ġdep ends
Ġprom ised
ord e
D i
Ġaccident ally
ĠAthlet ics
Ġdub bed
Ġsong writer
T P
Ġdisc rim
id ance
Ġbre ath
m usic
Ġs q
ens en
ĠSh ore
Ġ 00
inc orporated
ĠSw ord
ivid ual
ĠZ ero
Ġarchitect ural
ov anni
ĠOr d
47 5
Ġ7 00
Scot land
ĠCh air
E FA
lik ely
Ġr ice
ĠDr um
ĠC lear
Ġn aturally
ĠEnvironment al
Ġinc l
He ad
Ġqual ify
ĠPun jab
ust y
ĠPalest inian
Ġj ail
i ott
T ra
ĠAr ist
Ġdis char
Ġseem ingly
ĠSch ol
Ġtrav elling
ic ations
Ġrecogn ize
c ock
Am endment
ro vers
ĠS ey
en ess
lic an
ĠG ren
ĠL ions
Ġqu e
Orig inally
Ġra ising
ract ed
s burg
Ġconn ects
ĠB ran
ĠP ersonal
ĠMot ors
Ġexc av
Ġp ush
ĠChar ter
ĠSpring field
D ave
ĠEv angel
ĠStock holm
ah oo
ing le
ĠCol in
pen se
Ġrecover y
ĠContin ental
ĠShort ly
land o
a q
ĠK w
49 2
amb ers
Ġin formed
ĠA ur
S at
Ġm ic
ĠC ov
ĠB und
A rea
m el
Ġwhe els
ĠM oney
ort heastern
Ġfew er
h istor
22 3
n ut
Ġrequ iring
ĠE SP
20 9
Ġn ose
Ġorgan ised
ĠNot tingham
29 3
ĠC el
Mod ern
Ġe ar
Ġd iamond
ĠCl an
Ġorgan isations
t z
Ġt ack
Ġev ident
ĠPrincip al
sen al
ĠTas man
19 14
ĠA B
Ġover w
ĠG ael
ĠM is
ĠB ark
ut a
Ġ18 57
Ġhe m
Ġdem olished
ĠFer dinand
en o
ĠCam eron
ĠC itiz
Ġf inger
Ġtrans it
27 3
Ġref lected
Ġvent ure
ĠD ylan
27 4
T w
P an
Ġcl ients
Ġexam ination
writ ing
19 32
ĠH ous
ĠSch w
Ġhelicop ter
ĠMah ar
ĠAl ger
Ġw ears
Ġw ishes
ĠArmen ian
Ġsubst ance
Ġl oved
ĠB rain
th an
Ġwrest ler
28 3
6 70
ĠTh ings
Ġphot ography
ĠW esley
p any
ific ate
Ġspec ified
19 33
ĠCl are
Ev ents
ĠP av
Ġc inema
Ġpup ils
Ġdismiss ed
Ġfin ance
onn y
19 29
Ġtour ism
ĠDi ocese
h arm
Ġmiss ed
Ġbe aring
Ġ18 0
olog ically
ĠC ities
ĠBo eing
ĠCal gary
Ġconstit ute
Ġar ray
Ġt ends
Ġillust rated
ĠGl ass
Ġvary ing
ĠD eg
os ely
m n
30 5
Ġtrans formation
ĠMil es
Ġrul ers
g reen
ĠClass ical
ount ain
Ġassass ination
Ġart if
ĠNew port
uk u
ĠAnt ar
ree ks
ĠP ine
al us
Ġin g
A sh
ĠArch ive
o qu
oy a
Ġcons ervation
And rew
37 4
ĠK eep
ricke ter
Ġnum er
Ġ10 4
r ine
Ġinstruct ions
Ġprevent ed
on ial
att a
Ġ18 30
in os
The ir
o que
Ġb ag
Ġth rew
Ġor n
Ġless er
K e
Ġw ickets
ĠBas il
uzz le
Ġprov en
Ġsusp ension
ĠH its
ul ates
iff e
ĠF ant
Ġsac red
ĠBang ladesh
ĠW als
ĠC ord
Ġb er
Ġper mit
Ġperson ally
Ġsuff er
Ġout break
a a
ist le
Pr ince
f ive
Ġcomm une
ict ing
Ġboard s
is an
Ġcap abilities
Ġsit com
28 2
ind s
ĠTr in
ro b
quir y
Ġbene ath
Ġdro ve
d ig
ĠBl ake
Ġtest ed
Ġult imate
ĠSh ield
ĠTe acher
ĠWild life
leg raph
Ġresemb les
Ġsp ots
ĠS uff
20 5
Can adian
Ġmill ions
K en
ĠC C
29 4
Ġf ires
Ġcul min
Ġres umed
ĠCorn wall
ub ble
Ġcasual ties
Ġacc um
Ġsusp ected
32 3
ĠS pl
Ġex it
ĠL ey
K A
ĠSol omon
Ġhum or
ĠArgent ine
Ġ rib
Ġsh aped
Ġ15 00
8 50
ĠAp ollo
ĠD il
ĠKenn eth
P ersonal
Ġconsum ption
D ue
l anguage
ĠC ec
lic ation
on ne
ĠTown s
ĠP i
ĠJ ur
Soc ial
c al
Ġeff iciency
22 2
Ġresp ected
te es
25 9
Ġvar iants
Ġbul let
Ġcomp iled
C AR
Ġ( );
New s
40 6
ĠV illa
Ġbreed ing
Ġal tered
ĠLa ura
ĠL ic
ĠU g
Ġrequest ed
ĠMar qu
S ar
ĠH iro
Ġdepend ent
ĠU nd
Ġstr ings
ĠUs ing
Ġde emed
Ġstory line
ĠRes ults
Ġautom obile
Ġcolumn s
ĠMunicip ality
ro le
ĠPr ague
Ġmar gin
Ġadmin istered
ĠP or
ĠL odge
aj i
iff s
Ġconsid ering
unc iation
e a
Ġrestrict ions
ĠS isters
Ġperform s
ĠMerc ury
play ed
is ers
ĠVisc ount
ĠEv ents
Ġaccom pany
ik ing
ĠA ch
57 0
Ġsk etch
S un
Ġmonth ly
R on
Ġw ore
ĠT at
ĠFilm s
Ġbelong ed
ĠE duc
19 43
isc her
Ġbelong s
Ġstri kes
and in
ebs ites
al am
form ing
ĠD im
Ġtact ics
Ġcent res
Ġbank rupt
ĠScient ific
C r
ĠP owell
Ġham let
Ġpen et
ĠG ur
Ġav iation
ash ing
ĠDar win
Ġru ins
st ra
T own
isc ell
ĠBe ing
Ġscholars hip
nold s
R og
ĠSt ef
ar ts
Ġvolunte ers
ĠTh an
ĠCh ang
ĠLe ices
ĠA w
Ġpost s
Ġathlet ic
Ġ10 2
Ġ ~
ins ky
ĠUlt imate
ch ant
ĠS F
ust ers
ĠD ynam
ĠA ce
ick ing
ĠM ake
ch ron
ĠM ega
ant is
Ġk iss
Ch ild
Ġnot orious
on al
Ġdem o
Ġindepend ently
b ey
Ġregard less
Ġdeep ly
M E
h l
in ts
Alex ander
og o
Ġsp elling
ĠG P
orm s
as ian
as is
ĠMar ines
13 1
ĠGer ald
H ere
37 3
Ġpres erve
ber y
40 9
ett i
Ġl ux
ĠIndian apolis
Ġcirc les
I ON
ic z
ig ible
Ġmathematic ian
iv ities
Ġwatch ing
exp ected
amb o
ĠEll is
Ġl ift
Ġgener ate
ĠM ull
ĠW ool
39 4
ĠConstant in
Ġhous ed
Ġa thlete
Ġj ack
ĠSy ria
Ġresign ation
Ġdis m
49 3
Ġcollect ive
ĠS ussex
45 3
uff y
ĠD ame
ĠCh ange
ist ing
Ġconcent rated
Ġm emb
19 34
Ġaud iences
D is
ĠAlexand ria
Ġdist ant
Ġencour age
Ġarg uments
ĠFras er
h art
Ġsim ilarly
49 4
Ġfund ed
ĠLith uania
M B
Ġreg ister
oun s
mun ition
ĠT otal
Ġb oot
uch y
27 2
Ġdiplom atic
ĠC ell
Ġrele g
Ġpolit ically
ĠL ap
Que en
H y
ĠR achel
row ing
Ġaut hent
ĠEn s
Ġcooper ation
ĠA ven
Ġmin imal
ri fic
l ay
ĠW eather
Ġfl av
Ġphil osophical
M aster
26 4
Ġd rain
ĠObserv atory
Ġre venue
ĠMc N
P o
ĠEug ene
ter bury
eth yl
ĠR ules
ĠCub an
Ġs its
59 0
ĠHer z
ĠBe ijing
46 4
Ġtravel ing
Ġinteg ral
Ġbene f
ir ie
Ġamb ass
ĠMig uel
Ġnot ion
Ġhigh light
Ġread er
ĠId aho
14 1
ĠViet namese
ĠSc ots
B oth
p es
ĠGl ou
Ġmanif est
ĠL omb
Ġc oc
ĠN ak
ran ger
Ġcl im
lim ited
ĠPo etry
b et
48 4
ĠBey ond
ĠS outheast
Ġsepar ation
ĠC ool
ĠSurre y
ĠC anton
ĠN as
ĠAst ron
ag le
if ax
ĠK as
Ġp airs
ri um
f inal
D own
Ġs or
ĠGreat est
G ar
Ġengine ers
Ġl ad
id i
Ġph arm
M ean
Ġa ims
ĠHar bour
ĠPrad esh
Ġsuppl ied
Ġbro w
head ed
um ble
ĠCy prus
Ġwe aken
Ġbatter y
ĠSeb ast
Ġconfig uration
Ġdem anded
ol ics
Ġcompris es
ĠU ntil
Ġ10 6
Ġrequire ment
Ġf raud
W ind
Ġc ryst
ĠBl air
Ġshould er
ĠHop kins
ĠA uckland
Ġen forcement
S pe
ighth ouse
he y
Ġcons olid
k an
im mer
Ġst yl
ap est
let te
Ġcompos itions
ĠG amb
ight y
Ġnickn amed
ard i
onom ic
Ġcut s
Ġver b
Ġun ions
ĠWind sor
ĠC anyon
Ġfram ework
ĠLear ning
m ith
Ġ ion
ĠArchitect ure
he ll
Ġvar i
enz ie
a very
Ġemploy ee
ĠBos nia
Ġdis gu
Ġopt im
Ġex ch
ĠBul garian
Ġchap ters
N C
ĠS E
ĠS leep
Ġmyster y
raf ts
Ġag gressive
Ġtrans p
ĠL ook
P ower
W ater
Ġst ones
ou x
Ġrel ocated
Ġsub urban
ĠCh ad
rat ors
Ġep ic
Ġc rypt
N on
im i
iat ric
ĠR ee
ĠWe ap
Ġrecru ited
Ġpen insula
ĠPres byter
ĠRed s
Ġpri ests
Ġunc lear
l ied
25 6
Ġpol ar
Ġvolt age
ĠH ale
Ġpian ist
Ġcould n
Ġtour ists
Ġp ale
G roup
ĠR anger
pr int
19 22
ĠMon ster
Ġinf amous
Ġcirc ulation
iffer ent
Ġseg ments
ast ing
ĠInt eg
32 4
ator ial
Ġvo ices
Ġint elligent
R L
re ements
ĠP od
iss ions
Ġpay ment
T rad
Ġconfl icts
Ġdiss olved
Ġc ogn
ro gen
ĠCl aud
y u
Russ ian
Ġchalleng es
S L
Ġdisband ed
w eek
in as
ĠMil ton
ĠWinn ipeg
Ġt issue
Ġbass ist
ĠO F
36 4
Ġphys ically
d imensional
f in
old s
ator ies
ĠB ee
Ġs ends
Ġput s
Ind ian
6 50
48 3
Ġcoun sel
Ġre organ
Ġun likely
Ġsec ured
ĠBeng al
Ġrece iver
ĠRes p
Ġprom ise
Sim on
ĠHe ath
ĠH aving
Ġimpro vements
ĠC it
ĠH ost
ĠDr agons
it ely
Ġadvent ures
ĠSaf ety
40 8
ĠC ork
ĠArt ists
dis ambiguation
Ġsil ent
ĠC IA
Ġaddress ed
Ġw ound
ĠWh y
ĠHend erson
ĠCont est
ĠEmp ress
Orig inal
som etimes
ĠP orter
pl ing
Ġinvent or
g ans
ĠD rug
Ġsum mit
Ġlabor atory
Ġconscious ness
Ġl ib
Ġdiscip line
ĠW on
Ġceleb ration
G et
ĠC ros
ab we
ourn als
ĠL az
Ġg ap
Ġun t
ĠW itch
Ġabst ract
ĠP ret
Ġrit ual
ĠR ah
19 25
ĠEx ped
Ġpredomin antly
Ġt iny
Ġtourn aments
15 1
is i
Ġaf ternoon
Ġinhab ited
Ġperform ers
Ġbeat en
Ġneighbor ing
45 4
Ġc ock
ĠT oo
ĠSom etimes
19 12
Ġcent ered
ĠF ul
ĠG M
33 4
ĠĠĠĠ ĠĊ
ĠF ellow
Ġlik es
Ġrel uct
Ġab und
44 4
Ġm os
ĠT roy
Ġchalleng ed
F in
Ġwork er
Ġbomb s
as ma
Ġhonor ary
B razil
ĠPer iod
Pe ople
iz ers
ĠTri p
T er
ul ous
ĠInd ies
Ġconsequ ence
ob i
Ġsp ite
Ġo v
Ġ18 54
H ome
45 2
Ġo w
Ġdes k
ĠMor rison
fer red
ĠPalest ine
ĠBened ict
46 3
Ġl iver
Ch ap
On ce
Ġs ad
ĠW end
uc c
ne apolis
ij a
Ġdim ension
Ġdr unk
ĠM oses
ly mouth
ĠMont e
ĠGund am
Ġconqu ered
Ġdies el
I reland
ĠCo hen
Ġdevelop ers
im ony
th ird
37 2
Ġt un
ĠN C
19 10
ical s
Ġhon ors
Ġspe aks
Ġth inks
St an
An th
Ġto y
Ġ18 59
35 4
Ġsing ers
Ġtop ic
ĠT ext
Ġproced ures
om atic
ĠH our
26 2
ĠAn at
W ashington
ĠTh ai
Ġen roll
ov sky
Ġw ard
ĠH appy
ĠBelf ast
ĠAll an
un al
h urst
P ac
Ġg ran
oca ust
ĠJ et
ĠCh aos
iment al
ĠO st
ĠEd gar
G reek
M ill
43 4
Ġdirect ions
ĠMc Donald
Ġmin eral
par ts
Ġsport ing
Ġto wers
Ġrest ore
uss els
ed u
Ġgrow s
Ġ18 12
38 4
Ġvar ieties
miss ions
Ġb ore
Ġp ump
ĠP and
ĠMal ay
Ġeight een
Ġdet ect
Ġpossess ed
Ġcl ergy
Ġpo ets
ĠPresident ial
Ġb ell
Ġmechan ics
Ġdoll ar
ĠA ires
ĠB un
H C
d em
Ġpract iced
46 2
Ġcontin ent
ONE OS
Ġra id
Ġinvestig ate
P et
ĠMan ila
che ster
Ġcross es
25 8
Ġprot agonist
Ġster e
Ġch lor
P rior
Ġcat hedral
Ġspeed s
26 3
ĠB A
ĠL ONEOS
Ġun ited
ĠNot able
ĠLind a
Ġun official
Ġgu ards
ĠCap itol
Ġanal y
ĠC osm
ĠB ears
ĠO ber
Ġgrav ity
35 3
imb abwe
ly de
Ġattend ance
Ġconj unction
' )
am as
ĠY et
ĠCol le
Ġcompos ers
B rien
ym ph
ĠGl enn
Ġship ping
ĠCa uc
Ġm orph
Ġcontest ed
a uthor
ĠD ow
at ics
Ġinc orrect
T ext
F ire
R oy
Ch ief
ĠN orton
ap a
You ng
Ġshe et
Ġmet aph
D I
ĠGen eva
it ted
ash ire
F re
og ram
ouncill or
Ġb rick
ĠC av
Ġabsor bed
D ig
Ġres ides
Ġdef ended
Ġd ish
ĠCom b
ĠGrand e
ce pts
Ġform ats
Ġany where
Ġp or
ĠCl if
ĠW ings
Ġres id
Ġproceed ed
y ch
Ġmanufact ure
ay ne
A ut
ab lo
Ġhol es
id an
42 4
16 1
Ġl oud
Ġinc arn
48 2
Ġf erry
Ġemb r
Ġclin ical
Ġwarri or
P ierre
ĠR ams
rib e
ĠAgric ulture
man uel
b les
Ġcarri ers
Ġgl ac
ĠK ol
ĠV ery
Ġsole ly
Ġt une
id en
ĠBro ck
ĠCar roll
ĠCons ervation
Ġter rain
ĠP orts
ell ar
re ne
Ġexerc ises
ĠHig her
C oll
Ġw alks
Ġinteg ration
onna issance
ĠJenn ifer
Ġspect rum
F ar
] ]
ang ular
57 9
Ġas h
Ġcirc ular
ĠC eleb
Ġg ymn
Ġkn ock
mod ern
en eg
qu et
Ġcol ours
pris es
Ġcan n
38 3
ĠH ass
Ġass ert
Ġsurviv ors
om ical
Ġoverw hel
ĠO ften
Ġf atal
l ink
Ġtw entieth
Ġl over
Cap tain
20 3
Ġo ct
Ġeng age
Ġbre ast
Ġprot ocol
im p
ĠS ul
ĠV a
al og
ĠPlay Station
5 56
Ġex port
Ġworld s
Ġpost er
Ġsw ing
ine e
g io
Ġrele asing
Ġpsych ological
iz ards
re ation
Ġwithd rew
ĠA my
ĠSt op
19 1
A x
Ġaware ness
Ġgovern ing
Ġcomp rom
Ġcontr acts
Ġarrang ements
C ath
ĠBC E
H arry
Ġp ub
Ġmin isters
Ġup coming
ĠCom plete
Ġsc ar
47 2
ĠRich ards
ĠRel igion
Ġun p
ick ed
Ġbo ost
Ġse eds
Ġinduct ed
6 80
Ġnumber ed
Ġtheore tical
36 3
ĠS tern
30 4
Ġdivor ce
ill iant
Ġrep ublic
art z
Ġperman ently
re p
ĠT win
Ġbr ut
Ġport rait
ĠB ug
Ġprofession als
C at
ay ette
Ġtri o
Ġtheat rical
st ed
ĠK em
Ġmanag ing
Ġstruct ural
Ġimpro vement
unt ary
ber to
ham med
ĠEthiop ia
19 19
ĠInd o
Ġvul ner
R ound
44 3
k ers
ĠInt roduction
) (
Ġrot ation
F eat
Ġpregn ant
19 26
ĠMyster y
Ġbu ff
Ġsub mitted
ĠCongress ional
German y
40 7
Ġob s
Ġins ects
Ġ18 55
Ġb ord
ĠH out
ĠY uk
ĠJohann es
ĠFact ory
Ġ18 58
35 2
ĠPl aza
ethe less
Ġb its
ĠC os
Ġopt ical
ĠYan kees
Ġinterpre ted
ĠC B
ĠL ak
Ġninet eenth
Ġlearn s
ĠDream s
g ang
Ġnew er
Ġgod dess
P N
ĠKr ish
ĠSalv ador
Ġhol y
c are
ĠUSS R
Ġbad ly
ĠRoll ing
Ġearn ing
ĠP am
B ooks
D ev
L B
ĠAr n
Ġover th
Ġdynam ic
ĠCurt is
ĠR ib
ien ne
ĠAmbass ador
ĠLet ter
Ġc ens
Ġinv ention
ĠElect ronic
Ġprote ins
Ġkeep s
Ġle agues
Ġteach ings
sc reen
17 1
Ġelect ro
z an
is ons
Ġhit ting
Ġt um
Ġn est
Ġpres umably
G ro
d irect
Ġbox ing
ĠShan ghai
19 13
ĠN ATO
19 28
Ġse al
W ork
ph ib
ĠLyn n
36 2
Ġsust ain
ĠC risis
an im
Ġfound ers
Ġconvers ation
ĠCh uck
ĠDav ies
ĠR aven
ĠS ons
b oth
Ġc ad
Ġtra pped
Ġparticip ating
Ġt ables
ĠV iv
Ġall ied
ĠCom plex
Bet ween
Ġm ild
ĠG iant
ĠV e
s ized
ĠM ail
ĠS ap
ĠE state
W ild
ĠM orm
Ġcam eras
oo ter
ĠRh ode
ĠLiber ation
Ġout door
33 2
ĠF ace
Ġn inth
ĠTr ivia
Ġauthor ized
Ġelev ated
ĠPruss ia
j oin
ĠEd monton
ĠĠĠĠĠĠĠĠ ĠĠĠĠĠ
Ġchap el
5 58
Ġcont rad
Ġdecl ar
ĠHun ting
her ic
Ġpre f
Ġwe igh
Ġpartic le
Ġh az
ĠT HE
Ġcan vas
Ġinter cept
Ġcomplic ated
5 59
ĠS ed
ĠCirc uit
j ud
ĠV eh
47 4
Vill age
Ġd ressed
Ch annel
uan ian
T echn
ath am
ĠK aren
ĠBa iley
ĠBald win
st age
ĠF ur
an an
Ġsup porter
ĠAn alysis
Ġr ings
y g
ĠThe odore
up e
Ġcurric ulum
it ated
ge ons
ĠBur ton
Ġcomp ounds
ist o
Ġthir teen
ĠConc ert
Ġcre am
ĠR aw
In c
ĠHam mer
19 27
Ġvict ories
ĠT ank
Ġg ig
42 3
Ang el
Ġimmig ration
Ġpresent ation
Ġm it
bu ilding
Ġconsequ ences
ĠBer ry
Ġcompan ion
ĠSher man
ĠF ast
Ġattract ive
ter a
47 3
Ġline up
t ext
39 2
Ġaccompl ish
Ġass ume
omin ated
aged y
c ul
Ġh ur
Ġfe els
Ġch orus
ter ing
Ġ10 7
Ġsequ ences
38 2
Ġneigh b
ĠB il
Step hen
kins on
D ate
er ie
Ġr ated
Ġsurv ival
ew ise
Ġ3 000
Ġlo ose
Ġbul k
Ġshe ep
ansk rit
r ary
ĠB ever
ĠAng lican
ĠBl oom
Ġdial ects
ĠTh ames
st ock
ĠRichard son
y ers
ĠAr med
Ġby pass
ĠUl ster
ĠCor por
ĠDo om
Ġang ry
Ġreact ions
Min or
c r
N Y
Ġc emetery
Ġp ink
im an
ĠN uclear
Ġan ten
ool s
Ġjust ify
N T
ĠBel arus
ĠF eel
20 4
ĠLes lie
ĠD art
Ġc ub
ĠCzech osl
f ol
Ġt rem
Ġfavour ite
ok i
Ġacquis ition
Ġas ide
ley ball
ĠG ott
b ank
ĠCan terbury
ĠJul ius
Ġmar g
ĠL A
25 7
it ects
l ation
ump et
ĠM ys
Ar m
Ġred es
19 17
ĠB ronze
ĠH oll
ĠAbd ul
L ee
ĠLanc aster
Ġth read
Ġconqu est
Ġproport ion
Ġn erve
ĠI gn
ĠRoberts on
air y
ĠMal colm
Ġsculpt ure
S il
as se
ut z
end um
Ġf usion
ĠHer oes
ipp ing
Ġimpl ies
Fl ag
Ġv ig
ol ith
ĠF iji
ian e
Ġbet ray
w ave
Ġcol span
Ġiniti ative
Ġ16 0
Ġext ending
Ġstrict ly
Ġfort une
ĠChem istry
ĠA j
Ġcur ve
ĠIn side
Ġsix ty
Ġp ig
ak o
ĠWed nes
Ġse ized
ĠSc reen
ĠTri ple
ĠSc outs
r il
Ġplan ets
w oman
Ġevent ual
8 60
Ġst roke
ĠT able
Ġg rab
ome ter
Ġcan non
Ġrev ived
ĠInstit ution
ĠR ider
ĠPr iv
an ium
ĠG overn
ĠZ en
ĠLux embourg
E ven
ĠPir ates
f amily
g ard
Ġref uses
y c
ph an
ĠD ee
H ard
ĠB ent
19 24
ĠY ard
Ġj ury
Ġconsist ently
z ing
Ġmolec ules
Ġplay offs
Ġen able
ĠPrest on
st ory
enc ia
Ġhabit at
bu ilt
ĠNiger ia
Pro duction
ĠMur der
ĠW it
ĠChurch ill
ĠArt illery
ĠNap les
18 1
30 2
ild a
Ġachie vements
Ġleg acy
ĠHamb urg
Ġam munition
urre ction
E ll
Ġdes per
20 1
44 2
Ġcivil ization
ĠRey nolds
ver age
19 15
Ġflag ship
u ador
Polit ical
es a
Ġfilm ing
ĠWag ner
j ust
ĠH i
ĠL if
ĠCle ment
Ġprot ests
A p
Ġdefeat s
Ġgradu ation
ĠEv olution
ĠM old
Ġmem ories
Ġmolec ular
8 80
w as
40 5
ĠLe op
ĠP owers
Ġtend ency
8 70
H ot
s ay
ĠM oss
ĠSt ore
Ġrel atives
ĠBur ke
ĠAut o
ort ed
Ġgram mar
Ġsocial ist
Ġachie vement
ces tershire
Ġfin ite
Ġant icip
Ġneighbour ing
ys ical
au f
ĠMor occo
in ate
ĠFif th
K h
ct uary
Ġra w
Ġdiv ine
ĠBrad ley
Ġor th
ep er
onn ell
ĠR andy
ĠU se
Ġw orse
st op
Ġmon sters
Al bert
Cal ifornia
feat uring
ĠMon th
et z
ah u
ps ons
V an
20 2
op ic
Ġinter vention
ĠV ision
ed ar
ĠMc D
Ġcivil ians
e i
ĠD ud
Ġnar rative
Ġkill er
f old
Ġsy ll
In f
Ġfail ing
Ġs ou
ĠBe a
ĠF ear
M ex
Ġearthqu ake
ĠD ew
Ġder ives
ĠRock y
Ġexhib it
Ġen z
Ind ia
b ai
io let
o ften
Ġch ronic
Ġmy st
power ed
Ġsix teen
Ġinnov ative
Ġdraw s
ĠĠĠĠĠĠĠĠ ĠĠĠĠĠĠĠ
ett es
Ġinf ection
Ġdo zen
Ġprov isions
add le
ĠStr ong
ĠNew man
urs day
ĠGen esis
Ġadvert is
ĠOut standing
eal ous
it ory
ĠBu ild
ĠBu enos
Ġeditor ial
ĠA zer
om missioned
r ud
ĠAd rian
Ġspecial ist
ĠCrit ics
ĠK urd
ĠLou ise
ĠPresbyter ian
i ago
ĠPubl ishers
Ġgovern ed
Ġaccommod ate
Ġvari ables
Ge org
ĠBo hem
Ġ18 46
Ġcomm enced
Ġhop ed
ĠD arl
s eries
Ġan arch
Ġper pet
O x
S E
Ġpl ates
inc l
Ġaff ord
K ey
S erv
ĠC rew
d ad
Ġst ability
Ġsup plement
m ind
ĠB oss
ĠExped ition
Ġfact ion
umb ent
Ġal umin
Ġup set
Ġpl ural
Ġbit ter
Ġrec urring
B ern
ia z
Ġc ant
Ġinst ant
Ġdocument ed
Ġadvoc ate
Ġbus y
Ġcommit ment
D ark
ric ia
ot he
ĠI TV
Ġobserv ation
y on
47 1
Ġsuper hero
Ġkn ight
Ġpurs ued
L ead
ĠW aters
Ġknow ing
Ġcontrib ute
ion ed
Ġd imensions
Ġexp anding
Ġexp elled
ĠSpe aker
bo at
m ain
ĠKenn y
ĠG em
d ays
ĠS O
ĠK erry
ĠAn imal
ĠSqu ad
Ġsens itive
Ġper former
ĠAlb any
ĠVlad imir
on ation
Ġread s
l ance
Ġexper ts
k ind
Ġ q
Ġd iversity
S U
h im
u o
ut tle
Ġ18 56
ĠLet ters
ĠP os
Ġcon sole
ab lish
ĠCath olics
Ġf ract
M iddle
b ooks
Ġw ebsites
Ġsol ve
Ġcyl inder
s im
id ian
ĠK ang
Ġgro ss
ov ina
S um
ĠMem phis
Ġdivor ced
ĠGl obe
Ġwid ow
ĠLuc y
! ;
T urn
Ġ3 50
ĠLe af
Ġm ere
Ġun expected
28 1
ĠVen us
V ideo
ĠAcc ount
ĠS as
Ġdevelop er
Ġsh adow
Ġtr am
ĠLar ge
velop ed
Ġven ues
Ġdece ased
ĠJ ak
Mar c
F oot
Ġb apt
Ġd uration
Ġstat istical
ĠBav aria
ĠB io
Ġen abled
ĠEn c
Ġdisp uted
F amous
Ġav ail
Ġdef ending
Ġr is
ĠInd eed
ĠEngine ers
Ġtem ples
Death s
ĠM D
ĠArch ae
8 79
Ġg entle
Ġaccur acy
ĠRoc hester
Ġg am
ĠL ed
ĠSerge ant
ĠOr lando
ĠParad ise
ĠHout en
Ġcons piracy
6 79
ĠS ikh
Ġph osph
ĠBudd ha
Ġgather ing
ĠH off
ort al
d f
od ium
Ġthough ts
ĠNe o
Ġassemb led
Ġsurre nd
Ġde alt
ĠPh antom
Ġgu idance
B a
ĠO dd
Ġd imin
Ġtot ally
Ġ3 60
it ative
ĠD w
Ġor al
p ot
ĠR he
IN G
R os
Ġ( '
ind ers
ĠF emale
B L
19 23
ass is
ĠN one
ĠESP N
af ia
Phil ip
um en
R h
ĠLog an
Ġpet ition
Ġs unk
Ġlay out
Ġdecor ated
ĠK re
ĠC F
Ġsmall est
ĠL av
ĠMarsh al
Ġpremier ed
ae us
ĠLud wig
ĠN ixon
Ġkey s
Ġco aching
ĠFl oyd
Ġpop ulated
ĠWik ipedia
N ick
ĠD iana
ĠGr ade
Ġstret ch
ĠE g
anth rop
ĠC ock
Ġrel iable
ĠInd ex
ĠS ister
vers ion
Ġphys icist
7 60
ĠCom mercial
sh ore
Ġvolunte er
ĠGram my
Ġmasc ot
Ġtransl ations
ĠDisc overy
osaur us
Ġerr ors
ĠAd olf
ĠL ay
az ing
ĠR af
ĠB end
th al
ĠChron icle
ĠL iv
Ġvel ocity
7 69
ir ical
J un
Al an
ĠArch ives
ĠZ ion
in yl
Ġfast est
b ing
ĠInter est
oc he
Ġl ung
Ġcost ume
ĠId ent
ens ing
* ;
B rown
c s
Ġsk illed
Ġtong ue
u en
ist ence
Ġart work
Ġh o
Ġend ors
A cc
19 16
ĠRe agan
ĠRoad s
Ġresc ued
7 79
Ġd inner
ĠC ert
ĠMar l
d ing
ain es
ĠLanc ashire
im ity
h ot
Ġut ility
Ġsurf aces
Ġquarter back
em por
ĠK i
Ġpoor ly
ĠConstantin ople
Ġing red
f inals
s ar
ĠMon roe
th ree
ĠIndust ries
H T
ĠJama ica
a ft
ĠF ut
C E
Ġen lar
Is rael
Ġmanusc ript
f ielder
by e
Ġto uc
Ġfocus ing
ĠC ann
ĠAt hen
Ġs ew
Ġfour teen
agn etic
ĠH od
ĠMin neapolis
Ġs ulf
im ation
ĠPl ate
ĠRel igious
n ov
ĠM atch
G al
Ġn ights
Ġ18 51
ĠY a
ĠKen ya
rit z
Ġ- ;
ro ve
ĠM ing
ĠJess e
ĠR out
Ne ill
7 80
ĠW ave
Ġs aving
Ġsp an
arm ed
Ġrefuge es
ĠSur v
Ġbatt alion
5 57
Ġmut ual
Ġarg ues
Ġinstall ation
V ar
ĠV eter
32 1
mid t
ĠV il
Ġmon ks
ĠA ub
Ġman eu
45 1
ĠS ever
ĠL ines
ious ly
h ou
40 4
Ġfin est
E ric
Ġlight ing
B road
ĠC ort
Ġat omic
Ġsett ings
im ming
ters on
Ġelabor ate
L O
mar ks
Ġh ull
ĠM am
Ġtri ple
Res ults
Ġgeomet ry
ĠD um
Ġh arsh
ĠKing ston
Ġ18 49
ment ed
Ġcap ability
al gam
V er
Ġrelig ions
ater al
ĠCal vin
umb ai
Ġpot entially
Ġmir ror
ĠGoth ic
he ss
ĠLeg al
ĠNe igh
ĠDisc ography
nd on
s chool
Ġcrit eria
Ġbi ology
ĠAugust us
Ġsee ks
ĠL oren
ĠSc andin
ell ation
head s
id th
Ġlibr aries
Ġon wards
Ġg rain
ĠWar rior
Ġreal m
Ġsm oke
ĠHal ifax
C am
ĠB ased
ĠBas ic
ĠEll iott
Ac ad
ĠSac ram
Ġident ification
Ġappl ies
W W
Ġwhe never
ĠFern ando
ĠJo ey
Ġnation ally
us ive
ĠN u
ĠDay ton
ĠN umb
enh agen
in isc
Ġr ivals
Ġtorped o
Ab out
ĠPaul o
ingu ished
Ġjud icial
8 90
ĠZ imbabwe
56 9
Ġaccord ance
ĠH ut
ĠE aster
On ly
ĠAh med
8 59
Ġr ises
B ay
Ġs ailing
Ġrend ered
Ġme ter
ĠMo h
f iction
am ount
Ġsp elled
Ġpubl ish
Ġexha ust
anc a
Ġinv aded
ang ered
ĠA chie
29 1
ĠT urb
am ic
Ġen rolled
Ġed itors
Ġupgrad ed
ĠCoal ition
Ġenthus ias
Ġag rees
Ġlay ers
ĠJul ia
ĠChe ss
B B
ĠM its
ĠF amous
M ir
comm unications
hold ers
Ġconf idence
Ġmod es
ĠC R
Sw ed
ĠMalt a
F lor
J er
c ot
ad h
alt ies
Ġa qu
Ġw onder
Ġl unar
ĠC ave
ant le
25 5
Ġinc red
il o
ĠWhe el
Ġspac ecraft
6 60
ad al
ĠK ab
Ġbut ton
Ġadopt ion
ĠS N
ĠS illa
Ġimp ression
E le
g ae
ĠW ire
Ġgal axy
Ġa rose
Ġto w
ĠR up
Ġinter c
ĠJack ie
ĠSug ar
ĠPl ot
ĠG ear
ĠPe er
27 1
Ġess ays
Ġindic ating
Ġt ent
u ity
Ġserv ant
ĠBed ford
ĠT ampa
ass ing
ĠFer gus
Ġunder lying
Ġinter act
let ter
Ġman sion
ĠBra h
Ġprepar ing
Ġcoin ed
Ġ9 00
oun ces
C urrently
viron ments
ĠC rom
Ġsacrif ice
ĠW A
per t
att i
Ġprocl aimed
il iary
ĠR id
Ġaccept ance
37 1
Ġpresent er
Se lected
Ġ ic
Ġc ricketer
M ag
Sp ring
C V
pher d
Ġw ake
Ġequ ations
G E
Ġf o
Ġpay ing
ub les
amb a
Ġpriv ately
ĠPop ulation
Ġd up
ĠD rew
ĠR ank
ĠD ob
Ġch oir
d orf
T ex
ĠCorn ell
Ġf et
ĠHug o
song writer
ĠHay es
ĠIn itially
ely n
yt ic
l ore
ĠCare y
K evin
ĠS W
Ġsc ope
O D
Ġconsid ers
ĠGram mar
oc hem
8 69
ĠR i
Ġh ospitals
ĠY osh
Ġent reprene
ĠE is
op rano
Ġrival ry
ĠE ra
ĠJ ake
un i
Ġ18 52
) )
ĠT yler
ĠY uan
ĠCl oud
Ġthrow ing
Birth s
atic an
ĠBry an
S ports
Ġb old
22 1
Ġintro duce
G rad
ĠBet ty
ĠEld er
aur us
ĠAnd r
b eck
ro zen
Ġreal izes
Ġcons on
ĠHol ocaust
Ġenh anced
H aw
Ġtr ace
Ġhypothes is
ĠU EFA
ĠS hen
ĠI D
ol ves
op us
ed uc
Ġto ugh
Ġn aming
ĠRod rig
Ġmist aken
ak ov
K ore
ĠC avalry
8 58
Ġm a
ĠWe i
mark et
ĠTon ight
ĠA th
od ied
Ġbl ank
Ġres erved
Ġc rystal
ĠG ir
ron ics
pl ant
ĠS M
Ġ18 53
ug a
Ġreb els
ĠM IT
all a
Ġcust oms
ĠChem ical
S R
ĠMon ica
H am
ĠCr iminal
Ġlect ures
ĠD as
ap or
ast ics
ern er
Ġbar rel
190 5
Ġsp awn
O ur
re ens
Ġc otton
Ġl oses
l ass
ĠM ile
Ġalleg ations
Ġconduct ing
ĠF o
ĠI X
Ġcompet itors
Ġobserv ations
Le on
ĠHam pton
role um
rid or
Ġdream s
ĠPl anning
T E
Ġcr ashed
ur ia
m ount
en ary
ar ag
Ġcont ents
min ute
Ġlif estyle
y stem
ram id
46 1
Ġb ones
Ġ18 37
ĠPri est
he nd
Ġp ier
ĠJ ourney
23 4
be it
Ġt ension
ĠW ake
Ġresemb le
L os
N E
S outhern
ĠR anch
ĠM ist
ĠJo el
ĠGi ovanni
ĠR ide
ĠCard inals
ĠS v
Ġrel ay
Ġcart oons
und y
ĠCar ne
T ri
Ġs aint
ab i
ĠSt yle
ĠJust in
25 3
Ġoccur ring
ĠA ri
ĠCount ies
found er
ou rable
ĠE gg
ĠSim psons
al an
Liber al
is le
ĠG ates
Ġret riev
ĠPre fecture
ĠB j
ĠH els
190 8
Com mon
Ġacknowled ged
ĠM ang
rug u
inf o
Ġj oke
ĠK yle
p ron
aw i
Ad am
Ġrem n
Ġrub ber
Ġc ig
ĠT unnel
Ġattract ions
ĠP lymouth
Ġir regular
7 68
ĠC ash
Ġpost hum
ĠWin ston
Ġshif ted
Ġs id
ĠL ore
Ġbut t
S ilver
s elling
Ġsp okes
7 70
Ġsup ern
Ġb ishops
ĠAn a
ĠAg ent
c z
m al
anc ement
ĠDem ocracy
p g
ĠD j
agon al
Ġbank ing
Ġper f
ĠMidd les
7 58
Ġcomp uting
ĠWeek ly
t ail
ur ities
sh ine
190 9
Ġsk ull
Ġceleb rate
ĠLyn ch
ĠPatri arch
Ġs ab
Ġpro ud
ĠX I
it le
Ġh iding
ĠGu ards
8 57
Ġ18 47
ĠJul ie
ĠVar ious
Ġun incorporated
Ġland mark
at ri
Ġen act
Ġcitizens hip
l oo
Ġbound ed
r ite
ĠB ec
ĠLy on
ro ft
Ġbelie ving
Ġsoph istic
ĠDark ness
Ġre ception
ĠQ ur
Ġmet eor
L ocal
ĠCour se
ĠGal axy
Ġl ap
eb e
G irl
Ġdoc tors
ĠHard y
ap ur
Ġbl ade
lin ing
rest rial
30 1
ra id
Ġret ro
ĠG es
ĠP R
Ġexpl oration
ĠC od
Ġf isher
ĠM ick
lit er
Ġw elfare
ar ians
Ġs izes
ame ters
Ph ot
Is lam
Ġl ady
Ġqu it
Ġwarri ors
Ġless ons
Ġout come
Ġax is
ac ional
Ġf ails
ept ion
ĠM ale
Trans port
Ġbig ger
at em
ac in
U M
A ud
6 58
ĠD und
art e
ĠH ook
ĠW inners
Art icle
ĠĠĠĠĠĠĠĠ ĠĠĠĠĠĠ
ĠGeorg ian
ĠHear ts
Ġg rants
h orn
ĠB agh
ĠSat urn
F ull
36 1
ĠDev on
8 78
ĠAh mad
Ġleg ally
Ġdet ain
ĠN atal
ĠDomin ican
Ġmin im
c os
rin ted
Ġd ancer
Ġjournal ism
Ġadvis or
Ġcollaps ed
T s
ĠMar ion
Ġgu y
ĠAm b
ĠTur ks
r ors
ĠPat rol
C B
in ia
man s
ĠN em
Ġche ese
Ġbur st
Ġemer ging
strument al
Ġprox imity
v ik
en i
ĠJ ob
n umber
Ġrem oving
merc ially
Ġsearch ing
Ġind irect
ĠSem inary
ĠCong o
l ies
ĠG reeks
Ġte aches
Ġmom ents
ĠLaw s
Ġcrop s
Ġhorizont al
Ġtransport ed
Ġf ault
Ġpract ition
oc o
us hes
50 9
49 1
Ġl iv
let cher
ĠB le
pro duced
ĠSn ake
Ġc ere
Ġpur ple
Ġsc attered
Ġinter mediate
us k
John ny
ĠPol y
ĠKir by
Ġcorrect ly
Ġg ains
Ġtransmit ter
Ġbacter ia
Ġl ots
Ġdi agram
ĠBul let
ĠS ources
ĠA FL
ĠC annon
ĠCraw ford
Ġplay wright
Ġdiscontin ued
N ic
Ġthe or
ĠStr ateg
arri e
Ġopin ions
ĠCl aude
A k
D ar
Ġinter f
iz za
io x
! ,
M ass
Ġimp ressed
ĠS ega
Ġtre as
ĠSant iago
Ġg amb
Ġover come
Ġtri ps
Ġge ographical
Te am
Mil itary
ol an
ĠV ocal
g rand
190 6
S n
Ġar ist
ick er
ĠSy nd
e ur
Ġassoci ations
ĠChel sea
Ġs a
Ġl oves
W S
am oto
ĠJohn s
Ġg arn
Ġsl avery
ĠJohn ston
Ġambass ador
H uman
ug u
40 3
ĠBarn es
Ġtel esc
ĠS it
ig el
ish a
Ġcontroll ing
Ġw reck
Ġ10 9
ĠWork ing
Ġhead ing
Ġflo ating
L o
w ait
FF FF
ĠD ion
6 59
ĠC ay
ĠSl oven
Ġcompris ing
ĠC BC
Ġf ed
est e
Ġgen res
Ġexplicit ly
Ġr amp
st ation
ĠField s
C amb
S eries
ag ara
l ag
ish n
25 4
Ġacqu ire
ĠVol unte
Ġcru ise
Ġcomm ands
Ġcontinu ously
ann ah
ed ing
ĠP om
ĠF ry
Ġpre y
Ġaut onomous
H F
qu al
ĠGriff ith
ĠH M
ĠL ah
erv ous
ĠD re
Ġad equ
ĠDest roy
ĠH ack
Ġv oyage
Ġsub stitute
Ġs ke
anc ers
arth y
S ide
er ic
Ġin hib
el ius
Ġpremi ere
y ou
ĠSav age
ĠFell owship
Ġord ained
ĠDoc ument
i ad
Ġaband on
ĠT in
ab s
ber ger
ĠVict ory
ĠS ail
Ġfre ely
Ġf ru
ĠI de
ul atory
Ġhe aven
Ġl obby
ĠE y
n orth
48 1
Ġprec ise
ĠAmeric as
Ġacc ent
Ġback ed
7 59
Ġapp rent
ĠKn ox
Ġclos ure
Ġm otto
ĠS G
Ġcollect ing
uis ine
Ġtra p
Ġceleb rity
Ġdi ocese
ĠC ul
ĠM B
ĠEm ily
abul ary
Ġkn ocked
ĠRe id
Ġt enth
al ong
ĠV it
O b
ĠFrank furt
ast on
Ġed iting
b ys
or ian
ĠT ucker
Ġsust ained
ak k
Ġrel ax
Ġbond s
Mean while
ĠG N
ĠGriff in
Ex amples
N ight
ĠG rav
Ġtr ilogy
ĠDep ression
des ignated
vel ation
ĠComm unication
Ġabs ent
ĠSic ily
ĠAn ch
az ar
Ġimp osed
ĠT ir
form ers
Ġadd s
Ġrev olt
M att
act ical
inn ings
ĠAd ult
Ġstation ed
Ġterrit orial
ĠR iv
Ġsal v
ĠS ang
Ġelectron ics
Ġsup erm
ĠA ve
Ġle ather
7 56
ĠW inc
ĠK ane
Ġdelay ed
ĠV ed
ĠAcad emic
Ġprop ri
ĠBel le
is ive
ĠT ow
d ate
r acts
ĠB alk
m are
Ġun ity
ys ics
ĠR ule
Ġen vironments
ĠWy oming
Ġ urg
ad vant
ĠK om
ĠM n
ĠB ott
ĠF erry
ĠK och
Bl ood
Ġcolle agues
Ġh ub
ĠD erek
Ġhost ile
ĠFal con
ĠL ives
ĠBr ussels
Ġf irms
Ġbur ial
ĠGe ography
Ġfe es
Ġmission ary
L ine
P resent
ĠF ighting
Ġj ournals
40 2
Col umb
ig nt
ĠK aw
Ch ic
Ġmagn itude
35 1
Ġel igible
ĠSl ovakia
D er
Ġfre ight
ch ief
ĠK ob
ĠCol ony
ues day
E th
yl um
ĠG aul
ĠWednes day
Ġpure ly
B at
38 1
Ġans w
ĠP s
ant es
Ġest imate
ĠJam ie
B illy
Ġm arri
Ġcons ent
ĠTerm inal
ĠEp iscopal
W R
s ince
ĠK arn
ĠMot ion
ĠC u
Un like
ĠHead quarters
Ġd ust
ul k
land ers
field s
ĠK ot
ĠTre nt
ĠPsych ology
Ġre de
ut ors
Ġpl ug
T O
Ġmemor able
Ġarg u
ĠMar ian
ĠC able
ĠWill ie
Ġdif f
ib al
Ġsl ot
ĠB erm
Ġben ch
E astern
erv ille
ĠEd win
ĠDiv ine
Ġn avy
Ġmeasure ment
Ġweak ness
edd ed
ook ie
ab ol
ĠFin als
Ġacc us
Ġbr illiant
D VD
che l
25 2
ĠEll en
Ġimprison ment
ĠM k
ace ut
Ġaut obiography
ĠSing er
Ġargu ably
Ġlast ing
ĠMax im
Ġ10 8
R ick
f ried
Ġr ic
Ġplay off
j in
ĠMar a
ĠPo ems
Ġstrong est
Ex t
ĠD ry
Ġroll ing
Ġmist ake
ĠT ask
ĠSt ones
IN N
udd y
Eng land
S ix
K O
ĠMont eneg
Ġans wers
ĠP ere
Ġrec onc
Ġest imates
Ġaddress es
8 89
D B
ĠH undred
ĠD iet
Ġper ception
ĠKer ala
N ever
ĠS uccess
ec hes
ĠAg reement
Ġloyal ty
ad ia
es pecially
Ġb inding
s ome
Ġmotor cycle
ĠJer emy
ĠS ep
ĠW B
8 56
G all
Ġcl ay
ĠZ oo
K ar
Ġunder went
Ġbox er
Ġf ran
ĠH ast
ir s
ĠCharl eston
ĠChe v
ow l
Ġimm un
ĠU m
Ġspir its
sh ot
Ġne arest
ĠSt alin
Ġsepar ately
Ġaer ial
33 1
Ġpil grim
ab ling
18 99
ĠSh ot
Ġphenomen a
Ġw it
el ic
Ġsp y
Ġfem in
ĠRes c
ĠI v
I rish
44 1
er als
ĠI F
ĠR ural
am ar
ad ic
ĠA G
Ġinc idents
ay e
ri ans
Ġspec ulation
Ġsecret ly
Ġcruc ial
ĠAr d
Ġdef ender
Ġcounter part
Ġc ounts
Ġv it
26 1
P P
ĠB ast
Ġgame play
ĠM iy
Ġcare fully
ĠM umbai
Ġquant ity
ĠVis ual
Col lege
Ġcom mercially
Ġlog ical
m atic
ĠH ull
Ġreg ulation
Wal ter
ĠAr senal
Ġrefer endum
ĠStat istical
ĠSouth west
ĠCarol ine
Ġmass acre
G overnment
Ġm asters
c hem
ĠPl us
190 4
ad ays
ĠMan ufact
on el
Ġc it
ĠA IDS
Ġal ly
iz able
Ġopen ly
ĠWrit ing
Ġ1 28
Ġch ains
can ic
B i
ĠP oints
ĠA A
Ġsuggest ing
W alk
Ġent ities
Ġsom etime
Ġconce ived
Ġsing ular
ĠMo or
ĠP red
Ġtr act
Ġactiv ated
ĠKle in
Ġprin cess
an us
Ġnot ation
aun ted
ĠGael ic
uns et
Ġstream s
ĠF O
S anta
m akers
ĠT ru
Ġbot an
6 56
7 78
Ġr idge
Ġarc ade
Ġassign ment
Ġh urt
idel ines
Ġtr ucks
ĠSh aron
Ġinter v
aff e
ĠC over
Ġsynthes is
Ġg ates
Ġst amp
Ġcommercial s
f an
ĠBrad ford
M ap
em ics
os o
de en
it ance
ĠSt eph
T ype
Ġexpl ore
ĠEm ma
Ġpreced ing
L ocation
l ane
Ġfurn iture
Ġw is
St at
Ġpurs uit
ink i
Album s
Ġ18 32
190 3
Ġclimb ing
ĠA part
Ġnational ist
ĠE C
Ġspec ially
ĠLouis ville
Ġign ored
Ġschem es
Ġ icon
at z
ĠF rost
42 1
6 57
ĠJ up
Ġdet ective
ĠG raph
Ġterm ed
Ġlo osely
z ens
ĠConf ederation
ĠAssoci ate
Ġhigh ways
Ġconf irm
Ġ18 44
Ġdisp ers
ĠFel ix
m il
ĠAnd ers
h aul
ĠF rog
H P
Ġhost ing
Ġ18 20
ĠHy per
ĠV augh
ĠZh ang
Ġmilit ia
8 68
ip es
Ġpubl ishes
Des cription
Ġpra ised
p res
Ġpeace ful
Ġcommunic ate
ĠT D
ĠM ask
ĠGar cia
th ood
Ġref ere
Ġen listed
Ġinstit ute
Ġc ooking
ib ald
Ġval ve
ĠStaff ord
Ġtrib al
Ġflo ors
: ;
Ġt ales
ch ard
ĠHawai ian
ĠH T
Ġfore ver
ĠMax well
ĠTit le
Ġco aches
ĠNot re
ĠGust av
ĠMan or
Ġch ip
Ġaut o
ĠIm age
Ġthreat s
.... ....
Rog er
stad t
ĠH P
P DF
ĠThrough out
ignt y
re b
ĠH ank
Ġtechn ically
ĠArmen ia
Ġd part
ĠCh amp
Ġgu ided
Ġcru iser
Ġb arrier
ĠW inner
Ġarch ive
Ġz ones
Ġg ren
Ne il
Ġs outheastern
Ġtr action
ĠGr im
ĠCh urches
ĠT ale
Ġf iber
ĠP ione
ĠV atican
Ġpromin ence
reg ation
190 7
ĠMic key
R od
ĠM ouse
Ġexcept ions
cont in
ĠVirt ual
B rad
ĠSp ike
ĠS unn
ĠStri ke
I l
ĠC inema
ke ys
h or
Ġconv ince
Ġtal ented
g ov
Ġl augh
ev ille
Ġtribut ary
Ġmemb rane
and ro
und a
ĠEm my
H un
es ian
ĠPhys ical
Sec ret
Ġpra ise
Ġ ech
Ġd orm
Ġprocess or
? ;
Ġreal ize
ĠĠĠĠ ĠĠĊ
ier i
ĠK ai
Ġ18 45
Ġent ries
E r
P ark
av in
ip se
ĠComm odore
ĠShe ll
6 69
ass ed
Ġunc ons
Ġan ger
aver n
Ġaut umn
ĠF alk
Ġkn ife
Add itional
Ġfarm s
Ġhealth y
Ġdepos its
Ġro ok
ĠPl ains
oot ing
ist e
Gold en
ĠR ip
ym es
ic ers
Ġcatal og
en stein
s ex
Ġbe aches
Ġche ap
ĠDirect ors
Ġsp here
ĠNep al
ĠM illion
ĠP ars
ĠS anskrit
Ġrec ruit
Ġcomm anding
39 1
ĠDor othy
od s
ĠBo at
Ġ18 36
ont e
ĠA ug
pl us
43 1
Ġfle e
ĠAtl as
I E
ĠHe y
Ġconv ey
ĠI z
Ġcontest ant
Ġcondem ned
ĠPorts mouth
p olit
ĠS ens
Ġhon ored
am y
Ġn ortheastern
I ll
f i
ĠRail ways
Ġhot els
Ġsculpt or
Ġst ake
ĠM ats
art a
le igh
s ix
ĠG uru
Ġvol cano
Ġquar ters
ĠErn st
Ġkidn apped
a que
Ġl ens
ĠCy ber
A z
int osh
ol ving
Ġcomplex ity
i ates
Ġf ut
ĠM are
Ġcomb ine
aren ce
ĠEm ploy
quar tered
Ġcorpor ations
ĠMichel le
Film ography
Ġprol ific
Ġsh oes
Ġto b
Ġrem inisc
Ġreason able
Up on
ĠStre ets
Oper ation
8 75
av i
S on
Ġcl oth
Ġmat ure
Pr ime
Ġl ighter
ĠF i
Th ird
Ġbas in
Ġm arsh
ĠB iblical
Ġmarket ed
Ġqual ifying
Ġcontrib uting
ĠChar acter
Ġpost al
Or gan
ĠPakistan i
ong o
Ġ18 41
ĠBomb ay
C le
| }
Ġprevent ing
Ġdoub les
ĠCh oice
op t
It alian
Ġbat ting
Ġdeploy ment
M T
M as
Ġp ipe
ĠD up
Ġst rand
G ary
X X
ĠS ind
ĠColon ial
art ney
ĠC ry
ĠGrad uate
ĠL ing
Ġproceed s
Ġe y
Ġleg ends
Ġelimin ate
h ole
ĠWrit ers
ĠAud io
ĠF resh
7 57
Ġm aj
Ġe ase
Ġhom etown
ĠAmaz on
Ġarchae ological
ĠSt range
Ġreflect s
Ġl ord
B all
pl an
Ġst om
ĠSand y
ĠInd ividual
ĠSac red
D ie
ĠCh rys
Ġind oor
c ity
Ġdesc ended
ĠCorn er
Ġille g
f ounded
le en
ĠD S
Ġinc omp
L ady
se in
Ġinst ances
Ġr ally
mar ines
cent ric
at um
Ġcollabor ated
Ġmean ings
In formation
row th
ĠT ell
Ġhar bour
ĠHein rich
Ġc ass
ĠE ar
Ġim per
ĠSud an
S ax
enn es
Ġcontin ental
Ġconsider ation
ĠS ag
Ġprompt ed
ĠSol id
gu itar
K im
A h
Ġh unt
ex cept
ĠH oney
ĠTh ursday
ĠTw enty
d ist
Ġc ater
ar row
ain ted
ĠSh awn
Ġcor p
ou b
Ġconst rain
ĠCher ry
Ġneighbour hood
od ia
ĠMill ennium
I O
Ġhar vest
ram er
Ġboy friend
Ġc arn
ĠV ul
sp ring
Ġthe sis
ĠH ew
Ġbo om
Ġcompar able
T our
Ġcon ferences
Ġun employ
Ġinc umbent
Ġdif fers
ott a
Ġtrig ger
ĠBar r
ĠP erson
ĠG ross
st orm
H O
ĠT yr
Ġmur ders
ĠGod s
k t
ar ity
Ġp owder
St and
ĠFore ver
Ġcom une
ĠCarl o
Ġw itch
Ġv inyl
Ġsouth western
Ġquant ities
ĠCred it
ĠPh arm
ĠDe al
Ġvic inity
g as
Ġlink ing
Un ivers
ĠBre nt
T ake
P ers
ĠS L
Ġdisc l
Ġcar b
Ġfood s
Ġcalc ulated
ĠPur ple
Jew ish
T yp
ĠF ind
Ġinf inite
ĠEconom y
Ġpres idency
ĠGo es
Ġqual ities
Ġb inary
ĠH ers
Ġinc om
ob o
Ġcust ody
Te levision
intend ent
m itt
ul in
Ġhand ful
Ġprim itive
9 60
Ġa est
ĠUS D
Ġcrit ically
ĠNAS CAR
id y
Re al
ĠBel t
ĠW an
Ġlaws uit
ĠCop enhagen
ĠColle ges
ĠH D
sp ace
Ġto m
ĠMar tha
Ġreb el
Ġattrib utes
incl air
ĠInter ior
ĠPh D
it as
Ġeat en
Ġt on
se at
L ight
ĠSt ring
Ġencoun ters
Ġ18 35
cl iffe
ĠQu artet
Un ion
ĠBeaut iful
w idth
id ays
ib an
Ġreg istration
ĠGeoff rey
Ġcr imin
ap y
ĠQu inn
Ġvow el
Ġcons erv
Ġtarget ed
m our
Ġintro ducing
Ġreserv es
ĠS D
ĠG unn
ĠWW E
L ast
en ic
d ep
ur as
doc k
ĠLenn on
it ate
Ġtrans mitted
ĠHol ly
yn om
Ġprot ecting
ĠStra it
b ad
l ook
ĠF eder
ĠRos en
Ġw are
ĠL ep
18 90
ĠK end
hard t
d ec
Ġcle ared
55 3
Ġa ux
ĠAct s
unn els
ĠRain bow
Ġ1 12
B and
w ill
ĠC rist
G N
Ġtal ents
ĠBright on
Ġhe ter
Ġest ates
Ġtall est
Ġple ase
er os
ĠF ight
Ġex pense
B R
H a
oc ate
Ġens emble
9 50
Ġin land
ĠE b
ies el
Ġass ists
haw k
v ine
ĠMy Space
Ġimpro ving
Ġhum orous
Ġspect acular
ĠT ropical
el ong
lic ations
b ore
all ow
ĠFran ois
t ailed
ĠMan ch
ĠBrit ann
ĠN othing
so ver
Wh y
ĠRh ine
Ġcab in
d an
b as
ĠBl ade
Ġnot iced
ĠSim ilarly
ĠR um
ris ing
Ġlegit imate
Vir gin
Ġm eg
Ġev angel
Ġhold er
ĠAn s
Ġpe aked
E rn
w heel
rit ies
Ġpres ervation
ĠP yth
ĠHand book
re ction
Ġ18 39
Ġrecre ational
it ational
Ġm ud
Ġcom merce
9 69
Ġfl ank
Ġeng agement
r t
Ġf amed
Cath olic
u ine
k el
Ġbl ast
ĠBr as
190 2
ĠWals h
ĠEl vis
ĠC T
Ġret iring
on o
ĠM ode
ak in
Over view
ĠD ate
ger ald
ĠMon key
ĠHum ph
ĠTrin idad
Ġprom o
Ġin herent
Ġdifferent ial
Ġfr ig
! ";
Ġover t
Ġdec ay
Ġthr ust
end e
Ġmet ric
Ġdis orders
Ġdef ines
ĠChand ler
Ġf are
ĠG ob
Ġcour age
it he
ĠB it
g ood
ĠW izard
Rel ated
S I
Ġw er
ĠX box
S et
ĠP all
r ays
ĠCh a
Ġwithd rawn
ĠC ult
Ġl anes
al id
stan bul
Rev iew
ĠB in
Ġextra ordinary
ĠFront ier
il ion
angu ages
Mar ie
ĠSp y
ĠMore over
Ġgener ic
ĠIns urance
ĠWol ver
ĠM I
Ġsk ating
uk es
Ġsimilar ities
n ormal
ĠH ait
ĠN urs
Ġ18 42
ĠRos a
pop ular
Ġ1 15
Ġ18 38
G i
Ġt et
Ġp ond
ile e
ĠS ylv
Ġthrow s
Ġartif acts
Ġant ib
ĠW id
Ġcar ved
ĠS ue
Ġpr inc
ĠBas in
Ġvac uum
Ġcert ified
od ic
ĠR ather
Ġdemonst rate
st en
Ġgr ace
Ġrep airs
Ġcontinu ity
ur ated
18 98
ĠP itt
Ġb omber
g overnment
ĠBird s
M ov
Ġpersonal ities
Ġsp ells
ĠEd en
Ġbow ling
h as
Ġcont acts
omb at
ĠDra ke
Ġra pe
ĠPl ain
ĠFre eman
Ġd ense
Ġunder way
Ġview ing
ĠFilip ino
ep pe
Ġdecre ase
rop olis
Ġrespons ibilities
Ġal ike
Ġcl uster
ĠV ick
Ġpres c
Ġshall ow
Ġh anging
Ġpr ide
og l
ĠMar ri
Ġtim ber
ith ms
ĠV ale
Ġdiscrim ination
ki en
F ac
ĠN ass
Ġbrand s
ĠAsh ley
C ross
ev e
Ġkn ee
Ġj oy
Ġevery day
c aster
os al
ace y
unicip ality
Ġfar mer
ĠO bs
Ġor gans
Ġcare ers
Ġport al
Ġobject ives
Ġmod est
ĠObl ast
ced es
% );
est rian
55 5
ĠRock et
40 1
Ġtechn ological
us ions
ĠF ont
Ġstri ps
Ġkit chen
Ġox id
T em
d aughter
Ġp enn
Ġg est
Ġunc on
rovers y
Ġancest ors
Ġannounc ement
ĠV ista
Ġathlet es
ort e
ound ing
aut ical
ew ater
Ġloc ked
ĠMorm on
ost ic
Ġexplos ive
Ġdpart ement
ĠR oland
Ġdef ault
ĠEc uador
Dem ocratic
Ġfil ter
Ġan the
ĠPark way
ĠKash mir
Ġ >
Ġs ings
rif ied
ig ma
Ġcomp atible
asc ar
ĠId ol
P rim
Ġint ensity
Ġdiscuss ions
ĠLa ur
iec es
ĠPro f
Ġgradu ates
Form at
Ġdest inations
ard y
Ġpropos als
soc cer
m ember
ĠTreas ury
ens ely
ĠSc ript
Ġpred ict
Ġbare ly
ĠB order
Ġcame o
ĠMon ument
Ġtra ils
Ġed ges
Ġball ot
Ġd iving
ĠCar pent
rox imately
Ġbu ying
Ġinter active
Ġbicy cle
Ġreact or
ĠLegisl ature
Ġuncons cious
ne um
ĠL ip
Ġad mission
ĠSol o
run ning
Ġro d
P L
re qu
ĠP ist
mon th
ĠGr ass
Ġload ed
Ġobvious ly
M G
ĠB uk
Ġmon archy
k ill
Ġdraw ings
S ize
p ol
ĠDist inguished
Ġenter prise
Ġres olved
ĠD ul
ĠF letcher
Ġfl ies
Ġloc als
ĠCon rad
Ġthe olog
Ġprohib ited
Ġwithdraw al
ĠCarne gie
Ġc ry
ri o
Ġte lev
Ġfe ared
Ġw ished
Ġfact ories
Ġanal yst
ĠPier ce
Ġtact ical
ĠM eyer
ĠPar ade
ĠTour ism
H om
ĠMin i
st roke
im ar
Ġcongreg ation
ath i
Ġdist ances
ĠGre ene
ĠGard ner
Ġsh irt
iscell aneous
is ure
ip le
ĠR as
ĠStra uss
ĠC och
Ġse ated
Ġrec onstruction
Ġgen es
Ġser vers
as ium
Ġra ids
B al
vent h
Inter view
Ġsc ales
Per iod
C op
in um
re cht
Ġl ig
Ġboard ing
ĠBow ie
y led
Ġal iens
Ġbox es
Ġinter ference
Ġresemb lance
otyp es
G ram
Ġconvent ions
ob y
gu ard
Ġneighborhood s
ĠR ex
Ġant iqu
ĠEven ing
6 68
Ġat oms
ĠSc he
ĠF eb
Syn opsis
U L
Ġh ook
Ġst uff
ĠAr ctic
ĠRe in
Pro v
Ġsophistic ated
6 78
Ġl uck
ĠBalt ic
ush i
Ġpropag anda
ĠT rial
ĠPer fect
Ġinfer ior
o ine
ĠI SO
Ġrenew ed
us an
ĠN g
ĠGand hi
ĠL uck
Sam uel
at ivity
ugh t
ina e
c or
ĠG ol
Ġconv oy
ĠTim othy
ĠW ords
ĠVern on
A st
Histor ical
ĠS aid
Ġh ung
ĠMid land
Ġjump ing
i ating
Ġcountry side
ĠD oor
ĠMem ory
Ġtim eline
a ic
l ov
ell es
Ġqu ot
Ġcol ored
Ġactiv ists
Ġbow l
th ouse
Ġan at
au ce
Ġjournal ists
bai jan
ĠEduc ational
ve ill
Ġb ike
Ġread ily
Ġins isted
ĠRou ge
Ġbrig ade
Ġsurrend ered
Ġart ic
Ġmon k
ĠOri ental
Ġtort ure
ĠCh al
ais er
Ġsomew here
ĠRom ance
ĠWhit ney
Port ug
ĠH ert
Ġdevelop s
ĠWeb b
ĠH ern
ĠL ect
ĠJ as
Jim my
ĠR d
n ick
9 58
L ar
Ġmix ing
heim er
Ġtherm al
rit ion
it ia
Ġsn ake
ĠChap man
ĠThom son
Ġincl usion
Ġc c
Ġl os
Ġpre val
o op
il ib
Ġec cles
M ult
ian ces
Ġr im
og ie
Ġdesc riptions
R oute
p he
os ity
ĠO kin
hold er
B eg
Ġair ports
ĠGre ens
ure n
Ġ( ,
ĠTh ir
ĠAl umni
ĠU rugu
ĠMar in
Anth ony
be k
ĠSix th
Ġd rown
at ial
ĠWorld s
ins ki
Ġre join
ĠG ul
Ġmet re
is ely
ĠGl ory
Char acters
Ġnavig ation
Ġtob acco
f a
ĠSuper ior
Ġv ampire
ĠCap t
rell a
h ad
ĠD odge
Ġwitness ed
Ġdescend ant
Ġlux ury
Ġst aged
Ġab d
It aly
D un
Ġk a
ĠF en
Ġfrequ encies
St r
Ġpublic ity
Ġcerem onies
il ight
ord ination
D eb
Ġcontr ary
ĠD ise
ĠAdd itional
ĠK od
Ġunder go
Ġce ase
V en
ĠRe lease
Ġcomb ining
Ġconsum ers
Ġbot tle
ĠCom ic
Pat rick
Ġp ace
ĠCh am
18 89
S ol
Ġnever theless
ĠB ound
Ġafter math
veill ance
an as
ĠB uc
ow itz
rad or
J am
Ġm ood
ĠC ao
Ġn ervous
Ġdrop s
Ġoverwhel ming
Ġprop he
Ġdig it
Ġlingu istic
h istory
Ġdisp utes
Ġmechan isms
ĠBi ology
ĠN ed
Ġimpro v
ĠTh ous
ĠSev enth
nd a
aus s
Ġbas ically
T en
ĠH ence
Ġvulner able
Ġco ached
ĠSax ony
Ġinf ant
ĠBeaut y
Ġst abil
Ġfound ations
ĠRepublic ans
Ġ18 15
Ġshoot s
ograph s
Ġlist ening
ĠR ise
Ġdetain ee
ĠSupport ing
Ġswe ep
ĠS ept
ĠMir ror
h un
ĠR ican
ĠCase y
L ew
ĠT ennis
ĠR ole
est ablished
Ġarm our
ĠLev i
Ġsax ophone
ĠK ens
Ġch icken
Ġsusp ect
Ġmig ration
le z
ĠT omb
ĠM aking
Ġre ly
ĠG ore
Ġpron unciation
H ill
eg ovina
in j
Ġab ortion
ĠSebast ian
ĠEmer gency
ĠR az
Ġgif ts
Ġadv ances
Ġtest imony
L ab
Ġst uck
F air
um per
ĠAg u
Ġnation wide
Ġc ord
ĠM aterial
Ġend e
ĠPers ia
Ġv end
st able
Ġf ingers
Ġl as
Ġg aming
ĠA in
ĠRes erv
Ġsup ers
ĠCole man
Ġlisten ers
M em
il itation
ĠT ouch
Ġl ip
Ġpar as
M edia
ĠT ao
R iver
ĠH ip
ĠR ough
os ion
ĠV on
Ġse as
Ġpar ameters
ĠAnn ie
less ly
Ġshel ter
h alf
m ag
ĠI ch
ĠG y
ĠPh i
oph yll
ĠR ox
Ġch assis
M ot
ĠMap le
T L
l ord
ope z
part y
Ġf rog
ĠB ren
Ġastron aut
ĠGl ad
lar ation
D ead
Ġro pe
Ġimport ed
elect ric
ie ved
Ġb achelor
ĠProv idence
P enn
ĠL ot
Ġinform al
Ġfind ings
ĠOrig in
ĠD ock
Ġmon op
Ġs ear
ĠMy st
ĠCard iff
ĠConc erto
l as
Ġcons ort
Ġhand led
Ġs hed
Ġd ances
id ity
fl ow
ĠSal em
ĠBeg inning
ĠPhill ip
ĠB ene
ĠD olph
Ġcoordin ates
Ġc ro
ĠTr acy
ae k
Con c
H MS
ur us
Ġenj oys
ĠK ok
Ġorgan isms
he ed
ĠIs ab
Ġfamous ly
im edia
ĠC airo
Ġad mir
L atin
ut ely
ĠL af
ne ath
St ory
spec ies
t el
ĠB rom
Ġra pper
ĠDirect ory
U ntil
Ġancest ry
Ġavail ability
m ile
ex pl
hn e
Ġsub stit
Ġac re
Ġc af
Ġd il
ĠC yp
ost al
ĠMay a
n is
ĠNew sp
ĠIn ner
ĠRe ad
ĠPer cy
Ġgar rison
Ġstrateg ies
ĠTasman ia
Cl ub
he art
il us
S ha
et ches
sh i
Ġmanag ers
ĠTom orrow
Ġdiplom at
D a
ĠBelg rade
Ġdemonst ration
ant an
ĠEx cell
Ġfeed ing
ĠSh u
ĠSy rac
ĠLeices ter
R en
Ġsurpris ed
H al
2 10
f ig
Ġjust ification
Ġaff ection
ĠToy ota
ou st
Ġd ys
Ġwild life
ĠSid ney
ot ted
aul ts
9 59
ĠMaced onia
9 70
H M
Ġpat ch
Ġhop ing
ir ling
Ġmass es
ry n
Ġexhib ited
ĠEx tra
Ġconsult ant
ĠCl ara
ist ically
ĠMar itime
ĠMad onna
Ġwalk ed
S ign
ir able
Ġrec onstruct
Ġout s
sy stem
Chic ago
Ġinvest ors
inem at
ĠP ied
18 96
Ġd ra
Ġprec ip
Ġski ing
Ġwitness es
Ġs ect
Ġre ass
ĠBagh dad
O K
Ġin ev
om al
ĠR ica
ĠHy de
ĠS ard
all i
Ġback up
Americ a
ĠF em
elf th
ĠResc ue
aun a
h ops
ron ts
ĠDe ut
ĠSchol ars
Ġm ast
ĠJ ump
Ġconstitu encies
Al tern
ĠIndones ian
Ġelder ly
oc ide
ĠPro gress
Ġaccl aim
Ġrout ine
ĠIr ving
R ad
Ġcomp ression
ĠBuck ingham
S u
l if
S and
ĠBl ind
Ġtub es
iast ical
im ination
Ġaccept able
ĠH onda
ould er
z on
rat ic
R a
U D
at ron
ĠW yn
c ourt
roll er
Ġfaith ful
ĠH ipp
ĠMin isters
Ġcomment ator
Ġex terior
Ġch ips
Ġap olog
I d
Ġpresent ing
Ġdead ly
Y ear
Ġpossess es
Pro file
Ġ18 43
ĠBal let
Ġbal let
ĠG w
b est
o os
ĠK ind
uc a
Ġsovere ignty
k al
Ġt ickets
ĠInt el
c m
w ear
Ġt i
J ason
ĠE rie
Franc is
Tex as
Ġind ie
Ġnob ility
ĠVik ing
Ġsp ur
olog ne
Ġnar rator
Ġrob ots
osa urs
Ġhead quartered
ĠTrib une
ĠAr cher
ĠCl aire
b red
Ġhe ll
B ruce
at u
rat ch
Ġmag net
ĠBur ma
7 76
Ġdes p
Ġelect rom
oc us
Par is
S ym
cl ing
Ġdeliber ately
P res
ĠS ally
Ġr am
ĠMcC arthy
Ġcompens ation
Ġsub marines
histor ic
Ġinstruct or
ĠKnow ledge
ĠSt ro
ĠSat ellite
Ġinn ocent
Ġmanusc ripts
fl ies
ĠI g
oth s
Ġdram atically
C ard
S a
ĠCzechosl ovakia
Ġun common
3 12
ĠWrit er
ĠL C
Ġa uction
Ġhe aling
M O
ac ies
ber ra
c ountry
ĠS ib
Ġn as
Ġexpl ored
l ich
Ġsubstant ially
Ġassess ment
ĠSacram ento
Ġs el
ĠG an
ĠHam mond
Ġprom ising
Ġwire less
ĠW er
Ġst amps
Ġag reements
ĠSch midt
ĠUn cle
ll a
ĠZ ag
Ġvers es
ĠFor bes
. (
ear ances
Ġrec alled
ĠT uesday
ae a
ĠCirc us
Ġeval uation
ĠI RA
Ġspons or
Ġundert aken
ĠSyrac use
W eek
Ġf ears
ĠAut om
ĠUn known
am ation
g ren
ĠC ran
ĠWW II
ĠJosh ua
ĠW ilm
Ġsuccess ive
ĠC ounter
ĠSh am
ĠMon arch
Ġrom ance
ĠB rat
ĠP up
ĠH ors
ĠR CA
Ġpar ade
ĠThe me
ver ted
oin ting
23 1
ĠJup iter
ĠIs les
Mic hel
ĠF uj
Ġdo zens
Ġpar ishes
ipl oma
18 95
al and
Ġdec ommissioned
ĠChron icles
18 88
if iers
Ġpol ynom
Ġam algam
ĠTor ah
Ġadvant ages
ĠP ond
ĠG A
ĠAm ateur
Ġexpl orer
Ġcl ip
uk o
ĠSpeed way
Ġt ended
ĠLiter ary
n ote
ĠCast ro
ĠAgric ultural
ĠS inclair
C ome
ch an
he ars
Ġprom otional
ĠSig ma
ĠUn ic
18 97
Ġpred icted
u ce
Ġl yric
ne ys
Ġflood ing
Phil ipp
um ann
Ġv ictor
ibl ings
ĠCre ation
ĠFl ower
Ġsaf ely
ĠMong ol
ĠL ands
ĠTit ans
Ġ" ...
rat a
I mp
ĠWeb ster
Ġnorth western
' "
ikh ail
z one
orth y
z el
Ġst ance
ra its
Ġpl anted
ĠAr row
Ġtri umph
ĠBack ground
Ġsc ream
g rave
il iation
anth a
Ġshut tle
Ġbroadc aster
ard ment
ĠSe oul
ĠH ak
Ġeth ics
M icro
ch urch
atter y
Ġcount ed
Ġsw ords
Ġquestion ed
ĠKrish na
Ġdis advant
Ġep id
Ġc ats
ri ka
c ross
t itled
8 66
Ġt ap
ĠTh orn
Ġsl ogan
Ġcritic ised
t w
ens ions
Ġadminist rator
Ġgrand mother
ess ing
ĠEl m
J ones
C ur
ĠN inja
Ġ18 34
S her
ĠW ong
ee le
ĠJan et
ĠGaz ette
c u
ist on
ĠAlbum s
cess ion
ĠV ampire
B aby
que z
9 68
ĠBab ylon
ĠConstitution al
ia e
Ġr he
Ġad mit
ĠMo hammed
Ġse aled
Ġserv ants
any a
ĠRecord ings
Ġp our
lect ions
50 6
ĠMatthew s
Ġbankrupt cy
ĠS iber
ets u
Ch urch
d el
Ġfact ions
ĠP ale
55 4
ĠDud ley
Ġelect rons
Ġed it
ĠConstant ine
Ġc uisine
Ġd ign
ĠR ising
ĠTun is
h ra
Ġt ab
Ġsu its
h ann
m ines
Ġpan els
ĠJen kins
ĠL och
ĠSh o
Ġrun way
T H
Ġ18 14
Ġavo ided
ro sc
ĠS aga
am ination
Ġpl asma
Ġsub mit
Ġhigh lights
ons hire
C orn
Ġj e
ĠAll ies
ĠUs ually
w ara
Ġk in
ug ged
ĠSpec ies
R P
Ġm isc
ĠJ i
arri ers
Ġexhib its
Ġa ided
Ġwood s
ĠOs lo
P rem
ur able
rict ion
Ġintro duces
ĠCongress man
ĠH ed
Ġimpl ied
gr ass
ĠC razy
ĠAl leg
o at
Ġjudg ment
em er
Ġair s
Ġpoll ution
ĠP ie
ĠD ial
ĠChief s
ĠD ixon
ĠD ag
ĠSuff olk
Ġsum mar
ĠC umberland
itor ium
Ġ1 11
Ġin eff
ĠR ings
vel d
Ġem otion
ĠGu adal
Ġdem ise
il is
are l
bro ther
Ġup grade
p df
art on
ĠRuss ians
he ng
ĠW i
b ol
ĠJ ub
18 70
ip zig
Ġj ealous
ĠDet ective
ĠMagn us
t rad
Ġag gress
Ġb ol
ĠProgram s
ĠIss ue
Arab ic
or ah
og i
69 0
Ġbr ass
ĠConc ord
Ġvac c
Ġstead y
ĠF ram
ĠOff icers
ĠNaz is
ĠFergus on
anc ock
K ent
50 5
w eb
Ġch ore
ĠSh uttle
50 8
ĠT ou
st ore
d or
Ġb und
ĠLind say
ĠCl iff
Ġadv ised
isp here
Ġfl ute
ĠMid night
ĠLiber als
ĠChar acters
Ġterror ism
g eneral
ĠH itch
ĠQu ant
ĠHol iday
ĠY ahoo
Ġpseud onym
ĠApp e
K arl
P rom
ĠG one
all ic
so lete
Ġdeclar ation
Ġv ibr
ĠC arson
Ġair ing
ĠEvery thing
ĠDuc hess
ĠH yp
ĠH IV
ateg ory
gl ass
ĠAb original
ĠE k
24 1
orig inally
ĠJoy ce
l ast
Ġfoss il
E arl
V E
ĠV ari
cl ub
ĠMar athon
og h
osp ace
fol io
Ġflow ing
ĠAltern ative
ĠCh o
Ġes p
er d
as u
Ġbes ides
Ġf ake
ro duced
ĠM uk
Ġinf o
Ġacad emy
op ing
ĠNew ark
ars ity
ĠEnt ry
ĠSat an
ĠJess ica
h ouses
res cent
ĠPil ot
g il
Ġf u
ĠC oc
ograph ies
Ġdem ons
s u
ĠBor is
Ġobtain ing
m ie
Ġcons c
ĠPeng uin
ĠSt rip
ry an
ĠOb ject
B urn
Ġc iting
te au
Ġsub ordin
Ġaccount ing
ĠFull er
Ġmonitor ing
ĠRep orts
ĠPhil harm
Ġcomment ed
ĠRif le
Ġrequ ests
op en
18 85
ĠHous ing
sh ort
ĠSm art
ment ioned
Ġamb ig
Ġforb idden
S F
h om
R oll
Ġsl opes
Ġpromin ently
ĠExpress way
ĠPra irie
Ant on
ĠD oyle
ĠK ad
Ġr ush
Ġsubdiv ided
Ġcrown ed
ĠY es
Ġinter rupted
P ast
Ġtr aced
S ummer
ĠM ud
ĠGeor ges
Ġsent ences
Ġtro phy
Ġmeas uring
Ġch ase
v ir
Ġtr unk
ĠCN N
D ream
S ound
Ġf ond
ĠS uk
enes is
ynam ic
Ġcontest ants
Ġmoment um
j ar
ib us
ĠQu int
Ġpret ty
ĠRaid ers
P ass
Ġd uel
ĠT il
ĠY i
ĠMar cel
l is
ĠT et
ĠV oy
Ġag greg
L ink
as aki
Ġceleb rities
D ick
ĠM orton
ĠD over
ĠStand ards
Ġreve aling
Ġhe ating
ĠDem on
Ġp ocket
ident ial
ĠS of
Ġpe as
ĠGu ang
Ġexcess ive
Ġincom plete
8 77
C all
Ġce iling
Ġqu ote
Ġlong time
ĠPlay boy
ato es
is odes
ĠT err
Ġrec onnaissance
Ġfram es
K al
Ġinaug ural
n ame
ut on
ag ascar
op ers
Ġr iders
Ġorgan ize
Ax is
Ġreminisc ent
eg u
Ġpist ol
in ition
ĠQ ing
ĠAssoci ated
ĠFitz gerald
Ġmod ule
iz arre
ĠI stanbul
8 76
L in
ull a
R o
Ġ16 00
79 0
ĠProgram me
Ġt urre
is ible
igg ins
S N
Ġout fit
Ġpresent ly
ĠBoy d
D or
uc ci
18 80
Foot notes
Ġm ate
iv o
Ġfl own
Ġsl ide
ĠMan ual
ĠCh oir
Ġad m
ĠMac Donald
Ġf ever
ĠD ong
Ġdis abled
ba um
ĠNob le
ĠNor se
Ġsymb olic
ĠBet a
y en
ĠY ak
Ġwould n
Ġdef unct
el o
Ġsleep ing
b ee
t arian
ĠM ell
og ical
Ġoff ense
erm o
Ġprior ity
ĠS ales
Ġpri zes
Ġge ographic
ch air
Ġachie ving
ĠBrun o
ĠStrateg ic
ĠGe ographic
ĠSant o
ĠQ ub
Ġbatter ies
ĠBud apest
Ġr ider
bl ack
Char acter
ĠAlger ia
ĠV and
Ġstop ping
Ġpath s
ĠF est
55 2
Ġarg uing
alm ud
Ġam phib
Ġins ert
im en
Ġide ology
is or
ĠTechn ologies
Pac ific
Ġrun ners
ĠBet ter
led on
Ġext ract
ĠJeff rey
R am
ĠL ocated
ĠM ant
Ġtri angle
x i
Ġtrain er
ĠLith uanian
ĠMcC artney
n or
ip el
Ġemig rated
M uch
ĠT i
F ive
ĠN est
ĠY emen
I an
Ġblock ed
18 94
Ġconven ient
ec o
18 91
Ġhard core
ĠSant os
ĠKu wait
Ġun n
Ġbas ement
R un
Ġw ounds
Ġreserv oir
Ġar che
H ans
ĠP ig
ĠR C
Ġcateg or
Ġreun ited
yp se
Ġge ography
Ġsusp ic
Des ign
ĠN un
18 93
ĠGu atem
ĠHels inki
g t
Ġprov ider
j et
at as
Ġre hab
Ġ18 31
Ġmod ifications
R om
Ġint act
Ġenh ance
em i
ĠMed ieval
How ard
ĠPh oto
Ġm ouse
Ġdr inks
ĠAber deen
ĠValent ine
ĠAtl antis
get own
Ġtrem end
v oice
b is
ĠB ess
Ġfrag ments
Ġcorrespond ence
An y
on er
com be
E F
Ġcru el
Through out
I ron
her ty
ĠD ix
Ġsh ar
18 92
Ġrec l
Ġnucle us
ĠK err
Ġdirect ing
ĠEx c
Ġharm ony
Ġdesign ers
ĠX avier
ĠHast ings
Ġimm une
ĠRap ids
Ġprec isely
ĠReb ellion
Ġhier archy
Ġpro fits
Ġd rift
Ġe ars
Ġst rain
Ġrecre ation
Ġtr aces
il on
ĠB ibliography
Ġrepl ied
ĠL ans
ĠSh im
Ġinvestig ations
Ġdefin itions
Ġstep ped
Ġsynd icated
ĠD owntown
ĠLeg acy
Ġn an
18 00
Ġinter actions
sp ect
Ġrail ways
ul er
ĠN ortheast
ĠCar th
Ġcrew s
Ġdefin ing
the l
Ġg reet
ĠK oh
Ġche er
Ġenroll ment
in ted
ĠRever end
Ġaffil iation
ar ius
ev o
T ar
ri ke
ĠTh ur
ĠL ance
Ġconf ined
Ġpup pet
3 10
Ġtre asure
oven ant
Conn or
ac ia
ĠH ollow
Ġstay ing
Ġfacilit ate
A B
ĠSh ak
ĠMc Cl
Ġple asure
Ġl ion
ar ound
le w
ul ent
ĠH ok
Ġhard er
ĠB ram
Ġdisc ography
Ġdep icts
Ġcollect or
Ġrad ius
Ġsem in
Ġteen age
ing o
ĠRh ythm
Ġc anton
im son
ors et
ĠRec ently
ĠNik ol
Ġfier ce
ĠP ole
Ġlik ed
unt a
Ġg ray
Ġsc reens
Ġunder water
Ġchalleng ing
Ġam bit
Ġexpl aining
ĠHart ford
Ġfin anc
ĠDon na
ĠKaz akh
ol son
nt hes
rew s
ĠTe h
As ia
rol ogy
Ġvol canic
Ġpersu aded
ĠS ara
ĠQu ad
ogen ic
ew ays
ĠH uss
50 7
ĠSc hem
Ġpreced ed
ĠRub y
3 13
s an
Ġstrugg led
Christ opher
ĠInsp ector
ĠFl at
Ġderiv ative
ig ration
Ġconv iction
ace ous
ĠSch war
Ġt u
Ġcapt uring
ul se
Ġadv ocated
ĠSer ver
Ġanthe m
Ġcrimin als
E nt
n as
ĠLight ning
Ġstom ach
ĠHerman n
ĠWinc hester
ac er
Ġhe ated
Ġsp are
ruct ive
Ġham mer
V C
en za
ĠN ights
Ġaster oid
F ootball
ĠS H
And y
Ġd iox
Ġles bian
ĠEin stein
ĠP iet
O p
ĠR ag
Direct or
ĠL opez
ĠBe au
Ġphr ases
Ġre per
od us
ĠDec laration
m ut
ac ula
ĠEm il
Ġopt ional
ĠThe ological
Ġrepe at
s ite
ĠSc orp
ĠRes ort
Ġer upt
Ġforg otten
Ġproceed ings
ul d
25 1
ĠCart oon
s w
int eg
Ġflex ible
Ġc el
ll er
fl ower
Ġc ure
Ġsc r
Ġdem anding
Ġmach inery
ĠF rem
ĠArab s
ĠTerrit ories
Ġwhere by
ĠMe h
Ġcho ices
Ġmeasure ments
Ġexcell ence
Ġc av
ĠSen ators
RO M
Ġcho osing
c ery
Ġcons p
Ġmind s
p ublished
Ġres on
ĠHow e
olith ic
f ar
Ġshort ened
ĠRick y
he res
Ġpublisher s
? )
ll i
urg ical
Ġpros ecut
vert ical
T ro
K enn
Ġlimit ations
ra il
Ġsp ear
Ġme al
Ġemb arked
ĠCan on
oph on
ĠI ST
Ġsl ang
Eng ine
ĠSlav ic
Ad minist
zh ou
Ġw ield
ĠN acional
Ġcou pled
at ist
ĠU z
Ġtouchdown s
Ġmo ist
Ġto ys
ĠC ove
ĠH ands
ĠR iley
eng ine
Ġ umb
ĠP ill
ĠR PG
Ġapp lying
Ġen ables
S qu
W ell
Ġdiv ide
ĠTre vor
ĠK ell
is bury
f unction
ĠK ak
ific ent
Ġreal istic
Ġpit ched
ĠPrem iers
ĠExper ience
= =
Ġp ound
E X
ocal ypse
ĠH utch
ĠLeop old
9 56
Ġcr ush
Ġround ed
ĠOkin awa
ĠN ut
ĠCom ing
H all
N ik
ĠV C
Ġsp ider
ĠMar co
Ġsub tle
ĠGerman ic
Ġviol ation
ĠMonteneg ro
ern el
ĠCD s
ĠIll ustrated
ĠWW F
Ġorgan izing
Ġcompet itor
Ġcampus es
yt echn
Ġancest or
S weet
roke e
ĠT ac
Ġann ounces
ĠEston ia
new s
fr ame
Ġc ement
pl ate
oss ibly
Ġf ant
Ġg ly
F I
ĠF lem
uts ch
he e
Ġf ores
ĠI st
ĠE rik
ĠSouth ampton
ĠTw ins
ĠArist ot
Ġobsc ure
ĠBes ides
ĠDaw son
ĠMarqu ess
ĠL ights
Ġbomb ers
? ,
ĠN om
ha o
Ġmodel ing
om ers
Ġend angered
inf all
Ġfold ed
c in
ott age
urs or
Ġtox ic
6 76
ĠK iller
st ick
ĠAnd rea
f ax
r ust
asc al
2 16
Ġret ains
Ġlist ings
ĠCan berra
Ġrevers ed
k ok
ĠWor cester
ĠSold ier
M aur
ĠSey mour
i ator
ĠRec ording
Ġconfront ed
Ġweaken ed
unn ers
ĠĠ ĉ
Ġinst antly
et ric
ĠQu ick
Ġannex ed
Ġsh apes
ar f
ĠM ao
ĠP BS
ĠC lyde
ĠCl aus
Ġveget ation
B ars
Ġbl acks
ĠPeters on
Ġgar age
h of
Ġlength y
Ġinterview ed
ĠI L
Ġtrack ing
Ġspot ted
em ption
ĠAchie vement
Ġdestroy ers
r k
Ġqu otes
Ġfav ored
ĠTra ffic
Ġabbrev iated
Ġpref ix
ĠAll ah
Ġsqu ares
ew ood
Rec ent
ip ment
Ġlater al
ĠB enson
iz on
Ġdro pping
N G
at ile
g el
ĠP DF
ĠV es
Ġmar ble
at l
ĠA val
ĠTe legraph
pro duction
Ġsl ower
ĠCP U
Bus iness
ĠTr acks
ĠNic arag
iv ism
Ġsuccess es
ĠW ine
Ġthe ological
ĠShe pherd
ĠSch ne
Ġmamm als
ilib rium
ĠC otton
ĠAlb ania
Ġin ception
Ġvol untary
uther land
H op
Ġh ind
Ġdep icting
Ġdet ection
Ġincarn ation
ĠCh ip
ĠRec ent
Ġtransl ator
Ġmerch ants
n ear
ĠH ag
ov ic
ĠGe h
Ġins ign
Ġemb edded
Mr s
ĠMalays ian
Ġs ank
lin ary
ĠPat ricia
ĠSher iff
ĠBrad y
Ġjew el
Ġsupern atural
Ġb is
Ġh orm
So ft
o ge
ĠMon k
ĠDavid son
Ġdeter ior
Ġir re
L iter
Ġd warf
Ġ1 35
oc ene
P a
epend ing
ĠB rief
Ġvac ancy
ĠS abb
ĠSim ilar
Ġpress ed
Ġch ocolate
Ġ17 0
Ġp ec
ĠI MD
Ġro ster
Ġcomb ines
Ġcap ac
ro let
B ox
ĠBeh ind
ar ra
ĠN um
ĠN ab
Ġspec ification
ĠCec il
ĠN T
Ġinsc ription
ĠS uit
el in
ue bl
Ġpre lim
ĠRev enge
Ġveter ans
l ide
W in
18 67
ĠM ighty
Ġfinal e
Ġlif ted
V is
ĠTrad itional
Ġcont empor
Ġfre eway
An ne
ĠBerm uda
ĠN it
ber n
Ġwhe at
ĠMid lands
ĠHind i
ĠL ik
Ġhe x
ep pel
Ġcontract ed
and ez
oun sel
Ġsub way
ĠHol t
ĠW ide
ĠW ade
The n
Ġsp rings
Ġun anim
Ġ4 50
Ġap ost
P D
4 17
ph al
Ġmark ing
ĠEm ir
Ġ %
Ġt ut
are z
its u
onst ant
Ġbirth place
ĠImp ro
ĠW ins
Ġ1 14
b ara
18 87
ĠTrib unal
Ġt unnels
ra x
Russ ia
Ġwis dom
in qu
Ġw and
Sp ain
ĠAdvis ory
ons on
Ġep it
R oad
ell ites
Ġappro aching
Ġchemical s
ĠProper ty
2 12
2 14
Ġcommand ers
Ġshell s
at hetic
ĠSe al
ĠJer ome
Ġlect ure
N ear
ĠS ki
ĠF ed
Ġde ity
Ġanten na
Ġab bey
Ġvac ant
Ġd ictionary
Ġarch itects
ĠCreat ive
ĠA I
Ġsome how
Ġdet ected
Ġcool ing
Camb ridge
Ġh alls
Ġdoctor ate
e ous
9 57
Ġ20 10
ep per
Ġmel ody
bird s
Ġscreen play
Ġp ine
op p
Ġreleg ated
Ġd well
Ġ18 33
Ġpro c
Ġdetermin ing
eed s
Ġf raction
ĠE asy
Ġup rising
inn ess
ĠKit chen
Ġrem ake
Ġ1 13
arn er
m unicipality
ob ia
Ġrem arks
Ġjoint ly
Ġori ented
ĠGh ana
Ġs ectors
ĠC rane
ĠD unn
Al ign
Ġsufficient ly
road s
bre aking
unning ham
ĠT ah
ĠI ber
18 68
ĠAr g
ĠSh ire
ĠEurope ans
Ġdiscip lines
Pop ulation
Div ision
ĠN ames
ĠBrit t
Ġambit ious
ĠMoz art
Ġfru its
f al
ĠStat us
und ers
Ġgener a
ĠShir ley
18 86
Ġsuperm ark
Ġk een
ron ym
ĠFl int
Ġcolumn ist
A le
E arth
H ay
N BA
f rey
el ing
ĠN O
Ġreg iments
a ise
Ġn atives
Ġmission aries
Ġsen ator
El izabeth
Ġs us
ĠWill is
ĠRod ney
ĠCompan ies
Ġt ran
Ret urn
ĠM anning
Ġsc rapped
sc ill
ĠRes ource
Ġexcept ional
ĠJes uit
ĠP eg
Ġillust rations
ĠStef an
ĠL amp
Ġwh olly
Ġtra its
echn ology
ĠK iev
air d
ĠPear son
Ġalign ment
Ġmaneu ver
ri que
ĠB org
Ġcomfort able
Ġl unch
ĠAl g
34 1
ĠHerz egovina
ĠCon an
60 9
Ġathlet ics
Ġar tery
keep ing
ay ana
ĠF landers
Ġpart ition
port ant
Ġphil anthrop
Ġmuseum s
ne g
ĠSh annon
the re
Ġcr ack
Ġgl ory
Ġvirt ue
Ġo ath
Ġemb arr
Ġcommit tees
ĠLad ies
Ġborrow ed
Ġentreprene ur
Ġcompan ions
Ġexhib itions
Ġanth ology
Ġst int
ĠSt ark
Ġp sy
haus en
18 79
Ġtorn ado
f orth
Ġ0 1
Ġlight ning
Ġconqu er
oper ative
Ġunsuccess fully
ĠR overs
ĠPer haps
Ġlo ans
an or
il yn
ĠN L
2 15
Ġatt ained
Ġgener als
Ġac ids
ĠLab rador
l ated
eth oven
ĠNov el
ĠSh ane
ĠAb ram
Al fred
light en
ĠAzer baijan
ĠA ster
Ġtr agedy
Ġ 000
ĠC ancer
ĠDe er
Ġdisp at
ĠT almud
ax ter
w hen
Ġb ills
Ġo ak
18 75
Ġannounc er
Ġfulf ill
ul ative
Ġover view
Ġsur pass
Ġinnov ation
Ġal beit
um my
ĠMon ter
ĠUnivers ities
ĠG entle
anc o
ul ators
Ġchrom os
Ġcons umed
Ġesc apes
EE E
od on
es y
Ġmet als
ĠM ood
out ing
pro v
Ġthreat ening
N O
ĠP iper
ĠAl ien
Ġtw ins
Ġgen uine
Ġf lesh
Ġapp ar
18 78
pe z
Ġcirc uits
Pro t
Ġgoal keeper
Ġcompl aints
Ġuniform s
Ġmolec ule
Ġsur g
ĠPat terson
Ġemploy s
Ġter rible
ĠT orn
Ġch aos
pe ople
ĠX ia
ĠCour ts
Ġtrend s
D utch
Ġh ate
ĠPract ice
Ġr ides
Ġcal m
J erry
Ġcare ful
Ġarch ives
og un
ĠAl most
ĠRe qu
ĠW es
Ġcounter parts
L ost
50 4
ĠNe uro
Ġsovere ign
ĠDen is
ĠCitiz ens
Ġin fil
ĠDes c
Ġm ys
aw k
Ġcomb inations
ĠSum mit
H ey
R ail
Ġatt ain
Ġrefer enced
it one
Ġf rozen
Ġperfect ly
F er
Ġn aked
Mat thew
W inner
ĠBrother hood
ĠProp het
T rain
Ġmus cles
n ational
Ġf ool
ual a
pron ounced
Ġcl erk
Ġtr im
Ġten or
p ark
Ġ ul
ĠCal c
ĠChrist ine
ĠKn own
un known
Ġisol ation
Ġbats man
Ġrend ering
ĠTol edo
ĠRef uge
Ġn urse
Ġassass inated
Ġl amp
ĠE cc
Ġvol s
ĠN J
est o
ost a
Ġobserv e
s ing
Ġb ug
ĠBl og
Ġt ricks
ĠM O
ĠAdv ance
ĠJ enny
uff icient
Ġnomin ations
ĠL otus
Ġrif les
y re
Ġp ic
ĠApp lied
ĠTan z
ĠF ol
Ġcons ensus
ĠHer c
Ġlack ing
ĠSil ent
ĠT aj
18 60
ĠCl ose
Ġj okes
Ġdec omp
ĠBever ly
Ġre duces
g ener
oo le
Ġcongress ional
ĠP on
Ġhun ter
, '
c irc
al ions
os ystem
he a
ty p
Ġsur geon
Ġrev ision
ĠIb n
D in
Ġan x
Ġj am
Ġaccur ately
Ġsup reme
Ġess ence
ĠLis bon
ĠFound ed
ĠReserv oir
oc t
Ġunder neath
ĠMiddles ex
ar am
Ġref lection
Ġcert ificate
W V
Ġsuggest ion
Ġpay ments
Ġchief ly
Ġcorrespond ent
2 27
ĠW ick
Ġde er
ĠOd ys
M ission
Ġto ile
ĠC e
ill i
Ġc rafts
art ime
ĠBar ber
Ġalt ogether
Ġar ise
ĠM afia
ĠDog s
Ġauth ored
Ġteen ager
ĠF L
ĠL ug
ĠF ury
Ġpro found
Ġmod ification
H or
le ading
ĠLeg ends
Ġoccup y
ĠCow boys
Mex ico
ĠB ard
Bob by
ĠProduct s
Ġveget ables
ĠT oul
ĠF ow
E mb
ron gh
Ġmart yr
Ġsummon ed
J ackson
ĠO R
v ideo
fil es
Ġinter rog
Ġdark ness
so on
Ġab olition
Ġne ur
W olf
it ivity
ĠA id
ough ton
ĠFeat ures
ect ives
Ġ1 17
ĠG os
Ġlic ence
ĠDest iny
Ġwat ched
Ġem ail
Ġcor rupt
Ġsu ited
ĠDem ographic
ĠLead ership
Ġs iblings
ĠSim mons
Ġutil ized
up id
Ġdiscuss ing
Ġcontroll er
Ġemploy er
Ġdeal er
ĠPeer age
Ġins erted
Ġaccept ing
ĠEmer ald
ĠFle ming
ĠJ ag
we ed
D T
ĠC ivic
ĠBe er
ĠProgram ming
Ġcorrespond s
68 8
ĠAdminist rative
I r
qu a
Ġsm oking
Ġresear cher
ill ian
ĠSch l
ĠStar r
Ġcons ec
ĠEl is
4 15
F r
ur ally
ble ms
C red
ĠW C
ĠW et
18 59
Ġbattle field
ĠD O
ĠWild erness
Ġobser vers
ĠC ologne
Ġun ified
L arry
Ġmut ant
n ian
ah i
ĠMac intosh
Ġp alm
osp here
ĠCas ino
% ),
ĠLat ter
ĠCh u
Ġen abling
Ġfact o
Ġec l
Ġ18 24
Ġne o
ĠPhilharm onic
B ased
ĠCros by
Ġfor get
Ġ18 01
Ġaud ition
ĠMer cedes
ott i
ĠTh anks
Ġhon ours
Ġastron omer
Ġle v
unk er
form s
ros se
ag ogue
Ġment or
9 66
ol ulu
Ġinc ons
Ġco eff
ĠFort une
Ġroll er
Ġc os
ĠE ur
ES CO
onduct or
ill as
ĠV ander
Ġ18 21
50 2
ring e
ĠBar rett
ĠSl am
F ather
Ġo re
ĠM ord
ĠF ile
Ġbe ats
ĠOr t
Ġbord ered
Ġn ode
ort ex
Time Axis
ĠT R
Image Size
ĠM ets
Ġlaw yers
Ġdeep er
ĠNorm andy
Ġpoin ting
Plot Area
tra k
ig l
ĠAss y
ĠHan over
ĠG iven
icular ly
p resident
Ġ( ).
ud er
ĠSl ovak
G O
ĠI k
Ġob solete
int age
Ġins ect
ĠHall ow
Scale Major
B es
Ġgl obe
ĠMart y
ĠAt ari
Ġlabel ed
ĠAppe als
Ġac cepts
ĠBar oque
Se a
ĠP apers
Ġpro se
ĠM VP
ĠV ince
Ġsu ite
ĠDod gers
Ġrook ie
ent in
am en
erv ing
ĠM aps
ĠW en
ik u
o ise
ĠCons ult
ĠBry ant
3 45
M F
Ġfront ier
t ec
Ġpast or
Ġp el
ĠSh arp
nd ez
Ġm aker
ĠC ars
oun ge
Ġpass ages
Ġship ped
ĠFre estyle
Ġrep rinted
fl ict
N N
ĠP GA
Ġ18 29
Ġra infall
ĠPr ide
Ġqual ification
di ocese
ĠAre as
Ġsyn chron
T y
ĠM iz
op ia
h on
Ġm as
Ġth roat
ĠIm ag
ĠOrgan isation
ĠNeg ro
Ġa ug
ag raph
ĠSh ock
um ont
arl ow
H ong
ip ed
Ġbes ide
Ġw ond
ac cess
Ġcouncil s
Date Format
R eb
Ġpop e
Ġalgor ithms
2 17
n ie
Ġcl iff
G il
at isf
ure ate
ĠTol kien
ĠL ima
Ġincorpor ate
Ġassum ption
oc es
ĠThe ology
Ġpup il
Ġparad ox
isc al
ie ves
Ġkn ots
ĠZ ar
F i
idd ing
cont rolled
olec ular
bys hire
bra him
ĠSut ton
L I
Ġm ol
Ġcomprom ise
L y
Ġre formed
ra e
W all
Ġevery where
Ġdiox ide
Ġcan cel
ĠGu itars
ĠV A
sh aw
roll ing
Ġph ones
Ġhol idays
E s
ist ries
Ġst rang
ĠSh adows
ĠAnn iversary
A BC
ĠE du
f ts
Ġb out
com ed
ĠL us
Ġor phan
Mar g
Ġ1 200
Ġrum ors
i om
ĠMy ers
ĠBer gen
ĠVen et
G P
Ġn i
ĠSil va
Ġdecre ased
ian i
ĠV ald
Ġp ac
ĠD uchy
ra ul
am ph
ong s
ĠG ao
Child ren
act yl
Ġspec imens
Ġinteg rity
ĠH ancock
5 20
Ġrel ates
ĠJ ungle
Ġ18 25
Ġcomm od
Ġaf raid
ĠP ag
ograp hed
and i
ik k
ĠWater loo
ĠOcc up
ĠS add
Ġw icket
ĠT ate
ĠPan zer
=" #
ys c
ĠUs ed
l ings
Ġb uck
Ġinter im
Ġret rieved
Ġsim ulation
ĠSw ift
Align Bars
N BC
s ource
Ġf illing
Ġh atch
Ġgener ating
ĠGra ves
Ġconsequ ently
Ġadvoc ates
ay ed
Ġlack ed
ĠT ot
ĠAntar ctic
on et
it ism
Ġw ool
ure l
ff in
Ġpract ically
Ġhom eland
f s
ĠC ouncillor
ĠP end
ĠRand olph
ĠGo a
Ġri ots
ĠF ischer
bour g
Ġexpert ise
T ok
ĠS eth
ph ones
Ġtra iler
Ġadequ ate
V I
Ġs ells
or ers
Ġbad ge
Ġde pr
80 9
ĠAb s
as an
ĠN iel
iz ational
Ġcl ips
ĠBu ilt
Ġpre ference
ĠBol ton
ĠAr lington
n ar
ĠArab ian
ĠD ir
ĠL augh
omet ric
b ably
ĠPar agu
Ġcard inal
ĠBron x
ĠB ac
her ry
ĠO uter
Profess or
Ġcirc a
Ġimm ense
ĠOpp osition
Ġaccompany ing
ĠF ro
Ġacc idents
B rand
H D
L en
d og
ĠV id
Ġingred ients
Ġb ias
ĠG uns
ĠUn ity
ĠWill ow
Ġposthum ously
O k
Ġsh ocked
58 3
ĠGu est
S und
ĠH ep
Ġch at
Ġgen ius
T ele
und o
Ġtr umpet
ĠPr ayer
56 3
ĠHaw ks
Ġpaper back
ĠG ould
ess es
ke f
Ġbl amed
Ġaut onomy
Ġsuff ix
ĠCr ash
Ġswitch ing
j ord
Ġsp ark
Ġsub stances
Ġph ases
ĠMat rix
ct or
ius eppe
child ren
Ġelect or
ĠUn ix
Ġam endment
Ġfor ums
Ġ1 16
ew ard
omb ie
Scale Minor
Ġ17 00
D J
ik en
com es
ĠF acts
Ġ2 40
ĠTh ink
ĠInter active
Ġv est
Ġmot if
ĠHel ena
B or
ĠM au
ĠWar wick
ĠBe aver
ĠNor wich
ĠCons ort
ĠS ieg
ĠJ ung
Ġlaunch ing
ĠUrugu ay
us ement
Ġschol arly
ai res
ort ic
ĠLat via
Bar Data
t ech
G overnor
f ootball
w on
Ġun related
ĠHor ror
im id
Ġdetermin ation
Bas eball
ĠPruss ian
Ġprom ises
H o
le in
Ġhar bor
Ġpregn ancy
L inks
Ġd ome
if a
Ġnew sc
ĠCam er
e er
Ġover head
18 65
ĠSp ir
ĠRec reation
Ġcontin ually
avor ite
Ġ18 06
cha ft
s v
ak is
ĠMe eting
Ġbet a
Ġlect urer
Ġpe aks
Ġmin erals
ham mer
ĠP eck
Ġv ein
Ġproport ional
C ount
ĠMo hammad
Ġpione ering
O H
ra ig
Ġeffect iveness
? ";
h ome
Ġa wa
ĠBer ks
ĠTyp ically
A round
w y
w ords
ib i
eld a
c asts
is eries
Ġat om
Ġsk ate
E ss
ins k
ĠOl iv
Ġpir ate
Ġmarg inal
ev i
Ind ependent
com b
Ġcor rel
ĠT ap
Ġsteal ing
Text Data
S oviet
Ġun lock
F all
ĠH ours
Ġam id
other apy
ĠJud y
an mar
aus es
Ġstat ues
ĠGod dess
Ġalt ar
ĠHus sein
Ġenlar ged
Ġcon clus
Ġcont ing
Ġinfl ation
ĠR oses
Ġheav ier
atin um
d ue
ĠTh ought
ĠT up
k g
Ġsc ripts
ĠBark er
ĠCh op
avel ength
ĠL anguages
oth ic
ĠAugust a
ĠAngel a
Ġsuperv ision
K S
Ġj umps
Ġacc redited
ĠTur in
ĠSol ar
Ġprem ises
Ġtim ing
Ġencl osed
lighten ment
) /
at aka
Ġ5 000
ĠO mar
arn a
Ġele g
ĠKingdom s
ubb ard
Ġremn ants
ĠAut ob
Ġbroad er
Dou g
ĠCal ed
d id
Ġover haul
ck er
Ġins ult
N a
up on
Ġun ch
Ġex iled
ĠV ie
Ġ18 28
ĠDes cription
Background Colors
R ain
ĠI A
ĠOr b
ĠSe lected
ĠElect ions
p oints
ĠPr att
ĠEx hibition
Ġcomple ment
ĠVol ks
Ġcolon el
ĠGlou cester
D M
tle ment
Doc tor
ĠA us
Ġreg ained
J ay
j acent
50 3
eat ing
Ġo wing
Ġv ag
Ġreg ards
Ġsoul s
ĠIST AT
58 9
edd y
ĠNi agara
he id
Ġmar ched
ĠProt ocol
T re
Ġin quiry
Ġfolk lore
Ġrefere e
ĠC i
18 76
ve z
ĠL L
ass ic
ĠCon sequently
ĠAndre as
er ver
ĠAugust ine
H an
ĠH ydro
Ġcart ridge
Ġkingdom s
Ġb ab
ĠF unk
B ang
z burg
ap le
Ġdiffer ently
ols he
ĠSte am
ĠS U
Ġfe ast
Jo hann
R oss
Ġse ating
pl er
ĠBo oth
iling ual
H ugh
Y our
ĠAl one
Ġres ide
Ġmotor way
ĠRaj a
ĠL iz
B oy
ĠJ ets
ĠLe ipzig
Ġport able
Ġinf ected
ĠCount ess
Ġconcent rate
C a
C ounty
Ġid ol
ĠDaniel s
ĠL al
Ġland sc
Ġt ang
Ġun released
ven ile
ĠInt o
Ġneighb ors
H oly
ĠG el
59 9
00 1
Ġdocument ation
Ġens uing
Ġĉ ĠĊ
ĠN ice
ach ute
isl av
h olic
Sing le
Ġris ks
+ +
N ob
ĠD uff
iss ued
Ġpe ers
ĠClass ics
ĠS utherland
18 73
imb ledon
Ġinvestig ated
ĠGener ally
Ġrot ating
Ġimmig rant
2 29
ĠP ure
Ġf ung
the y
ĠWilliam son
H ind
Ġinv itation
rop y
Ġstat ic
ĠRud olf
ĠOm ega
P rop
is se
ear th
AR D
Polit ics
ĠBro ken
Ġwar rant
Ġspecific ations
Ġstrugg les
Tur k
ĠC ron
C ivil
ĠN er
Ġmer ge
Ġtro ubles
ĠJane iro
st ones
ob ic
Ġprelim inary
ĠH imal
und i
Ġle an
Ġst ole
in ating
Ġres olve
Ġrec on
Ġc ros
Ġp ix
Ġhel met
Ġhard ly
il ations
Ġn ice
2 28
ĠC ounsel
l op
ĠC SS
Ġ2 20
Ġem otions
ung a
ĠPul itzer
Ġstead ily
Ġt ender
ĠR ita
ime ter
Ġprot ective
Ġdeleg ates
ĠLex ington
Ġyear ly
ĠB ates
ult on
Dou ble
Ġout lets
Ġfl ame
pro ducer
ĠC edar
79 9
68 9
3 16
Ġpros ecution
h og
ĠM ikhail
67 4
ĠAnti och
Ġ ency
Ġann oy
lyn n
est ock
Ġmon uments
ĠM err
Ġg ospel
ĠSom ething
lig a
Ġdirect ory
Ġ17 90
omorph ic
eg al
99 9
rec orded
ĠS ke
est own
Ġ18 10
ah r
Ġequ ality
Ġd uke
Ġspread ing
Ġeth ical
l ayer
Ġt a
Ġs ne
ĠBrand on
K a
ĠT ran
ĠJ al
ĠAnth rop
Ġm akers
Ġdig its
uts u
Ul t
ĠPione er
2 13
ĠK ul
Ġbreak down
ĠBuch arest
w ana
ĠB oot
ph oon
ze k
Ġgamb ling
amp ires
Ġsl ope
Ġpage ant
ĠM use
CO M
ĠClay ton
Ġchem ist
ĠBra ves
occ up
18 83
Ġvill ains
ĠFort ress
Ġincorpor ates
Ġdeleg ate
ĠSc ore
Ġgener ator
Fred erick
Ġs ued
ĠR oma
Ġ200 9
ĠV all
Ar gent
ĠP ike
G ames
ĠChe ng
Ġdiscuss es
ĠRober to
ĠInv asion
50 1
ĠT ud
Ġbreak through
ĠEvangel ical
Ġdec isive
F ox
h p
is o
Ġb ure
ĠSt ream
ĠZ amb
ĠShop ping
ĠCarpent er
S even
Ġcogn itive
Ġinter val
Mar ia
Ġevolution ary
af a
78 9
Ġsw ept
Ġsubs et
ans on
ĠCl arence
Ġcast ing
ĠMP s
amp ed
ĠRe leased
Ġdischar ge
Ġc ran
ĠW ere
Ġcontain er
ĠP L
Ġ18 16
56 8
ĠB onn
Ġfin ishes
Dr agon
18 48
Ġspec ulated
ĠKos ovo
L ow
f air
ach ine
Ġtransl ates
P ak
ĠL ig
Ġv ine
ob s
ĠRep orter
Ġeconom ist
Ġm es
ĠLe igh
Ġmed ic
ĠP ool
ex ter
2 45
L at
Ġc aves
Ġh oney
ump ing
ral tar
az y
Ġpurs uing
18 66
ĠTw elve
Ġwarn ed
ĠTibet an
Ġ18 13
ĠPh ase
ĠReb ecca
inn y
ĠGreen wich
ĠGo ing
Ġc um
ĠNorth western
77 7
Ġastron omy
18 69
ject ive
ĠHigh ways
ĠBol ivia
Ġatmosp heric
Ġadv ancing
ĠVik ings
Ġspe eches
ĠBul ld
u u
Ġdiagn osed
ĠR ally
Ġde le
Ġcomp ass
Ġhom age
f ull
sh ima
j or
iss ues
uff s
Ġassoci ates
M other
ĠT ill
ĠDr ag
Ġreflect ing
ud ed
l ake
Charl ie
am orph
57 5
Ġgu idelines
B ir
Ġd ancers
Ġstates man
ĠW o
pro t
ĠGen us
ĠW ish
Ġfunction ality
Ġguarant ee
ĠD res
ĠH ouses
od en
Ġback wards
ĠBy r
N ame
w al
Ġide als
Ġceleb rations
ĠE ch
Ġhe red
Ġcontrib utor
ĠB uzz
18 82
Ġout law
ĠPro s
ĠMet eor
Ġodd s
Ġ( ),
Ġ18 26
ĠAr r
atter ing
Ġcl ause
Ġstrugg ling
18 84
Ġcre st
an za
ĠBuch anan
T alk
Ġun h
ĠReg ular
Ġb acks
Ġto pped
ĠM aid
ĠM acy
Ġcl one
Ġsk etches
ĠSal am
ĠC unningham
ĠP ip
i astic
Ġ17 89
ment ation
ust ion
Ġdec oration
ar ine
are th
eli hood
ari at
spec ific
contin ental
iss an
ĠSu ite
ĠBrown s
ĠRest aur
ĠRap id
B ell
it ial
ĠL uz
Ġsimilar ity
Ġh ij
AR C
58 6
Ġpers ecution
Ġansw ered
Ġt uber
Ġsp r
ĠFor ward
ĠSter ling
ĠPar amount
ĠF ans
ew orthy
ub en
Ġar row
N ar
inc y
for ward
ouri er
Ġpl ag
ynam ics
Ġwel come
ĠX II
Ġsex ually
Ġsal ary
ĠDw ight
ĠCon fess
58 8
ĠEx eter
Ġworks hops
Ġcoll ision
Ġd ella
ĠH ond
oc ols
ĠJackson ville
Ġun pre
70 9
ĠCatholic ism
ĠConserv atives
Ġ ell
ĠCh ick
ĠPay ne
c amp
Ġr pm
Ġher ald
Ġgu err
Ġd ining
est ead
raw l
Ġdiagn osis
4 38
Ġlim estone
Ġsil k
Ant i
Ġcontinu ation
Ġmid fielder
aceut ical
F uture
al on
ĠC yn
Ġpl acement
ĠSand ers
u et
Ġl ighthouse
ĠW CW
Ġoper as
Ġspecial ty
ĠKat rina
ĠM og
ĠG ap
ire n
56 6
isc hen
ĠBM W
p ie
ĠP ius
j ack
ut ter
ĠW are
57 6
Ġdecl are
ĠSax on
4 10
59 6
r ar
ĠH ier
ĠL up
ĠSe lect
Ġsail ors
b il
ĠSun shine
al ism
ĠAl m
Ġcr ushed
Victor ia
g ia
ĠMass acre
Ġm im
ĠMar vin
ĠCl ock
P en
em ar
80 8
He art
Ġang les
ĠK aiser
ash tra
Ġhom eless
ĠWrit ten
ĠChile an
ĠN SW
Ġund ers
ĠTe ams
ĠBad en
p ets
ĠG ymn
ĠApp eal
ts ky
iol a
ĠCrit ical
Ġp av
ĠN avig
Ġun aware
With in
T erm
ar se
Ġ17 76
ĠAng ola
ra pe
ĠOver view
Ġd ors
Ġdisc our
Ġdomin ance
Atl antic
ĠUg anda
C as
p unk
ĠI R
Ġ0 5
Ġsurv ives
ĠGovern ors
ĠChev rolet
g ue
ĠAven gers
ĠCh ambers
Ġexc luded
Ġl ane
ir us
ĠG ru
Ġsh aft
Ġ7 50
Ġtermin ology
77 5
Le ague
uv ian
ĠClif ford
Ġstri ker
ĠElect oral
Ġfair y
ĠD ais
ct ica
Ġupd ate
ĠM uss
C irc
et us
Ġth y
un ks
ach a
aj o
Ġflag s
th ia
Ġper ipher
Ġresemb ling
ĠN DP
Ġnecess ity
ut ory
ĠIn ternal
ĠAl ive
ĠChe rokee
m ov
Ġn oun
ĠUr b
ĠH ang
sh ow
Ġst ems
ym met
Ġo scill
ak y
ĠSe qu
Ġmicro sc
ĠAssoci ates
ĠT ry
Oh io
en ia
Ġn odes
Ġtr agic
Ġproject ion
Ġspons ors
ĠMaj esty
B oston
S ab
ĠG iles
Ġ18 18
ĠAct ivities
ĠGroup s
ĠHaw kins
Ġrein forced
ĠW ise
ass ment
EN T
Ġt err
Ġp ushing
ĠL anding
ĠS oci
te am
59 5
ĠPres ley
Ġ1 27
ĠM M
ay ing
Ġbur nt
Qu otes
Lew is
P age
g one
Ġs auce
ag her
Ġdark er
ĠMag net
A re
I ran
t v
ĠT uc
ĠAm anda
ĠSy mb
ĠRob b
Ġbrut al
) );
ĠTri o
Ġhelicop ters
Ġplay able
Ġrailroad s
es que
Ind ust
2 37
h ydro
ĠH og
Ġgovernment al
ĠR ig
ĠEuro vision
Ġs odium
ĠTr uman
ĠGl oria
ĠChamber lain
18 64
Ġrespons es
A thlet
ĠK C
ĠCh ung
ĠWe in
ĠCub s
ĠWeap ons
Sax on
ec uted
Ġsh ark
ĠSt akes
ĠEd it
ic ol
Ġ0 6
Ġclass room
Ġpsych iat
j pg
v ous
ĠY as
Ġcy cles
Ġtremend ous
b rand
ĠK ag
Ġ0 2
Ġcollect ors
Ġcoordin ate
B ass
ĠC ull
ĠT owers
ul ing
Ġarm oured
Ġrenov ated
O ak
ĠJ orge
ĠG ord
Ġro de
co e
Ġbal anced
ĠTrav is
18 74
ĠPh o
ĠStev enson
ĠHold en
v oy
Ġs aves
Ġcl er
Ġcerem onial
Ġinject ion
2 46
A V
56 5
tt i
Nor man
Ġp inned
ĠT ul
Ġex otic
own er
Ġexpress ions
Ġload ing
Ġnew est
p os
est a
Ġ18 27
ple ments
udd in
Ġinvestig ating
ĠIn iti
ĠD ust
ĠE sk
ĠDep ot
Ġemer ge
ĠOs aka
Ġarbit rary
ablish ment
c us
m ean
60 8
ĠMart ine
w atch
ĠZ ach
Ġvalley s
ad in
ĠH ogan
est ial
ĠQual ity
ĠBe ethoven
Ġencour aging
th or
ĠCatal ina
ĠB B
ĠH yd
18 50
ac io
Ġcomp ut
stit u
Ġstri pped
g iving
res hold
Ġview er
ĠMarket ing
Ġvow els
ĠPremiers hip
Ġw ives
ĠH ole
Ġdev ised
Ġoccup ies
ĠPres idents
iat us
or an
Ġp oker
st ud
Ġcon form
ĠNo el
ĠW R
av ior
-- -
ĠGuatem ala
ob iles
L im
Ġsc al
aim s
Ġprec ision
ĠW ash
ĠMat hematical
M s
ĠL ily
Ġec centric
ĠBund es
Ġvac ation
ĠCov entry
H ell
est ine
Ġinter fer
An c
Ġmerch and
T el
f est
ĠMarx ist
al ore
ĠH ide
urre ct
Ġexpect ations
ĠFred er
Ġs orts
ĠF ritz
66 7
ĠRe ason
Ġmot ors
Ġcat ches
ran ged
ley s
ĠW ak
od er
ĠGl ac
ĠAr agon
N ET
Ġin ability
ĠHon olulu
A G
et ed
Ġsm ugg
Pro ject
ĠBas que
et le
ĠF ors
Ġsucceed ing
B ow
G ener
ar ium
Ġhost age
Ġ0 3
Ġrock y
Ġ( *
ĠSal isbury
ĠWhe eler
Ġinher itance
ĠP ub
18 57
utt gart
Ġv ib
ip ur
Ġ0 4
ĠNo ah
ĠB one
A mb
ĠA u
Ġass im
ĠT O
Ġcomp uls
Ġut ter
Ġwant ing
Ġb ust
il ateral
Ġprov iders
duct ions
ĠElect ronics
Or der
Ġnarrow ly
at io
ĠAlb anian
C ountry
p ike
Ġb anner
ĠSp in
P O
Ġp ent
ĠL ub
Ec onomy
kef eller
ĠS ai
ul iar
Ġdon ations
O ct
Ġliber ation
Ġm apping
Ġpl ague
og ene
ĠCon vent
ĠR E
60 7
Ġprivile ges
ĠDer byshire
Sm all
ĠT es
Ġnational ism
M arsh
Ġfl avor
Ġnumber ing
ves ter
th us
18 77
Ġthe r
ĠF ris
ĠO v
Ġpro long
od i
ĠBe an
att oo
ĠCam den
Ġstorm s
ĠCarm en
H R
ĠB ri
ĠRem ember
90 9
Ġreason ing
h aven
it ively
Ġl acks
per ed
58 5
ĠH are
ĠInvest ig
Ġhaz ard
Ġloc ate
ĠBur lington
Ġpractition ers
com mun
Ġsquad rons
ol utions
Ġrep ly
ar ro
Ġvol leyball
Ġsat ellites
ĠTurb o
ĠF ri
Ġbow ler
Ġobser ver
Ġenact ed
ĠFO X
ot ive
ĠK ant
Ġint ensive
ĠMid west
ĠPhilip pe
Ġorb ital
ĠR uf
oll ah
Ġbreak fast
Ġscen ario
c am
Ġd ock
ĠS yl
onn ected
ĠAnim als
Ġcr us
Ġmatch ing
ĠRun ner
cut ta
Ġshr ine
Ġ1 18
ĠB ash
ĠD ana
Ġ18 19
ĠEss ays
ĠC rypt
Ġ1 45
ĠW itt
P ur
Ġad vers
Ġbel oved
ĠCrom well
an ol
Ġm ock
Re f
ĠBy ron
ĠCom es
Ġdec ree
Ġcr ust
ĠL iang
Ġsm art
Ġclass rooms
ĠNord ic
ent er
aw an
Ġsub species
Pro gram
ĠConn ection
S ky
is in
ric an
ari os
Ġmax im
ĠS we
Ġplat inum
ĠBurn ing
ĠSum mary
Ġto ss
ĠS ob
oll a
55 1
Ġball oon
Ġreper to
al ach
Ġl ac
Ġsp ont
ĠDr iver
Ġrep uted
ĠPep per
ĠRodrig uez
ĠSt art
Ġadd itions
80 6
Ġd ent
ĠCal d
Ġel imination
Ġins ight
eck er
F ederal
Ġo st
ĠPhot os
T erry
ĠUl tra
Chap ter
Ġ <
57 7
Ġopp ose
ĠMer chant
Ġliber ty
ĠL ars
Ġdup lic
Ġdep osed
Ġstre ak
Ġaccomplish ments
c ode
Ġp awn
ĠS my
ĠJ ab
Ġsur veillance
M os
ĠLion el
Ġrecept or
ĠM aiden
Ġre pt
ill ac
ĠCorpor ate
S ex
il ot
ung en
N ich
at an
ĠC ats
Ab d
D am
ĠK ann
ĠPre c
Ġref use
Ġbus h
CD P
ĠAbb ott
m art
oss a
ĠEn emy
Ġur anium
ĠNar uto
Ġle ase
Ġteam ed
ĠFant astic
v ana
ĠK ou
t em
Ġsp oof
Ġform ations
ĠW ait
Ġpun ch
Ġrid ic
Ġhomosexual ity
ĠW hip
ĠN amed
Ġmid night
Ġdynam ics
ĠD iane
ĠN igel
ĠD ancing
Ġun m
Ġfr ust
ĠHallow een
Ġw orm
ĠR T
ĠG erm
56 7
59 7
ĠMer it
writ ers
ge e
60 6
Ġsol ved
Ġdi ary
Ġl aps
ĠPer kins
3 17
c op
4 30
ĠCamb odia
it ations
Ġpl ains
Ġsurpris ingly
ine es
ĠSch n
Ġins urg
ĠAlexand ra
Ġdesper ate
at ore
Ġinstit uted
Ġad mits
ĠSoviet s
Ġcho oses
ĠLeb anese
ĠF ork
ĠWe ber
ĠLam bert
ĠAnim ation
ĠRaf ael
ĠW ander
Ġj ersey
Ġac ute
w itz
ĠN ile
ĠE RA
ĠTr uck
ĠBudd y
Ġst ack
18 40
Ġun popular
ĠWat ts
Ġsevent een
ĠThous and
N R
ĠAl am
ey ard
ĠAll ison
h ai
ong a
work ing
ĠJose f
ĠTeacher s
Ġw avelength
Ġm ills
ĠL ingu
Ġ17 5
ĠInc ident
S port
ĠG ilm
Ġbe ef
Ġall ocated
ĠW iki
ĠTal iban
Ġ18 03
ĠJenn ings
Ġ il
Ġth umb
ow ay
ary a
Ġkick ed
Ġcatal ogue
C lin
g reat
ĠWal ton
Ġsil ence
sh an
Ġsurpris ing
B ishop
ĠCon vers
ĠJ agu
ap o
ind y
ĠBullet in
ĠL ump
ĠDe velop
70 8
Ġbre eds
ĠL ucky
oin ing
Ġsl ip
Ġcompos ite
Ġpir ates
ĠSoph ie
Ġsh orts
Ox ford
Ġrenov ation
ĠCal der
ĠPer forming
Ġexam ined
Ġaccommod ation
a an
Ġp uzzle
Ġfeed s
____ ____
ĠDeg ree
Ġm ath
Ġnot ing
ĠNad u
inc k
Ġdeleg ation
Ġw age
ubl ed
Ġbl end
ĠR w
18 72
Ġeccles iastical
Ġc urs
Ġac ronym
4 46
ĠAl c
arent ly
Ġag ing
Ġcollect ively
ĠDomin ion
Var ious
ĠP ablo
76 6
Pr ivate
Ġhat red
ĠV ert
Ġdevast ating
Ġt apes
Ġhe al
Ġcoll oqu
Ġphilosopher s
Mah on
Ġsymmet ry
D om
ĠC ors
ĠSub sequently
ĠPubl ished
Ġportray al
89 9
ĠB res
Ġpot tery
ĠNick el
58 7
57 8
3 14
H aving
Pl an
Ġenz yme
ĠI S
Ġdefend ers
g em
ĠCor inth
ĠCompan ion
ĠF ate
Ġp icks
ĠP unk
60 5
ĠPol ytechn
Ġday time
Ġdeg rad
ĠP oor
ĠMon astery
play er
dr ums
Dou glas
ĠG wyn
ud s
ĠBro oke
76 5
ĠSer bs
c reated
ĠW itness
Ġdep ot
Ġf oster
ĠL oth
Ġr ushed
ĠUS C
ĠMich a
ĠOrig ins
Ġmos que
Pr in
Ġg ases
Ġair field
omot ive
ud o
Dist rict
Ġd os
Ġport raits
Ġprompt ly
ĠD ear
ĠF ighters
Ġan onymous
Ġintent ions
Ġrhe tor
F riend
ĠSp ot
ĠKar achi
Cont in
ĠRest oration
ĠM ons
ob l
Ġrein forc
L i
ĠM ai
Ġinterpret ations
Ġqu artet
ĠEll iot
F T
Ġle ased
ĠSy rian
Ġfr aternity
Ar ts
Ġcryst als
W C
Ġvis itor
Ġr ay
Ġcount ing
Virgin ia
s z
ĠT ram
ĠP ug
ĠSt ations
Ġguarant eed
h ara
Ġw olf
ĠK ub
end ale
K at
T a
op ath
Ġcost umes
Q L
Ġf itness
Ġen erg
Ġunder going
Ġdenomin ations
G ordon
Ġh ollow
ĠD ru
Ġcast e
ĠMov ies
ĠBart on
Ġretriev e
in ians
Ġany way
omet ry
Ġabund ant
b led
it ious
un ion
Ġsub group
E qu
ĠMar ina
68 4
18 56
78 6
Ġweb page
ĠG ian
ĠTh irty
Ġsett ling
ĠWorks hop
um ing
re f
Ġc ivic
Ġbo asts
v iol
as ures
ĠA ston
Ġrock ets
Ġprev ents
Ġfert ile
ĠAristot le
ag us
Ġdet on
Ġang el
ĠEns emble
ĠVeh icle
Ġto oth
Ġfirm ly
ond iss
enge ance
h orse
ĠT ip
Cent er
ec he
Al ong
ĠTrib e
Jon athan
be ing
ĠApp ro
ĠT usc
per ors
78 8
st a
Ġline age
ept ic
ĠDig imon
ĠNet works
d rop
ĠS V
Jac ques
av our
Ġaff ects
ĠGar rett
k on
Ġch ances
ĠAlf onso
c ulture
ep ort
asc ular
ĠCast ile
ĠUC LA
ipel ago
ĠCh icken
ĠJul es
Ġbattles hip
art en
ĠAfter wards
ĠIceland ic
le af
ĠRes istance
Ġpoly mer
ĠC ret
ĠR AM
ĠFre eway
hr er
ĠT ort
Ġreperto ire
ĠGu am
ĠDon ovan
Ġmig rated
comp uter
ĠE uc
ĠK appa
Ġcomp are
Ġsynt hetic
Ġun rest
Ġmar itime
ĠEs per
ĠC M
ang s
ph p
Ġj ungle
ple ted
Ġbr ack
Ġfeed back
D est
ĠC ic
app ropri
cent ral
Ġpack ages
ĠBohem ia
18 63
ĠKum ar
ĠX IV
ĠBab a
Ġrig id
Ġst ir
ĠK ramer
Ġsh ores
ub ishi
ĠZ ur
ĠSc i
ĠRab bit
Ġb izarre
Ġport folio
ĠU tt
ĠCh il
Ġinter ven
Ġcert ification
ĠFerr ari
59 8
Ġpract icing
Ġt onn
ĠC L
a er
ĠA mer
Ġst rongh
Af rica
Scott ish
H and
am us
ĠRand all
ĠT oll
Ġreg ain
ĠHigh lands
ĠC hern
Ġex empl
ĠY o
Ġesc al
18 58
ĠEm bass
ĠMon aco
Ġw artime
ĠB ant
ĠJ ing
Ġinc ap
Ġ18 17
ĠRivers ide
Ġinter red
79 5
Ġtelesc ope
Ġtheolog ian
T reat
Ġfore most
Ġrow s
ĠVaugh an
ĠB rett
ĠSt ur
r aged
z illa
ad u
ĠAl ps
Ġ17 93
ĠDr acula
ĠRes olution
Ġproject ed
ĠW ife
ĠW imbledon
Ġparticip ant
ĠEm erson
o ft
69 9
Ġproduct ive
im ov
ĠG ale
ĠAs k
ĠTw ilight
pris ing
J osh
Ġs ake
op ot
ĠSt eele
ach y
ĠIs h
r ath
ĠN ir
ey e
ĠGu j
w icks
Ġe ternal
Ġord in
Ġextens ions
S yd
quis ition
ĠRe ality
ched elic
ĠLoren zo
P ot
ĠPro ceed
mill an
Dep artment
t um
he tto
ĠL ok
Ġscreen writer
Ġ17 92
Ġpress ing
Ġdeter mines
ĠCarl ton
C ong
Ġe uro
ĠW ey
ast rous
ĠCle m
ĠWolf gang
Ġavo iding
Ġ1 22
Ġag enda
el age
Ġexp end
Ġadapt ations
b ay
al ogy
Ġtw ist
ĠO ro
Ġk ne
Ġcur se
ĠNorm al
fore st
ĠJer em
ĠF res
Ġdomin ate
Ġgas oline
Ġst air
Ġsusp icious
ĠPhot ography
Ġadvertis ements
ĠSloven ia
es ters
ĠV or
ric es
Ġequ ilibrium
st ep
it at
ĠAr gy
P oint
ĠH ubbard
ib les
Ġcapt ive
Ġpun ish
U I
ĠY oshi
ĠPenn y
ĠKey boards
y ards
Ġrec all
ID E
Ġmand atory
Ġendors ed
Ġspawn ed
Ġcult ivation
ĠExpl orer
Ġb eds
ĠB oul
ĠTob ago
ĠMong olia
Ġur ged
D omin
ĠD E
ĠD irty
80 5
ĠMad agascar
Hung arian
Ġalumin um
Ġf res
Ġp neum
Ġst ats
ess el
ud i
ors che
ecess ary
Ġcommission er
Ġre hears
75 4
p rop
ĠL und
urric anes
Ġcomplic ations
Ġf art
ĠD ifferent
Ġsystem atic
Ġdam ages
ĠAff air
W inter
ĠG le
Ġnob les
Ġoverth row
ĠU d
AN D
ĠSpirit ual
ĠCrus ade
Ġposs ibilities
Ġval ued
la res
ĠVer de
Ġmod ules
Ġded ication
D eep
ĠTur t
Ġconstit uted
ĠSher idan
68 6
Ġgl uc
Ġclean ing
Ġcryst all
F ounded
ĠPyth on
P it
ĠP rel
Ġmill ennium
ĠGib raltar
Ġalgebra ic
yn ch
: .
Ġch ord
Ġend emic
ĠChrys ler
D ennis
ĠR ous
Ġar ter
Ġpr one
Ġreg ulated
Ġident ifying
uss y
Ġinterv als
R ose
ĠCanad ians
Ġche aper
th y
se en
Ġprocess ors
Ġtownship s
Ġrecommend ations
Ġher b
Ġh aul
N D
y ang
ĠSt rang
ĠSt ructure
og ues
Ġreluct ant
es ia
Ġman or
Ġcompris e
Ġinform s
Ġinaug urated
ĠAt omic
Ġpione ered
Ġf als
il and
ĠL ob
Ġind uced
Ġfire arms
Ġemploy ers
ĠCatal an
Profess ional
F R
H eb
Ġsp ends
Ġatt itudes
Ġpat ents
Ġs aga
Ġsubject ed
Ġs inking
Ġis ot
Ġ2 10
ell an
Ġsp ray
Ġpopular ly
Ġcell ular
Col onel
Ġhe ars
ĠV ide
arian t
Ġspons orship
3 15
Ġp osed
ĠP ang
ach im
Ġair plane
ĠDo es
Ġpreval ent
ĠR ear
orn s
ra red
Ġhe n
Ġover see
Ġtrad ers
Ġnom inee
J ane
Ġtrans action
ĠMag gie
Ġaff ecting
Ġmot ivated
John son
v ard
ĠT au
sp oken
Ġ12 3
On line
Ġstat ute
Ġp ays
ĠB oo
r ins
Ġl uc
Ġhe ct
olog na
b ill
st at
ĠD orset
act ory
ĠR ama
ast a
Ġinv as
Ġa ven
ĠS iege
Ġun stable
ĠElect rical
st rom
ĠM ald
ĠG ent
Ġcl ans
Ġair lines
ĠEv an
azz o
ĠSpe ech
ĠVolunte er
ur gy
Ġ18 05
Ġpop ul
rate gy
ĠG ret
ĠY oko
Ġfunction ing
v ocals
Ġa fore
ig m
eb ack
Ġarch bishop
quar ium
ĠTeh ran
Ġout let
Ġunus ually
ro ys
ĠR onnie
ĠOl ive
riz z
ĠWolf e
ĠP lease
Ġpl ots
Ġpres umed
Ġdemonst rations
r ide
iv ist
90 6
Qu est
Ġvert eb
ĠL yd
ĠIn flu
Sc ience
Ġp aved
ĠF arn
Ġex agger
Ġconsult ing
Ġtens ions
Ġad ul
to le
N atural
Ġarm ored
ĠDomin ic
Ġwat ches
or io
ĠD one
Ġv ault
ih ad
Ġcontact ed
Ġ18 22
Ġlength s
Ġprin ts
Ġexecut ives
en b
Ġcon ject
Ġres urrect
Ġd awn
Ġl od
rib uted
ism atic
Pro duced
- ;
- );
L aur
ĠC ould
ĠC oin
ĠK et
Ġspecial izing
Ġh ire
ĠE X
Ġint ens
70 5
S av
Ġdiss olution
ĠM GM
ĠP ocket
ĠE z
Ġdec ent
Ġprosper ity
Ke ith
b age
Ġ18 23
Ġmob il
Ġencomp asses
ĠE ighth
Ġtrans actions
Sh ow
ĠĠĠĠĠĠĠĠĠĠĠĠĠĠĠĠ Ġ
Ġmetaph or
ĠR ocks
Ġass et
Ġhorn s
ĠSuz uki
c ular
v d
ĠS ok
Ġconst ellation
Ġexpl oded
2 49
L ith
Ġthe ft
ĠAl ways
Ġdis hes
Ġens uring
p ublic
ĠC ertain
ĠT actical
ĠH in
ĠCol t
Ġchar itable
ĠC V
Ġst ays
ĠIn ver
Ġrel iability
ĠGer ard
Ġpip es
Ġg rip
are a
ĠAl v
Ġsec rets
Ġeduc ator
Ġcon gest
ĠSc ene
ĠGeor getown
ĠTe a
Ġden y
Ġautom ated
i oc
ĠD iss
ĠThe res
ĠSim ple
Ġf ox
ade qu
Ġste ering
Ġmen u
Ġmer ging
Ġconfront ation
C onstruction
ĠH air
Ġ17 98
St ars
Ġcomm uter
67 3
Ġrepl ies
Ġmodel ed
ĠFrances co
Ġp amph
ĠR iding
Ġterror ists
ĠW ent
ĠWe ight
ĠCross ing
J ournal
ĠU FO
ĠRe ader
Ġdeb ates
ĠBus ch
ĠGN U
B arry
ion i
ĠEp ic
H K
Ġm eth
Ġh ood
Gu ard
ĠLes ter
ĠD raw
ald o
Ġref using
Ġdel ight
ĠArt icles
Ġdeliver ing
Pop ular
ĠPars ons
Ġd uck
ĠD ante
Ġass umes
Ġprom otes
Ġpull ing
Ġmarri ages
N I
ĠBox ing
- )
R yan
yn a
Ġunemploy ment
ĠHerc ules
p ack
67 1
Rec ently
ĠSi oux
art y
ĠPre viously
Ġjurisd ictions
Cons ervative
ĠB R
Ġarchae ology
e on
Ġw arl
ĠM ush
Ġext ant
Ġmon etary
Sc ript
r ase
ĠS uf
Ġshow c
B ey
Ġreven ues
h it
n ation
18 54
ans en
Ġpriv at
k ick
m ere
Ġfort ified
H u
ĠS ale
ay ashi
ĠK rak
ĠJul iet
ĠNic ole
ĠOw ens
ĠHoff man
4 35
Ġw ise
st reet
ce ans
ĠSt arting
St reet
ĠUl rich
ĠJ iang
ĠTanz ania
4 29
at own
Ġun e
Ġconstrain ts
Ġdis astrous
com fort
Ġprem ium
Ġcl o
12 00
Ġdecl aring
Pr incip
Ġexplos ives
ĠAub urn
Ġhered itary
Ġass erted
ĠCon way
4 14
Que ens
worth y
ĠD ram
op a
Short ly
Ġtouc hed
v ill
f ri
ĠT rem
70 6
pro of
Ġpray ers
Ġcass ette
3 28
ĠCh ain
Col or
ĠFow ler
E ver
N L
Ġimpl ications
ĠM ate
Ġab rupt
ĠSc ream
ĠTr ilogy
Ġorigin ating
Ġcult ivated
ĠJacob s
Ġency clop
70 7
Ġmer it
Ġinvest ed
ĠVeter ans
ĠHel p
ĠC ream
18 62
76 7
T ai
u ates
ĠP oin
79 8
Ġvictor ious
st ars
Ġrep et
Ġexpl oring
Ġun named
ĠOver all
ĠRoc kefeller
C hem
ĠS amp
ĠVo ices
ĠRup ert
M R
ĠT ay
ĠComp ar
aph ael
ĠPriv y
Ġanticip ated
l b
s ize
ew ell
Ġsw orn
S oul
ĠC arrier
Ġre ef
ad ena
Ġind ef
tt a
idel berg
5 21
ĠMay o
Ġpet roleum
Hung ary
3 29
ĠEl s
Ġcas ino
ĠEmbass y
Ġpurch asing
ĠSub way
sk irts
Ġhappen ing
ĠM eat
ĠReg ina
as o
ĠC W
ĠB ord
iz u
ĠX III
Ġreview ed
ĠCl ap
Ġcolle ague
18 52
A ge
ĠD R
W el
os i
ĠScient ology
Ġal arm
Ġminor ities
ĠL yrics
80 7
ĠAp ocalypse
Ġincorpor ating
ĠN ou
18 30
Ġinv isible
let ion
Ġeng aging
Ġdev otion
Ġdec iding
ĠB ally
ĠPle asant
ĠAv on
ur red
ĠD aughter
ĠFor rest
Ġbrow ser
le ader
ific ant
erman ent
ĠTar get
ĠLor raine
Ġp ant
ĠD ad
78 7
ara oh
igg s
al om
pro duct
Ġworth y
Ġpap al
ĠNicarag ua
Ġcult iv
Ġtre ason
Ġnurs ing
B ank
C ulture
ĠJ eh
ĠTit an
wicks hire
2 32
Ġbr ide
ĠS ith
Ġĉ Ċ
Ġle x
Ġdec lares
ĠEle anor
ĠAF B
: "
P T
ath lon
Ġment ally
ĠIss ues
mean ing
Ġpossess ions
ĠG illes
re z
ret ion
ĠLiving ston
Ġnit rogen
av is
G ab
ak ala
ĠAur ora
w agen
ill ic
ĠRom antic
Ġs ar
Ġs oprano
ib ia
Ġet ym
ĠS au
Ġpre fecture
ĠLow e
Tom my
disc ip
ĠHann ah
Ed die
Hon ours
ĠPro duced
ĠCal cutta
ĠHass an
ĠAct ive
Ġprogress ed
ĠG ut
ew orld
Ġmet ro
Ġnational ity
Ġtheat res
ĠPe el
Al b
ĠV ac
Ġref urb
Cl aude
Ġemer gence
Comp uter
Elect ric
Ġat op
Con f
f emale
ĠE ly
Ġsoc ially
ĠB reed
ge ant
sm ith
W he
ĠH ick
ĠD warf
68 7
ĠPass ion
ĠSt ad
ne z
Ġmet abol
Ġrum ored
B an
ard on
Wh it
ĠD ome
ich te
ĠB ridges
Ġmin ers
Ġprofess ors
ĠMil k
enth al
ĠCh orus
J uan
b ler
Ġgall eries
ĠHans en
V ers
ĠC ot
ĠEd ison
Ġdam aging
c oll
ol om
ĠR andom
Ġwild erness
Ġ ump
ĠM olly
Ġcompl ained
Ġrit uals
ion a
Ġl overs
od rome
ĠSh ould
Ġblood y
under land
ĠB am
Ġindic ation
p ole
il ated
olog ic
68 5
ĠTrib ute
ĠMaur it
Ġinsc riptions
ig raph
Ġrac ism
rig er
Ġpass ive
Ġg n
ĠF ashion
lin er
Ġlay ing
J es
Ġf us
ĠM oy
ĠB attery
Ġcomp ress
bu ild
Ġaccus ations
ĠComp uting
Ġinstruct ed
Ġimag ery
3 27
ĠC ris
ER S
William s
re present
ĠMarri age
it les
ĠD oming
ay ama
ĠIn tern
Ġman kind
ĠStar gate
enh ower
ĠScout ing
z u
Ġri ot
ĠAmaz ing
Ġden ote
Ġtele communications
Ġsculpt ures
Ġswim mer
ĠB axter
av ailable
Ġ18 04
69 5
ĠMe et
ĠEnter prises
ĠN ec
Ġ18 09
ren ts
ah ar
Ġgroup ed
Ġill usion
z zo
Ġt unes
ra ising
ĠOm aha
ĠSail or
P sych
our ge
Ġexp enses
ĠAct ing
An na
Ġclar inet
ĠExcell ence
Ġp enc
Ġanal ys
eppel in
ign e
Ġfilm maker
mind ed
e astern
om ac
ĠL oss
Ġdet ention
ours es
Ġl ob
ĠG ong
Ġex cer
69 6
in to
Ġin k
Ġl ith
Ġdesign ing
ĠMac K
ĠDan ube
dr iven
Flor ida
Ġbure auc
ĠSign al
Ġauthent ic
Gram my
4 12
ĠN ina
ĠCol legiate
ĠBy rd
4 39
Ġun ve
ĠMer cer
ĠBang kok
ĠH BO
iss on
Ġdisc s
ĠSav oy
Ġhear ts
p i
ĠP emb
ĠSt irling
ĠAl man
ĠRy u
Ġswit ches
ĠS ave
ĠInf o
Ġf right
Ġelectrom agnetic
ĠL un
ĠN im
Ġy e
ĠSl ayer
C L
E vent
Ġw eld
ĠC obb
Ġtop ology
Ġappeal ed
ĠAle ks
ĠB olshe
ĠO ss
Ġch ant
15 00
Ġbur den
y ar
son ian
ĠSw ing
ĠBerks hire
Ġp ose
Ġret aining
Ġinteg er
3 38
Ġtro op
P ict
Ġl enses
et ically
ĠL ibr
ĠM ih
id on
oint ment
ij k
Ġpun ct
Ġir rig
P lease
69 8
ĠUN ESCO
Gl obal
ic iary
18 49
Ġloc ks
ĠRome o
ĠTal bot
Ġo mn
Ġch im
Ġreal ised
W a
ĠR over
av as
ĠUn its
duc ers
Ġbreath ing
ad der
ĠF urn
ry ption
Ġorder ing
Ġdefend ant
ĠDise ase
ĠN W
Ġob l
Ġtw elfth
hi ro
3 35
ĠS overe
ĠMiss ile
Ġvoc abulary
Public ations
Ġ18 02
ĠMer cy
Ġden otes
Ġm ush
Ġpl ed
Ġ18 11
79 6
Pol ish
ĠHait i
3 46
F inally
78 5
Ġsol ving
ĠReb el
? .
ĠK atherine
Ġrel ied
Ġorgan ism
ĠWend y
f ighter
g ement
Ġeight eenth
yt es
Ġsan ction
Ġt ide
ess ment
Ġover night
Ġdest roys
J enn
N Z
ĠMon sters
Ġsn akes
ĠAn ita
Ġins ane
Ġs acked
end ments
Ġlaun ches
ĠHonor ary
Ġwrest lers
Dig ital
ĠI EEE
ĠE min
Ġ12 1
ĠMon itor
Ġhero ic
ĠHab sburg
ract ions
ĠNic ol
ĠS ession
id able
ĠChrist ina
Ġscreen ing
Ġtelev ised
L u
qu ist
90 7
Ġprinc es
in en
ĠKey s
Ġpredecess ors
Ġcop ied
Ġmountain ous
Ġ ions
Ġbl ades
ĠIm per
Ġsucceed s
D ance
R ober
ĠA V
ik awa
Ġm old
Ġk ernel
ford shire
Ġ1 26
Ġe ject
Ġcom eback
ald i
ĠChe ck
Ġabsol utely
D anny
Ġ iv
ut i
Ġsc rew
Ġpo etic
ĠWeek end
Ġrebu ild
ĠKy oto
Ġmarch ing
Ġe ager
ĠF ug
Ġsat irical
Ġafore mentioned
ar g
ĠL una
88 8
ĠFranc isc
Mc C
ac s
ĠE ternal
79 7
ĠList ing
ĠLu igi
Part y
Af rican
ĠAN D
el ves
ĠG ond
Ġref usal
Ġbutter fly
E gypt
ĠV ij
unn ed
om ore
Ġru ined
ĠDart mouth
ĠC rest
Ġ17 95
stitution al
ĠFair y
Ġfavor able
ĠG ibb
ĠW ah
Ġnegot iated
ĠNic olas
ĠHumph rey
ĠM K
Ġk Hz
89 8
Ġstrengthen ed
Ġcontempor aries
Ġp ad
ich t
ĠSt raw
ĠMir anda
ĠLib ya
Ġsoci ology
Ġt ired
ac i
ĠSer ie
ĠMid way
Ġhum our
Ġcrowd s
ĠB enny
oc ence
Ġen force
ĠExt reme
Ġiniti atives
4 16
Ġd ive
ĠP t
ĠCo ordin
Ġemb assy
Ġcub ic
Ġh iking
Ġnot ices
Ġgl ob
ĠSold iers
ĠClass ification
ĠWeap on
ĠHT ML
C old
at ibility
ard ing
ĠRe formed
ĠLaure nce
Ġmark er
Ġrob bery
ithm etic
4 37
k l
em aker
ĠJ ill
Ġf oll
Ġr ack
Re leased
ĠCommun ities
Ġg ast
ĠZ am
S oon
n esty
Ġred ist
Ġroll ed
ĠE arn
ast es
St ill
T aylor
ĠM ansion
end orf
ĠTra ins
Vol ume
P I
Ġ1 47
ĠAl berto
Ġfre estyle
Ġphot ographic
ĠFar mer
Ġcl usters
ib ur
h ya
ĠR O
ĠOn es
Georg ia
as us
ĠH edge
ĠGu inness
Ġl ava
Ġ18 08
Ġbl ame
ĠPar ts
ĠTrans formers
H ero
o it
ĠConserv atory
ĠFl ood
ĠWe iss
ĠTs ar
ĠCond uct
Ġfrig ate
ĠM ugh
ĠR S
18 39
ĠWest on
Ġpress ures
u il
ĠL ois
ĠBel ieve
ĠDund ee
ich o
ĠCon flict
ĠPo et
L incoln
ĠF asc
Ġexec ute
9 30
ĠSt uttgart
ship s
ĠAbd ullah
Ġp ension
ĠG us
ĠK ung
ĠY ok
Ġdes irable
oo ters
Ġpec uliar
ĠParagu ay
a uth
c ies
h ang
ff er
ĠMar ks
acc ur
ĠElis abeth
Ġs ights
ĠHe ather
Ġundert ook
Ġpolynom ial
R ud
ĠE ck
Ġoccur rence
b ig
ĠS K
ĠB ishops
id as
ĠL ec
ale igh
ĠMc Gu
Ġprob able
ĠBull s
ĠNass au
s ka
ĠL uk
Ġball ad
B ird
c ats
Ġ18 07
c f
ĠD ro
ĠMe adow
W ayne
ĠH os
ĠPort al
ass er
Ġreun ion
L iving
Ġh alt
ĠK ick
18 37
Ġout skirts
Ġcomb ustion
abet es
ĠFu ji
ĠCarn ival
Ġmyst ical
ĠG og
Ġhapp iness
ab er
Ġupd ates
Ġwel comed
ĠW anna
ĠSt a
ph onic
ĠSp onge
Ġob ey
umb led
ĠTro uble
ĠConfeder acy
D L
re lease
Ġm ang
Ġd ot
Ġde af
Ġlin er
Ġprop het
Le vel
r ill
ĠB rav
Ġfem inist
Ġcreat ors
Ġre nder
Ġcycl ing
5 40
Ġsem if
Ġmist akes
Ġbes ie
R est
ib u
ĠAb el
Ġcalc ium
Ġcloud s
u ating
st airs
? );
E uro
em is
T M
Ġthe aters
ĠAm iga
Ġemb ry
P s
d ated
Ġp agan
ĠX ML
ĠQu incy
Ġsexual ity
ĠLog ic
B on
ĠG ull
ign y
ier a
ĠChes hire
Ġt in
ĠH ague
ĠFor g
Ġcur ved
Ġrecommend ation
ĠIsab ella
m ay
el ope
ul as
18 53
Ġsurround ings
Ġox ide
3 48
in itely
Ġb ark
ĠD ash
rib es
Ġsens or
ĠSchne ider
Ġcorn ers
Ġinstall ations
Ġabsor b
4 13
K eep
00 00
Ġrel ate
rop ic
bl ood
Ġnegot iate
ĠL um
Ġam ino
ĠX P
ĠVal le
Ġinstitution al
Ġ1 29
Ġl ag
ac us
ĠW erner
ĠAs c
ĠT ad
ĠF ool
Ġst ip
Tim eline
3 37
Ġg a
Ġglass es
ĠApost olic
Ġa unt
Ġor thodox
ĠJud ith
Ġprec ursor
Ġd ried
ĠF og
ĠG B
Ġnom inal
ĠK ara
ĠPort o
ĠTor res
Ġplate au
Ġgran ite
3 47
S i
ĠSch u
Ġcur ves
Ġsusp ects
ĠRel ief
Ġpoll s
n ai
ĠK ro
Ġcommun es
Ġgovern ors
us er
Ġcomment ators
Ġbed room
Ġimag ination
18 46
Ġmat ched
Ġposter ior
ass a
Ġpre acher
Ġconcept ion
oz o
g ain
Ġsuff ers
ĠKazakh stan
Ġt ire
up er
Ġr ushing
ĠNorth umberland
88 6
ĠAut umn
3 39
ĠR B
air n
aun ch
m l
Ġw ax
ĠCr imson
Ġlik ewise
ige on
Ġpeas ants
ĠR ash
ĠHar lem
k le
ĠO K
Ġgu ys
ĠE up
ĠE scape
Ġcr ashes
ĠOut side
Cred its
Ġrel ies
Ġbatt alions
Ġche cks
ĠGreen wood
Ġmini ature
f u
ĠP ull
Ġref ined
ĠQuarter ly
umb ria
Ġsynthes izer
Ġm ourn
Ġd irt
Ġn ec
ac ion
ĠK O
ĠSt rand
Ġassum ing
! .
ĠD B
ĠG in
Th us
Ġdefin ite
Ġreject ion
ĠD M
eg an
Ġ15 5
Ġign or
ĠFlem ish
ĠBritt any
ĠR ookie
Ġ17 99
Ġter restrial
Sar ah
ĠSabb ath
ĠSadd am
Ġen velop
eter min
ĠImp act
ĠFound er
Ġident ifies
ĠEv a
Ġer up
O lymp
Ġins ufficient
c orn
ĠSw imming
Ġimm ortal
Ġpick ing
f und
i ere
Ġf oul
ĠB rick
qu ality
ĠSem i
ĠLev y
Ġconson ant
Ġhon est
Ger ald
ĠCitiz en
ĠNeigh bor
Ġappar atus
ĠB unny
Ġex ports
ĠClub s
Y ellow
im et
ĠD ah
ĠLe one
Ġaest hetic
K it
Ġs aints
ĠF R
ĠMack enzie
Ġan terior
Ġch ambers
ĠPl ato
Ġcolon ists
M inn
t ree
ĠT rom
un ts
ortun ate
Ġo g
ĠF ra
ĠSt ing
18 55
ĠGar ca
ĠDev ils
Gen us
Columb ia
V o
Ġt ear
Ġb oots
ĠAg nes
Prin cess
ĠSt anding
Ġret reated
Ġcor ridor
Ġincred ible
S ay
ask et
ĠHead s
ĠUr s
Ġw agon
Ġappe als
ĠVer onica
ĠSof ia
Ġre velation
ĠAng us
Ġ ire
Stud ents
ĠC ategory
ly ss
Ġele phant
ĠGar field
ĠRun ning
Ġexc iting
turn ed
h yd
ĠTem pl
Ġprosp ect
Ġb on
Ġb ibliography
ĠP uebl
um ption
ank ar
ham pton
Ġconf isc
Ġevac uated
ĠS ach
Commun ity
n ance
ĠG ov
ik an
Ur ban
ĠPied mont
2 48
P ont
ĠC K
ĠK ling
ĠAs p
90 8
Le od
Ġalco holic
ĠOri ent
T ed
Ġm aternal
ĠT ian
if th
own ers
ĠUn ified
ĠMar quis
ĠKit ty
ĠMcK in
ĠHunting ton
Ġliv estock
Ġ17 75
Ġland ings
Ġdomin ation
ĠStr ath
T F
ĠH arri
Ġcr ude
Ġdom ains
Char ts
Ġs her
Ġp ile
69 7
ĠBar th
Ġfib ers
ĠDres den
ĠA K
Ġj umped
69 1
Ġcell o
K am
Ġorigin ates
tr acks
vis ible
ographer s
ĠC afe
Ġal ert
Ġext inction
Ġbuild s
Ġdecor ations
Bel g
ĠPho ebe
Ġoff spring
ĠCl ive
Ġaw aken
Ġs ized
ĠCh un
ĠAr bor
ink el
ĠAm ar
ny der
ĠPant her
ĠWire less
j ee
ony ms
Ġpopular ized
ĠLo op
Ġgif ted
w rote
Ġs erm
Ġf riction
n ership
ĠH es
Ġhe s
Ġfac ial
Ġsuspic ion
B art
Ġre porters
ĠUn limited
ĠChrist ie
ĠSp r
Ġgu ilt
ĠSund ays
Ġelev ator
ĠAntar ctica
F ly
Ġn ick
18 47
Orig ins
ĠLaure nt
Trad itional
Ġo mitted
ĠT ears
ĠE cl
Ġar ises
Ġdef enses
ĠBlack burn
Ġpull s
Ġsatisf y
Ġdevast ated
F ield
ĠT art
az on
Ġ17 94
Ġteen agers
Ġm ont
ĠPro blem
aster ies
ut ic
ĠJ ude
ev il
amb oo
77 4
Car ol
Ġvalid ity
Ġacceler ation
l ate
iny in
Inter state
Ġprepar ations
Ġpropri etary
E mer
K l
Ġb iblical
Ġdiffer ing
ĠX iao
Ġbackground s
ĠPatri ots
Bes ides
ĠIniti ative
ĠG ig
end o
Ġad he
ĠRev ival
Ġgarn ered
Ġt rom
ĠOr acle
Ġimp ly
Ġesc aping
Ġharm on
Gl en
sch ild
Ġstret ches
h ak
th am
ĠAr chie
ĠGood man
D ur
Ġt ense
is ans
st aff
th ren
ner y
Ġir rit
ĠKurd ish
M agn
ĠM LB
Ġastron omical
Ġprofit able
ĠB rem
ĠNor ris
Ġsens es
Ġsymp athetic
Ġnumer ical
Ġd w
Ad v
Ġrob ust
ĠHale akala
P ed
enc ement
Ġdiscip les
c roft
ol er
ty m
ĠRec onstruction
H appy
Ġteam mate
ĠPer uvian
Ġrepresent ations
Ġjud ged
uls a
Ġin adequ
Ġ( .
if iable
Ġmin iseries
e ight
Ġad s
Ġz oo
Ġt s
ĠH of
ĠG R
Ġshe ets
Ġ12 4
ĠSound track
Ġtrust ed
A K
Ġw ards
ĠG ive
Ġ2 30
Ġdele ted
Ġm g
ĠR FC
Ġle ts
ĠCour age
ĠLaf ayette
Ġmed itation
ĠD irection
ĠK amp
Ġrel ieved
Ġpr inter
ced ented
De velopment
ĠDeut sche
as so
Ġint ake
ĠVoy ager
18 45
Ġ17 80
89 5
Ġdu et
Ġpsych ic
ĠR im
18 35
Ġgu ides
I B
ĠP ee
Ġam azing
Ġutil ize
ĠScandin avian
ĠT ests
clus ive
ĠDown s
ĠUr du
Ġaster oids
9 17
iv ial
Ġte ens
ĠRad ical
ĠS hips
ol ini
ul o
ĠSt o
ock ets
Ġec osystem
Ġtax i
Ġbat ted
H art
wer p
ĠT akes
ĠP asha
Ġoff shore
Ġteam mates
aid a
Ġshould ers
Ġdig est
ĠGab ri
Ġadvoc acy
E ug
ar oo
Ġ1 32
ĠSt am
ĠFin ch
Gu y
Law rence
C raig
I ss
Ġsp inning
18 44
Ġworks hop
ĠBrown e
ĠBatt les
F ound
ĠWh ig
yl ine
Ġacqu iring
ĠHil ton
Ġjack et
Ġaux iliary
G L
Ġw ages
ĠL LC
ĠN inet
ĠHor ace
Mon arch
ep isode
ĠPro c
ĠPet ty
Ġdefin itive
Ġcartoon ist
I ng
ĠJ ade
ĠApp lications
D u
ar b
Ġac et
ĠCal iph
Ġdest ructive
N ap
m u
ĠH oy
Ġlin ed
Ġhand ic
For ce
ad en
ĠG onna
ĠComm une
Ġb od
ĠZ eppelin
ĠBar ney
Ġ( $
ĠD rop
Ġcount less
uck le
ĠAss ault
ĠRus so
d n
ĠH ess
ĠAl ley
ĠReg ent
agon ists
Ġtreat ing
ĠProv ision
d et
Ġf ol
ĠS onny
ĠBrig adier
In s
Ġinsp ection
Ġbul lets
4 27
pt ions
Ġprogram mer
ĠPat ent
Ġcommemor ate
ĠZh ou
d ou
ĠGu er
ĠMc Mahon
86 5
Ġemp ower
p ard
ri eg
Ġr aced
ĠHo over
raul ic
ĠA i
ĠM ental
Ġl ymph
ĠL au
ĠRe formation
back er
ĠCorn elius
ĠGlou cestershire
A er
Ġ0 7
Ġmys elf
ĠP K
Ġtri angular
N umber
ĠC age
Ġrep ublican
Ġbre ach
Ġapplic able
ĠG oku
ĠSch les
Ġoccup ying
ĠCy cle
Ġenter prises
Sy stem
C z
ĠO aks
18 51
fl ight
Ġseason al
Ġfre el
Bar on
Ġconcent rations
ĠSup erv
ĠPort rait
Ġder ive
ĠRena ult
t ank
Ġclass ics
Ġmonop oly
Ġtreat ments
ĠMand arin
ric o
Ġst iff
man ship
ipe i
ĠC asc
Ġeconom ically
or c
Ġun in
ĠFig ure
ĠK ah
Ġim aging
Ġsem ic
ĠIron ically
ĠPrincip les
Ġdispl aced
ĠMaced onian
ĠS idd
nov el
Ġf ederation
op f
Ġpl aint
p end
ĠH esse
ul ine
Ġsc out
ĠSh iva
Ġsat ire
Ġevac uation
d ong
Ġd ug
ogn ition
Ġliter al
ĠYoung er
bo ats
un o
ress es
Ġ1 46
ass i
Int roduction
Ġoverl ooking
F el
G host
l est
ĠR ath
Ġsol ic
R alph
ĠR iders
ts ch
yl inder
ed itor
ĠBe en
ps ilon
it ating
ain te
Ġsuc c
ĠPe oples
Ġb urg
ig hed
ĠN ES
Ġint rig
89 7
4 26
ĠV iz
ĠAd vert
Ġsuppress ed
ĠMar ilyn
Ġcat ast
Ġb ubble
Ġnot eworthy
Ġdisc rete
ĠBr ass
iqu id
Ġplant ation
I ce
nd an
Ġf a
ĠT ina
ĠF uk
ĠEl iot
ĠConn or
Ġsens ors
Ġassass in
ĠSport ing
ĠM ines
Ġrecogn izes
Ben jamin
P od
r ack
t alk
ac ious
ĠH icks
Ġdoub led
O m
g old
Ġ2 80
Ġer osion
ĠJub ilee
s ided
Ġprot ocols
bl ue
Ġasp ir
ay ers
act ivated
ĠWhe ther
ĠKarn ataka
3 49
Ġd ose
Ġcol oured
ĠMad ame
ĠLu ft
f ur
ĠB ret
Ġst raw
mer ged
Ġcooper ative
ĠC ain
Ġre opened
Ġst yled
In ternet
Ġafter ward
ĠGam ma
ĠNewsp aper
ĠR it
Ġnon etheless
Ġatt racts
ĠByr ne
R ub
ĠB ologna
ld on
ĠV ine
ered ith
Ġperiod ic
ĠEis enhower
ĠBl acks
Ġfert il
4 47
C ro
ĠW edding
ouncill ors
Ġcirc us
- ,
Ġtreat ies
Stud ent
Ġbutt ons
ĠM ew
Ġconfl u
ĠRod gers
m ale
ĠT iber
88 7
ĠHindu ism
us z
ĠD ing
ĠMin utes
Ġdev ote
Ġinvest ments
ĠMah m
Ġs ink
ĠSec rets
Ġsw amp
Ġ1 38
ox ic
ĠTre asure
ĠLaure l
Ġp uzz
ĠE ust
ĠV ig
Ġsp ans
ult ies
ĠJo han
Ġemphas ized
3 36
ĠC oy
ĠK and
ĠT ail
Ġequ ity
Ġl ords
W D
ĠM erry
ibl i
Ste ven
Ġorchest ral
Ġver bs
Ġdec lining
Ġec ological
ĠT rist
Ġint imate
most ly
ĠBre ton
ĠObs erver
im inary
olog ue
yd d
ĠSpring er
j oy
ur f
ĠCh ong
ĠZ ap
erman n
Ġpione ers
Ġpul se
Ġexpress es
ĠCarl isle
Ġspect ators
ĠAx is
Ġ1 44
Ġl av
18 42
90 5
ĠProceed ings
Ġ1 19
Ġtoler ance
C over
R ight
ĠF ruit
Ġfl op
t an
es on
un ge
ng th
ĠAnt iqu
ĠIr win
ĠAut onomous
ĠSchw artz
Ġres ided
Ġbl own
Ġweek ends
educ ational
re ach
Ġf ont
Ġrank ings
w r
Ġare n
Ġpen alties
4 45
Ġre app
if olia
Play boy
Ġrecip ients
Ġsatisf ied
Ġspir al
Ġunpre cedented
B ol
y i
ear l
ĠHe idelberg
ĠBott om
ĠM ou
ĠE MI
Ġp iv
port ation
ĠVal encia
Min ister
Ġapart ments
Ġh obby
Ġn ull
ĠCl air
cept ions
ĠK ry
ĠSk ull
Ġpriv acy
Ġret al
ĠF ountain
Ġ2 56
Ġsk ept
ĠAlb ion
Ġprincip ally
ĠBroad cast
ĠXV I
Ġ1 37
Ġvill agers
S H
g age
ĠBurg undy
p al
es i
ĠI vy
eg o
ĠHind us
Ġbra kes
ĠAnch or
T unes
Ġc arriage
Ġl iability
Ġe man
ĠR are
ener y
Ġfail ures
ĠShel ley
Ġt ips
ĠC andy
im acy
ember g
80 2
ĠS unset
ĠH arl
ĠH ector
L ate
d ict
v ian
Ġc rat
rit t
Ġturre t
d eb
m ma
Ġst icks
bit uary
ĠPant hers
Ġfeud al
eat s
Ġsw ift
ĠOdys sey
ow e
ĠG ad
Ġsh oe
Ġkn ights
Ġill umin
ĠButter fly
w at
ĠK inn
Ġr ays
ib o
Ġsan ctuary
Ġturb ine
Pak istan
Ġb arn
ĠG DP
Ġbar rels
O tt
Ġv iable
Ġcan cell
ym ns
Ġenthusias ts
as co
ĠG if
stand ard
d ar
ing e
ĠQuest ion
m oor
Ġpre vention
Ġunivers ally
er get
ĠSup ply
ĠBel mont
Ġelimin ating
ĠA ra
ĠU TC
rad a
ian us
ĠLe h
ĠHer r
Ġconsolid ated
number ed
g rav
ĠR F
In itially
Ġam usement
ĠRob bie
ĠDef eated
Ġbomb ardment
l ace
v ale
er un
Ġb ind
ex per
angu ard
Ġlim iting
Ġmurder er
pat rick
od o
Ġmy stic
ĠMag dal
at ism
ĠNon etheless
ĠEff ects
ĠF CC
hen y
ud ge
Ġper mits
ĠConc ern
5 12
inal d
Ġsac rific
Ġlad ies
op ed
its ch
67 2
Ġphys i
Ġtalk ed
Ġ17 91
Ġviol ations
ĠMarc os
k k
ĠCh ance
Ġdis par
ene veld
ĠPart ners
ĠTem p
ĠFa ust
Ġd un
ĠN WA
Ġprov es
Ġstrip es
spec ial
% :
it imate
ĠL over
art ments
Ġext raction
Al i
ĠLow ell
vol ume
ĠH idden
ut ton
og on
89 6
ĠRev en
Ġdisp osal
S ug
Ġl umber
Ġpro be
ans om
Ġdisc ount
ĠEl st
ĠJournal ism
Serv ice
Ġm aiden
Ġchar tered
ĠTer esa
Ġaddress ing
Ġdisgu ised
54 1
T ak
ĠA e
Ġover d
ĠGo als
Ġencour ages
igg ered
Spe ed
B uck
H it
l oe
el ed
ĠPers p
ĠC umm
ĠG erry
ĠCh it
Ġvir gin
comm unication
Ġdispat ched
Ġsurg ical
Ġa u
ĠGl am
Ġcros sover
I ST
ĠS iles
ĠH R
18 20
Ġ17 97
Ġdiscover ies
ĠH aus
ĠK auf
ĠSt ick
orn o
18 36
Ġwhere in
57 1
ĠFl owers
Ġtext ure
ĠColomb ian
Tor onto
F al
g ames
ĠK uala
En ter
Ġdisapp ear
Ġcompuls ory
Ġin mates
em ann
60 4
ĠCar bon
ĠĠĠĠĠĠĠĠĠĠĠĠĠĠĠĠĠĠĠĠĠĠĠĠĠĠĠĠĠĠĠĠ ĠĠĠĠĠĠĠĠĠĠĠĠĠĠĠĠĠĠĠĠĠĠĠĠĠĠĠĠĠĠĠĠ
al one
ĠS ick
Ġhuman itarian
iment ary
Ġsimpl er
ĠM atter
back ground
ĠGeh rels
Ġf ence
orn ings
Ġmanif old
ĠP ush
Ġmid st
Ġhab its
ĠP ages
up ta
Ġtro ubled
ĠSil ence
B ab
S now
Ġc ath
He alth
Ġindivid ually
ĠCle an
Ġlic ensing
ĠTrad ition
ĠNumb ers
C ultural
a eda
Ġw rapped
ac ements
ĠD ip
ĠL ank
Ġcont ests
Ġdiscover ing
pur pose
en ko
Ġsc rap
ink le
ĠFre ud
J ose
lect ic
ĠMy anmar
ĠMicha els
ĠS exual
75 3
ĠSam oa
Ġillust rator
Syd ney
H ig
ĠF eather
Ġem issions
ĠGlac ier
6 16
ĠP ersonnel
Ġterm inated
Ar c
roll s
6 30
H amilton
Ġamphib ious
K az
Ġtrad es
Ġmerchand ise
ĠV ega
Swed en
F ord
W at
Ġaltern ating
Ġinnov ations
S ty
Ġref lex
Fran ois
Ġdict ators
Ġdesk top
S el
Ġfit ting
r usted
Ġ1 33
ĠN il
Ġmeant ime
Ġmort al
Ġclimb ed
Mus lim
5 30
Ġw izard
Ġg ym
18 41
ev ol
ĠSc ro
ĠCal endar
Gro eneveld
ĠQub ec
Ġdr ill
ĠEth n
Har old
Ġsab ot
F at
Ġrep roduction
ĠWe aver
Ġgovern ance
Ġmand ate
ĠW E
Ġsh ooter
ass ium
cl aimed
Ġech o
H old
Ġw ines
Ġflood ed
ĠMartine z
ĠY ong
ĠUnion ist
iot ic
ĠBer ger
ĠManufact uring
ĠC ory
ĠH aj
Ġmel odic
Ġm aid
ĠZ hao
ĠGro s
ĠDes k
ĠN eal
ĠMult i
Rob in
Ġscen ic
Ġflour ished
ĠEston ian
Ġin equ
Ġ17 96
ĠHold ings
Ġgren ade
ĠLuc ia
---------------- ----------------
Ġpatri arch
ĠJohannes burg
ĠE R
ag ain
qu el
Ġse iz
idd ish
ĠAbb as
ĠM G
ĠY un
ĠIr vine
Ġassist ing
ĠLincoln shire
18 15
eb u
Ġen forced
Ġsec uring
ĠInc re
Ġcapital ism
School s
or u
Ġin ert
Ġb ells
Ġany more
B enz
Ġwh is
5 10
pp ers
77 3
Ġgraph ical
ĠB acon
ag awa
l at
Ġin ning
Ġstand ings
organ ized
4 28
S ac
Ġ ub
Ġo l
75 2
Ġenthusias m
k ie
ĠEl ite
ĠBah rain
ondiss ement
ĠV y
Ġspecial izes
Ġpoison ing
Ġcoc aine
Ġwer en
p rom
Ġreg ulatory
Play ing
Ġrebu ilding
ĠNurs ing
antan amo
Ġh ors
Ġ1 36
ĠCl arks
Ġdors al
4 49
d eg
Ġm ari
ec onomic
Ġtr iggered
ring ing
ounc ing
ĠSe asons
ot ations
ĠScar let
Ġju ice
ih ar
Ġdispl acement
ĠTreas urer
L ear
ĠW ess
Ġadd iction
Ġimportant ly
ĠMac millan
ĠC rescent
ĠB ian
ens ation
Ġmark ings
v ae
ĠCh at
ille m
Ġlower ed
Ġobst acles
4 36
ĠThe ss
80 1
ĠTrans lation
Ġcalc ulations
G ene
g ment
ĠA FC
ĠU P
58 2
Ġf og
Ġoffer ings
ĠG ert
sp ective
Mar vel
thor pe
ĠG ou
ĠK op
Ġen erget
ĠChar ity
ĠSam urai
Ġtack le
he arted
ĠC oss
ĠP OW
ĠNev ille
F il
ĠC ame
ĠR in
Ġrep aired
Ġsimpl ified
Ġconven ience
Kore a
ĠT H
Ġrest ing
ĠCop per
4 48
C ab
U k
is man
ĠI brahim
Ġal pha
Ġtor que
W ebsite
ĠP orsche
Carl os
ĠH ark
ĠRes ident
ĠF ulton
Ġset up
ĠHarm ony
U t
p aper
ĠCh atham
ĠMet all
Ġcritic isms
Ġcongreg ations
f icial
in ely
Ġinc oming
ĠEl i
Ġpain ful
ĠMonth ly
G ran
ĠG aza
ĠBut t
ĠDis p
ĠLah ore
id ium
ĠN ue
ĠK ip
ĠSt ruct
ĠSc hed
ĠCo at
ĠHer b
ĠMess age
walk er
ĠB AS
Ġmon key
ĠSand ra
ĠPres idency
11 00
Ġrest rain
66 6
AT A
ece ased
Ġdeb ts
Ġfoss ils
ĠD ent
ard e
Ġpl um
Ġfl aw
ĠGib bs
Ġoblig ation
i q
Ġcont empl
ren cy
ĠDoll ar
y am
as im
Ġblock ing
Ġattrib ute
ĠT ut
ĠD addy
ĠE aton
Ġfather s
Americ ans
ĠEver ett
ĠN issan
70 1
Ġcle ver
ĠHu ang
Ġdecor ative
ĠK oz
Ġsup rem
ĠInvest ment
Ġfinanc ially
s worth
ĠR ang
ĠArch ibald
ĠP tole
ĠK L
Ġclear ing
K ings
ĠP az
All en
ĠTim eline
ad ors
ĠAl ma
Ġpre historic
60 1
ĠEff ect
Ġrecept ors
ĠS essions
enn on
Athlet ics
M oon
ĠP ump
Ġsp or
St arting
Ġhand les
Ġgl oss
Ġhold ers
ĠR ao
L ieutenant
l io
w ife
Ġt ears
ĠL ighthouse
Ġout right
Ġcompet es
pro file
Ġlat itude
Ġcann ons
ĠIm ages
ĠOper ating
ĠCost ello
Ġbetray ed
T ech
Ġat he
ĠP oc
ag han
Ġatt ach
lin ear
ĠTrust ees
Ġpersu ade
tain ing
ĠDist ribution
T I
Ġl att
ĠPre par
Ġcoast line
Ġware house
u ations
ĠM amm
Ġn iece
ow ment
ĠK ush
Ġdisapp earance
Ġdisgu ise
ĠA by
ĠB old
ĠB uster
Ġhun ters
ĠWhe at
Ġdis lik
mount ed
en aries
Ġst unt
Ġbe ast
Ġposition ed
ĠEle phant
ĠEqu ipment
ĠS underland
Bro ther
ip ation
ĠMcC oy
ĠTrad ing
Ġbenef icial
Ġincorrect ly
V iew
x y
ĠT F
ĠPer cussion
Ġpl aque
18 38
Ġexam ine
ĠAp ache
Ġgrant ing
G a
Ġd ip
ĠIn form
Ġyour self
ĠSav annah
Ġheir s
ter dam
Ġch op
79 2
Ġapprox imate
ĠPok er
ĠUz bek
it ives
77 2
ĠDick inson
Ġalleg iance
Ġc ents
ĠE h
Ġsp atial
ĠMans field
L isa
T est
i ency
r ically
Ġh aven
ath ing
ĠSan ctuary
Ġele venth
ins p
ung s
Ġcamp ing
Ġguard ian
Ġflex ibility
Ġm ice
ra j
ie ft
Ġinsign ia
V inc
ĠP hel
og ly
ĠEv idence
Ġnetwork ing
Ġresist ant
Sing apore
l ift
w ang
iew icz
S ection
n ard
ol ute
ge b
Ġle isure
Ġmay be
part icularly
L ev
al ist
ĠCh att
bl ock
ĠDar ren
ĠG E
Ġsub mission
Ġsuccess ors
Ġsk ater
ĠEth ics
Ġporn ography
Ġdrain age
doc h
B eat
ĠC aval
ĠP aw
uff le
re k
ĠG t
Ġsp anning
ĠY us
Ġjust ified
ĠGi ul
Ġstret ching
ĠGran ada
ĠC J
end i
ham a
Ġfoc al
Swed ish
5 15
c ad
ĠH ate
ĠF ever
ĠMed ic
ĠFre qu
ĠKa hn
ĠSoph ia
atab ases
ĠSurv iv
in ator
Ġb ent
ĠG iuseppe
Ġwaters hed
umb ling
Ġanalog ous
aj evo
Ġrel ativity
Ġwe aker
Ġprot ector
ĠEx it
Ġresp ects
Ġcy t
Ġwars hips
K ir
Ġapp le
ĠVo iv
Ġtempor al
E mp
her st
and e
ĠJ ain
Ġde ed
Ġtrans fers
57 3
Ġep onymous
ĠDi ary
18 25
ograph ically
Ġwest ward
Ġrect angular
Ġadm ired
S atur
a illes
Ġus eless
Res earch
ju ana
liter ally
Ġh arp
ĠD if
Bern ard
ĠR ost
ict ory
Ġ17 83
ĠForm ation
Spec ies
ĠT ub
Ġund ef
ĠYan kee
ĠMechan ical
ĠBuild ings
m berg
ĠGal way
ĠSchem e
ric info
ĠBent ley
ĠU nt
og ne
Ġceleb rating
ĠBrid g
ĠL ocation
ĠG ers
Ġdeb ated
oper ation
Ġnob ody
ĠLon ely
Ġfl ames
ĠGar land
Ġsymp ath
ĠEcc les
ĠHond uras
6 10
ĠFrank ie
ĠAud i
ĠC oca
Be aut
Ġfle eing
F P
ĠCamer oon
, ;
ĠH ash
ĠOr ion
ĠAir borne
Ġge ological
ĠTer ra
Ġthorough ly
ĠT aking
st ring
am ura
ĠB omber
met al
ĠLoc ke
2 33
Ġb arriers
ĠC G
reg n
Song s
end ra
Ġdev il
Ġmot ivation
Ġdistrib ute
ĠDestroy er
Ġconflu ence
C ass
it on
ab olic
land er
Ġprest ige
ĠPret ty
Ġknock out
ĠW att
ĠSteel ers
n ative
7 20
H ou
ĠG O
Ġatt achment
ĠAn ast
ĠAccess ed
5 36
Ġprivile ge
Islam ic
Ġb olt
ĠP ow
Ġal ias
Ġcont exts
Ġcomm issions
ax ies
asc us
ĠArch diocese
het ics
dr ive
ĠPap ua
P ress
Ġair play
Ġtake over
Ġge ology
ĠGra ve
ĠSa unders
ĠGet ty
Ġcurren ts
Turk ish
ĠV l
ĠZ a
the med
Ġcompar ative
ĠBr ide
ĠTim or
ĠRestaur ant
yr gy
Ġpack aging
ĠLen in
K elly
g ion
Ġpol es
com plete
ĠLas er
ĠMahar ashtra
es ch
ĠS ame
ag in
Ġr age
Ġdis qual
get t
aret te
Ġo d
ĠMic he
L yn
ĠA ux
ĠP ens
D onnell
l ooking
Ġsav ings
Ġabbrev iation
ĠSpl it
ĠCons umer
We ight
ĠBos nian
ĠLump ur
ab h
Ġdist ress
Ġsevent y
ĠDarl ing
Ġp aired
ĠIn vent
Ġexc ited
Ġrespond s
ĠTurt les
ab ar
erm ont
cl ock
Com par
y pt
ĠD ug
Ġal igned
Ġstar ter
A ld
ĠIn fer
ĠPolytechn ic
Ġnow adays
ĠSe as
uther ford
Ġbra ke
Ġdenomin ation
Ġf iscal
Ġar rows
Ġ9 78
str m
Ġs tern
[...]
